{
  "version": "1.0",
  "truncation": null,
  "padding": null,
  "added_tokens": [
    {
      "id": 0,
      "content": "<|endoftext|>",
      "single_word": false,
      "lstrip": false,
      "rstrip": false,
      "normalized": false,
      "special": true
    }
  ],
  "normalizer": {
    "type": "NFKC"
  },
  "pre_tokenizer": {
    "type": "ByteLevel",
    "add_prefix_space": false,
    "trim_offsets": true,
    "use_regex": true
  },
  "post_processor": {
    "type": "ByteLevel",
    "add_prefix_space": true,
    "trim_offsets": true,
    "use_regex": true
  },
  "decoder": {
    "type": "ByteLevel",
    "add_prefix_space": true,
    "trim_offsets": true,
    "use_regex": true
  },
  "model": {
    "type": "BPE",
    "dropout": null,
    "unk_token": null,
    "continuing_subword_prefix": null,
    "end_of_word_suffix": null,
    "fuse_unk": false,
    "byte_fallback": false,
    "vocab": {
      "<|endoftext|>": 0,
      "!": 1,
      "\"": 2,
      "#": 3,
      "$": 4,
      "%": 5,
      "&": 6,
      "'": 7,
      "(": 8,
      ")": 9,
      "*": 10,
      "+": 11,
      ",": 12,
      "-": 13,
      ".": 14,
      "/": 15,
      "0": 16,
      "1": 17,
      "2": 18,
      "3": 19,
      "4": 20,
      "5": 21,
      "6": 22,
      "7": 23,
      "8": 24,
      "9": 25,
      ":": 26,
      ";": 27,
      "<": 28,
      "=": 29,
      ">": 30,
      "?": 31,
      "@": 32,
      "A": 33,
      "B": 34,
      "C": 35,
      "D": 36,
      "E": 37,
      "F": 38,
      "G": 39,
      "H": 40,
      "I": 41,
      "J": 42,
      "K": 43,
      "L": 44,
      "M": 45,
      "N": 46,
      "O": 47,
      "P": 48,
      "Q": 49,
      "R": 50,
      "S": 51,
      "T": 52,
      "U": 53,
      "V": 54,
      "W": 55,
      "X": 56,
      "Y": 57,
      "Z": 58,
      "[": 59,
      "\\": 60,
      "]": 61,
      "^": 62,
      "_": 63,
      "`": 64,
      "a": 65,
      "b": 66,
      "c": 67,
      "d": 68,
      "e": 69,
      "f": 70,
      "g": 71,
      "h": 72,
      "i": 73,
      "j": 74,
      "k": 75,
      "l": 76,
      "m": 77,
      "n": 78,
      "o": 79,
      "p": 80,
      "q": 81,
      "r": 82,
      "s": 83,
      "t": 84,
      "u": 85,
      "v": 86,
      "w": 87,
      "x": 88,
      "y": 89,
      "z": 90,
      "{": 91,
      "|": 92,
      "}": 93,
      "~": 94,
      "¡": 95,
      "¢": 96,
      "£": 97,
      "¤": 98,
      "¥": 99,
      "¦": 100,
      "§": 101,
      "¨": 102,
      "©": 103,
      "ª": 104,
      "«": 105,
      "¬": 106,
      "®": 107,
      "¯": 108,
      "°": 109,
      "±": 110,
      "²": 111,
      "³": 112,
      "´": 113,
      "µ": 114,
      "¶": 115,
      "·": 116,
      "¸": 117,
      "¹": 118,
      "º": 119,
      "»": 120,
      "¼": 121,
      "½": 122,
      "¾": 123,
      "¿": 124,
      "À": 125,
      "Á": 126,
      "Â": 127,
      "Ã": 128,
      "Ä": 129,
      "Å": 130,
      "Æ": 131,
      "Ç": 132,
      "È": 133,
      "É": 134,
      "Ê": 135,
      "Ë": 136,
      "Ì": 137,
      "Í": 138,
      "Î": 139,
      "Ï": 140,
      "Ð": 141,
      "Ñ": 142,
      "Ò": 143,
      "Ó": 144,
      "Ô": 145,
      "Õ": 146,
      "Ö": 147,
      "×": 148,
      "Ø": 149,
      "Ù": 150,
      "Ú": 151,
      "Û": 152,
      "Ü": 153,
      "Ý": 154,
      "Þ": 155,
      "ß": 156,
      "à": 157,
      "á": 158,
      "â": 159,
      "ã": 160,
      "ä": 161,
      "å": 162,
      "æ": 163,
      "ç": 164,
      "è": 165,
      "é": 166,
      "ê": 167,
      "ë": 168,
      "ì": 169,
      "í": 170,
      "î": 171,
      "ï": 172,
      "ð": 173,
      "ñ": 174,
      "ò": 175,
      "ó": 176,
      "ô": 177,
      "õ": 178,
      "ö": 179,
      "÷": 180,
      "ø": 181,
      "ù": 182,
      "ú": 183,
      "û": 184,
      "ü": 185,
      "ý": 186,
      "þ": 187,
      "ÿ": 188,
      "Ā": 189,
      "ā": 190,
      "Ă": 191,
      "ă": 192,
      "Ą": 193,
      "ą": 194,
      "Ć": 195,
      "ć": 196,
      "Ĉ": 197,
      "ĉ": 198,
      "Ċ": 199,
      "ċ": 200,
      "Č": 201,
      "č": 202,
      "Ď": 203,
      "ď": 204,
      "Đ": 205,
      "đ": 206,
      "Ē": 207,
      "ē": 208,
      "Ĕ": 209,
      "ĕ": 210,
      "Ė": 211,
      "ė": 212,
      "Ę": 213,
      "ę": 214,
      "Ě": 215,
      "ě": 216,
      "Ĝ": 217,
      "ĝ": 218,
      "Ğ": 219,
      "ğ": 220,
      "Ġ": 221,
      "ġ": 222,
      "Ģ": 223,
      "ģ": 224,
      "Ĥ": 225,
      "ĥ": 226,
      "Ħ": 227,
      "ħ": 228,
      "Ĩ": 229,
      "ĩ": 230,
      "Ī": 231,
      "ī": 232,
      "Ĭ": 233,
      "ĭ": 234,
      "Į": 235,
      "į": 236,
      "İ": 237,
      "ı": 238,
      "Ĳ": 239,
      "ĳ": 240,
      "Ĵ": 241,
      "ĵ": 242,
      "Ķ": 243,
      "ķ": 244,
      "ĸ": 245,
      "Ĺ": 246,
      "ĺ": 247,
      "Ļ": 248,
      "ļ": 249,
      "Ľ": 250,
      "ľ": 251,
      "Ŀ": 252,
      "ŀ": 253,
      "Ł": 254,
      "ł": 255,
      "Ń": 256,
      "Ġì": 257,
      "Ġë": 258,
      "ìĿ": 259,
      "íķ": 260,
      "Ġê": 261,
      "ëĭ": 262,
      "ìĿ´": 263,
      "ìĹ": 264,
      "ëĬ": 265,
      "ëĭ¤": 266,
      "ëĬĶ": 267,
      "ê³": 268,
      "Ġí": 269,
      "ê°": 270,
      "ì§": 271,
      "íķĺ": 272,
      "ìĹĲ": 273,
      "ìĦ": 274,
      "ë¡": 275,
      "ìŀ": 276,
      "ê³ł": 277,
      "ìł": 278,
      "ĠìĿ": 279,
      "ì§Ģ": 280,
      "ëı": 281,
      "ê°Ģ": 282,
      "ë¡ľ": 283,
      "ìķ": 284,
      "ëĵ": 285,
      "ìĿĦ": 286,
      "ìĿĺ": 287,
      "Ġìŀ": 288,
      "ê²": 289,
      "íķľ": 290,
      "ë¦": 291,
      "ê¸": 292,
      "ìĭ": 293,
      "Ġìķ": 294,
      "ë¥": 295,
      "ëĤ": 296,
      "ìľ": 297,
      "ëıĦ": 298,
      "ë§": 299,
      "ìĦľ": 300,
      "Ŀ¼": 301,
      "Ġìł": 302,
      "Ĥ¬": 303,
      "ìĿĢ": 304,
      "ëĿ¼": 305,
      "êµ": 306,
      "ë¦¬": 307,
      "ĮĢ": 308,
      "ĸ´": 309,
      "ìļ": 310,
      "ë©": 311,
      "ê¸°": 312,
      "Ġê°": 313,
      "ëł": 314,
      "ëĵ¤": 315,
      "ĠìĿ´": 316,
      "Ġë§": 317,
      "..": 318,
      "ìĬ": 319,
      "ë¥¼": 320,
      "ìľ¼": 321,
      "Ġë°": 322,
      "ìĸ´": 323,
      "·¸": 324,
      "ëĤĺ": 325,
      "ìĿ¸": 326,
      "ĠìĹ": 327,
      "íķ´": 328,
      "Īëĭ¤": 329,
      "Īĺ": 330,
      "ëį": 331,
      "ĠëĤ": 332,
      "Ġê²": 333,
      "Ġëĭ": 334,
      "ê²Į": 335,
      "Ġìĭ": 336,
      "ë°": 337,
      "ë³": 338,
      "Ġì§": 339,
      "ë©´": 340,
      "ìķĦ": 341,
      "ëŀ": 342,
      "ë¶": 343,
      "Ġê·¸": 344,
      "ìŀĲ": 345,
      "ìĭľ": 346,
      "ìĽ": 347,
      "ìĺ": 348,
      "ìĬ¤": 349,
      "ëŁ": 350,
      "ë¬": 351,
      "ê±": 352,
      "£¼": 353,
      "ë§Į": 354,
      "ìľ¼ë¡ľ": 355,
      "ëĮĢ": 356,
      "ìĤ¬": 357,
      "Ġë³": 358,
      "ìĥ": 359,
      "ĠìĦ": 360,
      "Ġëª": 361,
      "ĠìĤ¬": 362,
      "ëħ": 363,
      "Ġê³": 364,
      "ĠìķĦ": 365,
      "ìĹĲìĦľ": 366,
      "ì¹": 367,
      "áĦ": 368,
      "ë²": 369,
      "ë¯": 370,
      "ëĭĪ": 371,
      "êµŃ": 372,
      "Ġíķĺ": 373,
      "ìĻ": 374,
      "Ġë¬": 375,
      "Ġìĺ": 376,
      "Ġë¶": 377,
      "ëĲ": 378,
      "ì²": 379,
      "ĠëĮĢ": 380,
      "Ġêµ": 381,
      "íĸ": 382,
      "ëª": 383,
      "Ġ1": 384,
      "ëį°": 385,
      "ĠìŀĪ": 386,
      "ìłķ": 387,
      "íĺ": 388,
      "Ġìĥ": 389,
      "Ġê¸": 390,
      "Ġëı": 391,
      "ë¶Ģ": 392,
      "íĻ": 393,
      "íĥ": 394,
      "ê³¼": 395,
      "Ġìľ": 396,
      "ì£¼": 397,
      "ëĦ": 398,
      "ìĿ¼": 399,
      "ìĪĺ": 400,
      "ìĨ": 401,
      "ìŀ¥": 402,
      "¡°": 403,
      "ê±°": 404,
      "ĠìĪĺ": 405,
      "Ġíķľ": 406,
      "Ġê°Ģ": 407,
      "ëħĦ": 408,
      "ìķ¼": 409,
      "Ġìłķ": 410,
      "¤ĳ": 411,
      "Ġëĵ": 412,
      "ĠëĤĺ": 413,
      "ì°": 414,
      "íĬ": 415,
      "áĦı": 416,
      "Ġì§Ģ": 417,
      "Ġëĭ¤": 418,
      "Ġë³´": 419,
      "ìłľ": 420,
      "¹Ħ": 421,
      "ìĥģ": 422,
      "ĠìŀĲ": 423,
      "íķĺëĬĶ": 424,
      "Ġ2": 425,
      "ë³´": 426,
      "ìĻĢ": 427,
      "Ġíķ": 428,
      "êµ¬": 429,
      "ìłĦ": 430,
      "ê¹": 431,
      "Ġìĭľ": 432,
      "Ġê¸°": 433,
      "ëĵľ": 434,
      "ìłģ": 435,
      "Ġìļ": 436,
      "íĬ¸": 437,
      "ìĽĲ": 438,
      "ì¹ĺ": 439,
      "ĠìłĦ": 440,
      "ìļĶ": 441,
      "íĮ": 442,
      "ĠìĿ¼": 443,
      "Ġê±": 444,
      "ìĭł": 445,
      "ìļ°": 446,
      "ĠëĲ": 447,
      "ķĮ": 448,
      "ëł¤": 449,
      "ìĦ±": 450,
      "ĠìĨ": 451,
      "ëĲĺ": 452,
      "ë¬¸": 453,
      "ëĥ": 454,
      "ë§Ī": 455,
      "ëŁ¬": 456,
      "Ġê²ĥ": 457,
      "ëĭ¹": 458,
      "ë¯¼": 459,
      "ëĦ¤": 460,
      "ìĿ´ëĭ¤": 461,
      "íĦ": 462,
      "Ġë¯": 463,
      "Ġì°": 464,
      "íķĺê³ł": 465,
      "ŀĪ": 466,
      "ĠìĹĨ": 467,
      "íĨ": 468,
      "Ġë²": 469,
      "Ġëª¨": 470,
      "ë©°": 471,
      "Ġëį": 472,
      "ê¹Į": 473,
      "íĶ": 474,
      "íĻĶ": 475,
      "ëıĻ": 476,
      "...": 477,
      "íĦ°": 478,
      "ĠìĻ": 479,
      "ê°Ħ": 480,
      "ìĹ¬": 481,
      "Ġì¢": 482,
      "ĠìĬ": 483,
      "ĠíĻ": 484,
      "íŀĪ": 485,
      "ë¥´": 486,
      "ì§Ħ": 487,
      "ĠìķĪ": 488,
      "Ġì²": 489,
      "Ġíĺ": 490,
      "ìĤ": 491,
      "ĠìĿ¸": 492,
      "ìļ©": 493,
      "Ġìĸ´": 494,
      "ë¯¸": 495,
      "Ġê³µ": 496,
      "ĠíĮ": 497,
      "ìŀ¬": 498,
      "Ġì¹": 499,
      "ĽĦ": 500,
      "ļĮ": 501,
      "ì§Ģë§Į": 502,
      "ë¬´": 503,
      "ìĺ¤": 504,
      "Ġë§Ī": 505,
      "´Ģ": 506,
      "ê·¸": 507,
      "Ġì¤ĳ": 508,
      "Ġìłľ": 509,
      "ĠìŀĪëĭ¤": 510,
      "ìĦ¸": 511,
      "ëĵ¤ìĿ´": 512,
      "Ġì¶": 513,
      "Ġë¬´": 514,
      "ìĦł": 515,
      "Ġì£¼": 516,
      "Ġìĸ": 517,
      "Ġë¶Ģ": 518,
      "Ġì¡°": 519,
      "Ġíĥ": 520,
      "Ġê²½": 521,
      "ëł¥": 522,
      "Ġíķ´": 523,
      "íķł": 524,
      "ëĥĲ": 525,
      "ìĨĮ": 526,
      "ëłĪ": 527,
      "ëªħ": 528,
      "ìĸ": 529,
      "Ġìĥģ": 530,
      "ë£": 531,
      "Ġíı": 532,
      "Ġìľł": 533,
      "ĠëķĮ": 534,
      "ìĹĪëĭ¤": 535,
      "Ġë§Ĳ": 536,
      "íģ": 537,
      "ì¡°": 538,
      "ĠêµŃ": 539,
      "ëŀĺ": 540,
      "ëĬĶëį°": 541,
      "áĦıáĦı": 542,
      "ĠëĦ": 543,
      "ëįĺ": 544,
      "Ġë¬¸": 545,
      "ĠìķĬ": 546,
      "ìĹĪ": 547,
      "ì¤": 548,
      "ëŀĮ": 549,
      "ë¹Ħ": 550,
      "ĠíĶ": 551,
      "íĤ": 552,
      "íķľëĭ¤": 553,
      "ëĶ": 554,
      "Ġë¯¸": 555,
      "ĠëĲĺ": 556,
      "íļĮ": 557,
      "íĥĢ": 558,
      "ì¦": 559,
      "ìľĦ": 560,
      "ê±´": 561,
      "ìĽĶ": 562,
      "Ġìĺ¤": 563,
      "00": 564,
      "Ġê°ľ": 565,
      "íı": 566,
      "ëĭĪëĭ¤": 567,
      "ĠìľĦ": 568,
      "ĠìĹ¬": 569,
      "Ġë¹Ħ": 570,
      "ëĭ¨": 571,
      "ĠìĨĮ": 572,
      "ê¸Ī": 573,
      "ìĿ´ëĿ¼": 574,
      "ì¶": 575,
      "ĠìĽ": 576,
      "ĠìĤ": 577,
      "ì²´": 578,
      "ìĿĮ": 579,
      "ĠìĬ¤": 580,
      "êµĲ": 581,
      "ëŁ°": 582,
      "ìĹĲê²Į": 583,
      "ë³¸": 584,
      "ĳĲ": 585,
      "ì¡": 586,
      "ĠëĤ´": 587,
      "Ġíĸ": 588,
      "ìĭĿ": 589,
      "ê³µ": 590,
      "ì¤ĳ": 591,
      "ìľł": 592,
      "Ġë§Į": 593,
      "ê³Ħ": 594,
      "Ġë°Ķ": 595,
      "Ġê±°": 596,
      "!!": 597,
      "ĠìĥĿ": 598,
      "íķĻ": 599,
      "ëĤ´": 600,
      "ìĭ¤": 601,
      "ìŀĳ": 602,
      "ëĲľ": 603,
      "ê°ľ": 604,
      "ìŀĦ": 605,
      "Ġ3": 606,
      "íħ": 607,
      "ì¢": 608,
      "ìĥĿ": 609,
      "¶Į": 610,
      "ê²©": 611,
      "ìķĪ": 612,
      "Ġê³ł": 613,
      "íĨµ": 614,
      "ë²Ħ": 615,
      "Ġëĵ±": 616,
      "ê²ĥ": 617,
      "ĠëĶ": 618,
      "ê·": 619,
      "ê°ģ": 620,
      "Ġìļ°": 621,
      "ĠìĦł": 622,
      "ìļ´": 623,
      "Ġë¹": 624,
      "Ġì§Ħ": 625,
      "íĸĪ": 626,
      "ìĤ°": 627,
      "ĠëįĶ": 628,
      "Ġê¹": 629,
      "ĠìĦ¸": 630,
      "ê²½": 631,
      "Ġëħ": 632,
      "íĤ¤": 633,
      "ë¶Ħ": 634,
      "½Ķ": 635,
      "ìĺĢ": 636,
      "íģ¬": 637,
      "ê²ł": 638,
      "íĸĪëĭ¤": 639,
      "ìĪ": 640,
      "ë§Ĳ": 641,
      "ë¨": 642,
      "ì°¨": 643,
      "Ġëª»": 644,
      "ĠëıĦ": 645,
      "ìĹŃ": 646,
      "ê¹Įì§Ģ": 647,
      "ĠìĤ¬ëŀĮ": 648,
      "ìłĢ": 649,
      "ê´Ģ": 650,
      "ĠëıĻ": 651,
      "íĭ": 652,
      "ë¬¼": 653,
      "ë©´ìĦľ": 654,
      "ĠìĿĺ": 655,
      "íĸī": 656,
      "Ġìĭł": 657,
      "01": 658,
      "Ġëĭ¹": 659,
      "Ġê°Ļ": 660,
      "ìĹ°": 661,
      "ãģ": 662,
      "ê¶Į": 663,
      "ĠìłĢ": 664,
      "ëª¨": 665,
      "ĠíĬ": 666,
      "µľ": 667,
      "Ġêµ¬": 668,
      "ĳľ": 669,
      "ë¥¸": 670,
      "íĮĮ": 671,
      "ĠìķĮ": 672,
      "ëĵ¤ìĿĢ": 673,
      "Ġìĺģ": 674,
      "Ġì´": 675,
      "ĠìķĦëĭĪ": 676,
      "ĠìŀĪëĬĶ": 677,
      "Ġë§İ": 678,
      "ìĨį": 679,
      "íķĺê²Į": 680,
      "íĶĦ": 681,
      "Ġë¶Ī": 682,
      "Ġë©": 683,
      "ì¹´": 684,
      "êµ°": 685,
      "íĽĦ": 686,
      "ĠíĨ": 687,
      "íĺ¸": 688,
      "??": 689,
      "ĠìĦ±": 690,
      "Ġ-": 691,
      "Ġëĺ": 692,
      "ìķĺ": 693,
      "Ġ(": 694,
      "Ġë°ľ": 695,
      "Ġë°©": 696,
      "ĠìĹ°": 697,
      "ìĭ¬": 698,
      "ë°©": 699,
      "Ġìŀ¥": 700,
      "ĠëĨ": 701,
      "ëĵł": 702,
      "ëĭ¤ê³ł": 703,
      "ëĬ¥": 704,
      "íİ": 705,
      "Ġíģ": 706,
      "ë°ĺ": 707,
      "ë°ľ": 708,
      "ë¦°": 709,
      "ìĹħ": 710,
      "Ġìŀĺ": 711,
      "ĵ°": 712,
      "ìĺģ": 713,
      "ì¤Ģ": 714,
      "Ġë°ĺ": 715,
      "ĠëĤ¨": 716,
      "ĠíĽĦ": 717,
      "ë¹": 718,
      "Ġê·": 719,
      "íķ´ìĦľ": 720,
      "ë£¨": 721,
      "ëĶĶ": 722,
      "ëĿ¼ê³ł": 723,
      "ëįĶ": 724,
      "ë²Ī": 725,
      "ì´": 726,
      "Ġëĵ¤": 727,
      "ìĬµ": 728,
      "Ī¬": 729,
      "Ġìµľ": 730,
      "~~": 731,
      "Ġì£": 732,
      "Ġìłģ": 733,
      "ë°Ķ": 734,
      "ĠìĦľ": 735,
      "íķĺëĭ¤": 736,
      "ëģ": 737,
      "Ġë°Ľ": 738,
      "ë¦¬ê³ł": 739,
      "ëĨ": 740,
      "ĠìĹŃ": 741,
      "ëł¹": 742,
      "ì²ĺ": 743,
      "ë²ķ": 744,
      "ëķĮ": 745,
      "ëħ¸": 746,
      "Ġë¨": 747,
      "Ġíķľëĭ¤": 748,
      "ìŀħ": 749,
      "Ġíİ": 750,
      "ĠëķĮë¬¸": 751,
      "Ġëħ¸": 752,
      "ë¸": 753,
      "ìħ": 754,
      "ëĳĲ": 755,
      "ĠëŃ": 756,
      "ìĹĲëĬĶ": 757,
      "ê¸ī": 758,
      "Ġì¢ĭ": 759,
      "ì§ģ": 760,
      "Ġê°ķ": 761,
      "ëĤľ": 762,
      "ĠëĪ": 763,
      "ì¼": 764,
      "ìłĲ": 765,
      "ĠëĬ": 766,
      "Ġìĭ¤": 767,
      "ìŀĪ": 768,
      "ë¡ł": 769,
      "Ġê²°": 770,
      "Ġ4": 771,
      "íĨł": 772,
      "ì§Ī": 773,
      "....": 774,
      "ì£": 775,
      "íħĮ": 776,
      "Ġ'": 777,
      "ãĢ": 778,
      "Ġ5": 779,
      "ìłģìľ¼ë¡ľ": 780,
      "Ġê´Ģ": 781,
      "ĠìĽĲ": 782,
      "íķĺë©´": 783,
      "ëŀĳ": 784,
      "ì¦Ī": 785,
      "ìĿ´ëĤĺ": 786,
      "ëŀĢ": 787,
      "ë¶ĢíĦ°": 788,
      "ëĮĢë¡ľ": 789,
      "ĠíķĺëĬĶ": 790,
      "ĠìĤ´": 791,
      "ĠáĦıáĦı": 792,
      "Ġíķł": 793,
      "íĥľ": 794,
      "Ġëģ": 795,
      "ìĹĨ": 796,
      "ëŁ¼": 797,
      "ëĭ¤ëĬĶ": 798,
      "ĠêµŃë¯¼": 799,
      "Ġê²Į": 800,
      "íķ©": 801,
      "ì¢ħ": 802,
      "íĮĲ": 803,
      "ĠĊ": 804,
      "ë´": 805,
      "íķĺì§Ģ": 806,
      "Ġì°¨": 807,
      "Ġìŀħ": 808,
      "íĹ": 809,
      "ĠíĮĮ": 810,
      "ëłĩ": 811,
      "íĭ°": 812,
      "Ġê°Ĳ": 813,
      "áħ": 814,
      "ê°Ļ": 815,
      "ì§ľ": 816,
      "ìłģìĿ¸": 817,
      "Ġë°°": 818,
      "ë¡Ŀ": 819,
      "ĠìĿ¼ë³¸": 820,
      "íĳľ": 821,
      "ëĿ¼ëĬĶ": 822,
      "ĠëĺĲ": 823,
      "ĠëĦĪ": 824,
      "Ġ19": 825,
      "ì¸": 826,
      "ĠëĲľ": 827,
      "Ġìĵ°": 828,
      "ĠíĥĢ": 829,
      "Ġì£½": 830,
      "Ġìŀ¬": 831,
      "ĠìĥĿê°ģ": 832,
      "ĠíĺĦ": 833,
      "íĺķ": 834,
      "íĶ¼": 835,
      "ìĸĳ": 836,
      "ì½Ķ": 837,
      "Ġëĭ¨": 838,
      "ì²Ń": 839,
      "Ġì¶Ķ": 840,
      "Ġì¶ľ": 841,
      "ì¡±": 842,
      "ìľ¼ë©´": 843,
      "ìł¸": 844,
      "ĠìĪ": 845,
      "ĠëĮĢíķľ": 846,
      "Ġì¹´": 847,
      "ĠíĬ¹": 848,
      "Ġì¤": 849,
      "ìľ¼ë©°": 850,
      "íĴ": 851,
      "ĠíĹ": 852,
      "ìĹĲìĦľëĬĶ": 853,
      "ì²ľ": 854,
      "Ġìŀĳ": 855,
      "Ġë¬¼": 856,
      "Ġíı¬": 857,
      "ĠëĶ°": 858,
      "ĠíĶ¼": 859,
      "Ġì°¸": 860,
      "íı¬": 861,
      "ìĽĮ": 862,
      "ĠêµĲ": 863,
      "Ġë³¸": 864,
      "Ġê³Ħ": 865,
      "ĠëķĮë¬¸ìĹĲ": 866,
      "Ġë¶Ħ": 867,
      "ìĶ": 868,
      "ĠíĨµ": 869,
      "Ġ:": 870,
      "ĠíĿ": 871,
      "Ġë¦": 872,
      "ìĦĿ": 873,
      "ëĤ¨": 874,
      "Ġê¹Ģ": 875,
      "ìĺ¨": 876,
      "Ġëĭ¬": 877,
      "´ĳ": 878,
      "íķ¨": 879,
      "íķĺìĹ¬": 880,
      "ĠìĻľ": 881,
      "ëĵ±": 882,
      "Ġë§¤": 883,
      "ê»": 884,
      "ë§¤": 885,
      "íĺĦ": 886,
      "Ġê±´": 887,
      "ìĺĢëĭ¤": 888,
      "ë¦Ħ": 889,
      "Ġ201": 890,
      "Ġëĸ": 891,
      "ìĬ¹": 892,
      "ë¦¬ëĬĶ": 893,
      "Ġë§ŀ": 894,
      "ì¶ľ": 895,
      "ìļ¸": 896,
      "ĠíĶĦ": 897,
      "ĠíķľêµŃ": 898,
      "³Ĳ": 899,
      "íķĺê¸°": 900,
      "Ġìĺ¬": 901,
      "ìĤ´": 902,
      "ë§Ŀ": 903,
      "Ġì±": 904,
      "Ġë¯¼": 905,
      "Ġê²½ìļ°": 906,
      "Ġì²ĺ": 907,
      "ëĸ": 908,
      "ë¸Į": 909,
      "ĠëĳĲ": 910,
      "íĿ": 911,
      "Ġìķł": 912,
      "ê°Ĳ": 913,
      "Ġì¦": 914,
      "ìĻ¸": 915,
      "ê¸Ģ": 916,
      "ê±¸": 917,
      "ĠëĤĺëĿ¼": 918,
      "Ġë²Ħ": 919,
      "ĠëĭĪ": 920,
      "ëĵ¤ìĿĦ": 921,
      "ëłĪìĿ´": 922,
      "ĠìŀĲìĭł": 923,
      "ĠáĦ": 924,
      "ĠìĻ¸": 925,
      "Ġë¦¬": 926,
      "ĠìķĦëĭ": 927,
      "Ġì§ĳ": 928,
      "ĠìĹĲ": 929,
      "ëĥ¥": 930,
      "ë°°": 931,
      "Ġ\"": 932,
      "ĠëĿ¼": 933,
      "ĠëıĮ": 934,
      "íĪ¬": 935,
      "Ġëĵľ": 936,
      "ĠìĺĪ": 937,
      "ëĦĪ": 938,
      "ë³ĳ": 939,
      "ë°ķ": 940,
      "ë³´ëĭ¤": 941,
      "ëĵ¤ìĿĺ": 942,
      "ìĪł": 943,
      "Ġëł": 944,
      "ê·¼": 945,
      "ª½": 946,
      "Ġë°ķ": 947,
      "Ġê°ĻìĿĢ": 948,
      "Ġì½Ķ": 949,
      "ë¶Ī": 950,
      "ãĤ": 951,
      "ĠìĤ¬ìļ©": 952,
      "ìĸ¸": 953,
      "ĠëĴ": 954,
      "ë£Į": 955,
      "íĻ©": 956,
      "Ġëĭ¤ë¥¸": 957,
      "ì°°": 958,
      "ì§ĳ": 959,
      "Ġìĸ¸": 960,
      "Ġì¡": 961,
      "Ġíķ¨": 962,
      "ĠìļĶ": 963,
      "ë¨¹": 964,
      "ŀĺ": 965,
      "Ġë¡": 966,
      "Ġ6": 967,
      "ĠìĦ¤": 968,
      "ëłĩê²Į": 969,
      "Ġëį°": 970,
      "ìĦ¤": 971,
      "ìĸ´ìĦľ": 972,
      "į¼": 973,
      "Ġì´Ī": 974,
      "Ġë¶ģ": 975,
      "Ġëªħ": 976,
      "ì»": 977,
      "ìĬ¤íĬ¸": 978,
      "ì§ĢëĬĶ": 979,
      "ëģ¼": 980,
      "Ġê±¸": 981,
      "ë³µ": 982,
      "ĠíķĺëĤĺ": 983,
      "Ġíıī": 984,
      "ì´Ī": 985,
      "ì±": 986,
      "ĠìĿ´íĽĦ": 987,
      "ìķ½": 988,
      "ë¯¼êµŃ": 989,
      "ĠëŃĲ": 990,
      "Ġë¬¸ìłľ": 991,
      "ĠíĸĪ": 992,
      "in": 993,
      "er": 994,
      "Ġíİ¸": 995,
      "ĠíĻķ": 996,
      "ëĭ¬": 997,
      "ìĿ´ê³ł": 998,
      "ê°ķ": 999,
      "ê²°": 1000,
      "ĠíĻĶ": 1001,
      "ĠëłĪ": 1002,
      "ìĹĲëıĦ": 1003,
      "Ġì¹ĺ": 1004,
      "Ġìļ°ë¦¬": 1005,
      "íĨµëł¹": 1006,
      "ë²ł": 1007,
      "íİ¸": 1008,
      "ĠëĪĦ": 1009,
      "ĠS": 1010,
      "ëĤĺëĿ¼": 1011,
      "ë©Ķ": 1012,
      "ĠìĿ´ëŁ°": 1013,
      "ìĿ¸ëį°": 1014,
      "ìķĻ": 1015,
      "ĠìłķëıĦ": 1016,
      "ëıħ": 1017,
      "¿ł": 1018,
      "Ġìĭ¬": 1019,
      "Ġëĵ¤ìĸ´": 1020,
      "Ġë§Įëĵ¤": 1021,
      "ëĲĺìĹĪëĭ¤": 1022,
      "ìłĪ": 1023,
      "ë°Ľ": 1024,
      "19": 1025,
      "ë¨¸": 1026,
      "íĴĪ": 1027,
      "ìŀ¬ìĿ¸": 1028,
      "ìĺĪ": 1029,
      "Ġì¤ĳêµŃ": 1030,
      "Ġìº": 1031,
      "Ġê²Ģ": 1032,
      "ë¦½": 1033,
      "Ġì§ģ": 1034,
      "Ġê³¼": 1035,
      "ê¸°ë¥¼": 1036,
      "ëĭĺ": 1037,
      "ëĭĪê¹Į": 1038,
      "ìĿ´ì§Ģ": 1039,
      "Ġ10": 1040,
      "ê»ĺ": 1041,
      "Ġíĸī": 1042,
      "Ġì»": 1043,
      "Ġ7": 1044,
      "ìĿ´ëĿ¼ê³ł": 1045,
      "Ġíŀĺ": 1046,
      "ê¸°ìĹĲ": 1047,
      "Ġì¢ħ": 1048,
      "ìĨ¡": 1049,
      "ê¸´": 1050,
      "Ġíģ¬": 1051,
      "ìķł": 1052,
      "ìķħ": 1053,
      "ĠëĴ¤": 1054,
      "Ġíķĺê³ł": 1055,
      "ĠìĨį": 1056,
      "ê¸°ëıĦ": 1057,
      "Ġì¹ľ": 1058,
      "ãĥ": 1059,
      "ì¡Į": 1060,
      "ëĬĶëĭ¤": 1061,
      "ëħĢ": 1062,
      "íķ´ìķ¼": 1063,
      "Ġë³Ģ": 1064,
      "ìħĺ": 1065,
      "ĠìĥĪ": 1066,
      "Ġê·¸ë¦¬ê³ł": 1067,
      "ĠíĮ¨": 1068,
      "Ġë´": 1069,
      "ëĲĺëĬĶ": 1070,
      "Ġìĸĳ": 1071,
      "ĠíķĻ": 1072,
      "ĠìłĲ": 1073,
      "Ġê°Ħ": 1074,
      "Ġì´Ŀ": 1075,
      "ë¥ĺ": 1076,
      "ì¹ľ": 1077,
      "ëĤł": 1078,
      "201": 1079,
      "íĸ¥": 1080,
      "Ġê·¸ëŁ¬": 1081,
      "ì²ĺëŁ¼": 1082,
      "ĠìĹĨëĬĶ": 1083,
      "ĠíķĦ": 1084,
      "Ġ8": 1085,
      "ĠëĲľëĭ¤": 1086,
      "Ġëıħ": 1087,
      "ëŁī": 1088,
      "Ġíĺ¸": 1089,
      "Ġëª©": 1090,
      "ëĭ¤ê°Ģ": 1091,
      "Ġìĸ¼": 1092,
      "ê²¨": 1093,
      "Ġì¢Ģ": 1094,
      "íķĺë©°": 1095,
      "ëł¨": 1096,
      "ĠìĹĨëĭ¤": 1097,
      "Ġê³µê²©": 1098,
      "Ġì§Ģê¸Ī": 1099,
      "Ġìŀ¡": 1100,
      "ì³Ĳ": 1101,
      "Ġê¼": 1102,
      "íĻĺ": 1103,
      "ĠìĨĲ": 1104,
      "ì£¼ìĿĺ": 1105,
      "ĠíļĮ": 1106,
      "Ġìļ´": 1107,
      "ëĿ¼ëıĦ": 1108,
      "ëĵ¯": 1109,
      "ĠìķĦëĭĮ": 1110,
      "Ġë¸": 1111,
      "ëĲľëĭ¤": 1112,
      "·¨": 1113,
      "Ġë¨¹": 1114,
      "ĠëĤĺìĺ¤": 1115,
      "ìľ¼ëĤĺ": 1116,
      "ì§Ģê³ł": 1117,
      "ëĿ": 1118,
      "on": 1119,
      "ĠëıĪ": 1120,
      "ë¶ģ": 1121,
      "ìĦ¸ìļĶ": 1122,
      "ĠìķĦìĿ´": 1123,
      "ĠëĦĺ": 1124,
      "an": 1125,
      "ĠëģĿ": 1126,
      "Ġìĸ´ëĸ": 1127,
      "Ġê²ĥìĿ´": 1128,
      "ê¸¸": 1129,
      "Ġë§ī": 1130,
      "Ġë¡ľ": 1131,
      "Ġê°ĢëĬ¥": 1132,
      "ë¦¬ë¥¼": 1133,
      "ĠìĹ´": 1134,
      "Ġêµ°": 1135,
      "OO": 1136,
      "ëĪ": 1137,
      "ëª©": 1138,
      "ëĲĺìĸ´": 1139,
      "Ġ9": 1140,
      "ê¸°ê°Ģ": 1141,
      "ì°½": 1142,
      "Ġë©Ķ": 1143,
      "ìŁ": 1144,
      "ë¦¼": 1145,
      "ë¦¬ê°Ģ": 1146,
      "ì¸ł": 1147,
      "Ġ200": 1148,
      "ë´Ĳ": 1149,
      "ê±°ëĤĺ": 1150,
      "ì£Ħ": 1151,
      "Ġì§Ħì§ľ": 1152,
      "ëŁ½": 1153,
      "Ġë¯¸êµŃ": 1154,
      "ìĬ¨": 1155,
      "ëĿ½": 1156,
      "ĠíĪ¬": 1157,
      "ëĳ": 1158,
      "ìĥī": 1159,
      "Ġíĳľ": 1160,
      "ëĨĪ": 1161,
      "íĥĦ": 1162,
      "ĠíĨł": 1163,
      "Ġì²Ń": 1164,
      "ĠìĿ´ìĥģ": 1165,
      "ĠíĮĲ": 1166,
      "íĹĺ": 1167,
      "ëª»": 1168,
      "ìķĺëĭ¤": 1169,
      "íķĻêµĲ": 1170,
      "Ġìķ½": 1171,
      "Ġìĭľìŀĳ": 1172,
      "Ġê·¼": 1173,
      "ĠìĤ¬ìĭ¤": 1174,
      "ì¤Ħ": 1175,
      "ĠìĿ¸ê°Ħ": 1176,
      "Ġê·¸ëŁ°": 1177,
      "ĠëĤł": 1178,
      "ëĬĲ": 1179,
      "Ġê·¸ëĥ¥": 1180,
      "Ġë²ķ": 1181,
      "ìª½": 1182,
      "Ġì¡´": 1183,
      "ĠM": 1184,
      "ĠA": 1185,
      "ëł¸": 1186,
      "ĠëĮĢíĨµëł¹": 1187,
      "ìĿ´ëĬĶ": 1188,
      "íĺĢ": 1189,
      "ĠëĤľ": 1190,
      "ìŀĲê°Ģ": 1191,
      "ìĿ´ëĿ¼ëĬĶ": 1192,
      "ë§ī": 1193,
      "Ġë¹¨": 1194,
      "ĠìľĦíķ´": 1195,
      "íĮ¨": 1196,
      "ê°ĻìĿĢ": 1197,
      "Ġíķ©": 1198,
      "ìŁģ": 1199,
      "Įĵ": 1200,
      "ê¸°ëĬĶ": 1201,
      "ĠëĨĴ": 1202,
      "âĢ": 1203,
      "ìĪľ": 1204,
      "ìĥĪ": 1205,
      "Ġëĵ±ìŀ¥": 1206,
      "íĿ¬": 1207,
      "íķľíħĮ": 1208,
      "ìĬµëĭĪëĭ¤": 1209,
      "ë¦Ń": 1210,
      "Ġìłķì¹ĺ": 1211,
      "20": 1212,
      "Ġìķŀ": 1213,
      "ĠìĻĦ": 1214,
      "Ġì¢Į": 1215,
      "ĠëĮĢíķľë¯¼êµŃ": 1216,
      "Ġëĭ¤ìĭľ": 1217,
      "ĠìºĲ": 1218,
      "ìĹ´": 1219,
      "ĠíĶĮ": 1220,
      "ĠëĪĪ": 1221,
      "Ġíħ": 1222,
      "Ġëª¨ìĬµ": 1223,
      "ì¼ľ": 1224,
      "ĠíĬ¸": 1225,
      "ê°ĢëĬĶ": 1226,
      "ë²Į": 1227,
      "ĠìŀĦ": 1228,
      "ì¿ł": 1229,
      "ļ¨": 1230,
      "ĠíĻľ": 1231,
      "Ġì¦Ŀ": 1232,
      "Ġë§İìĿ´": 1233,
      "Ġíķ¨ê»ĺ": 1234,
      "Ġíĥľ": 1235,
      "ìĿ¸ìĿ´": 1236,
      "¨ìĸ´": 1237,
      "ĠC": 1238,
      "Ġíķĺì§Ģë§Į": 1239,
      "ĠìĬ¹": 1240,
      "ì§ĵ": 1241,
      "ëł¤ê³ł": 1242,
      "ë²Ķ": 1243,
      "Ġê²ĮìŀĦ": 1244,
      "ĠíĸĪëĭ¤": 1245,
      "ī´": 1246,
      "ëĨĵ": 1247,
      "ĠíĤ": 1248,
      "ìĶ¨": 1249,
      "ë³Ħ": 1250,
      "´´": 1251,
      "ëĿ¼ìĿ´": 1252,
      "Ġë²Ī": 1253,
      "áħ³": 1254,
      "Ġìķ¼": 1255,
      "íİĺ": 1256,
      "ĢìĿ´": 1257,
      "ìĹĶ": 1258,
      "íķĺìĺĢëĭ¤": 1259,
      "Ġëª°": 1260,
      "Ġëª¨ëĳĲ": 1261,
      "Ġì¤Ħ": 1262,
      "Ġê·¸ëŀĺ": 1263,
      "ì¶Ķ": 1264,
      "or": 1265,
      "Ġ20": 1266,
      "ĠíıŃ": 1267,
      "Ġê°ģ": 1268,
      "Ġëª¨ë¥´": 1269,
      "ĠìĪľ": 1270,
      "ĠT": 1271,
      "ê´ĳ": 1272,
      "Ġìłķë¶Ģ": 1273,
      "ëĬĶê±°": 1274,
      "Ġë¬¸ìŀ¬ìĿ¸": 1275,
      "ĠìķĦëĭĪëĿ¼": 1276,
      "ìĿ´ê°Ģ": 1277,
      "Ġì²´": 1278,
      "ëĭ´": 1279,
      "Ġìĭ¸": 1280,
      "ìľ¼ëĭĪ": 1281,
      "ĠíĴ": 1282,
      "ĠìĿĮ": 1283,
      "Ġê´ĳ": 1284,
      "ĠìŀĪìĹĪ": 1285,
      "¿Ĳ": 1286,
      "íį¼": 1287,
      "th": 1288,
      "Ġê²ĥìĿĦ": 1289,
      "ĠëĦĪë¬´": 1290,
      "íĥĿ": 1291,
      "ar": 1292,
      "ë³Ģ": 1293,
      "íķŃ": 1294,
      "Ķëĭ¤": 1295,
      "ì±ħ": 1296,
      "ĠëĶ°ëĿ¼": 1297,
      "Ġë¶ģíķľ": 1298,
      "Ġë§Ŀ": 1299,
      "Ġë²ł": 1300,
      "ĠíĦ": 1301,
      "íķ´ëĿ¼": 1302,
      "į¨": 1303,
      "ìĻķ": 1304,
      "Ġì²ľ": 1305,
      "ĠìłĪ": 1306,
      "íĶĮ": 1307,
      "ĠãĢ": 1308,
      "ìķĦìĦľ": 1309,
      "ëĦ¤ìļĶ": 1310,
      "Ġê°Ģìŀ¥": 1311,
      "êµ¬ëĤĺ": 1312,
      ",,": 1313,
      "ì¦Ŀ": 1314,
      "ìĿ¸ì§Ģ": 1315,
      "Ġìķħ": 1316,
      "íķĺë©´ìĦľ": 1317,
      "Ġíĺķ": 1318,
      "ëĵĿ": 1319,
      "ë¦´": 1320,
      "Ġë¯¼ì£¼": 1321,
      "Ġë¨¸": 1322,
      "Ġìĭ¶": 1323,
      "ĠìĥģíĻ©": 1324,
      "ĠìĤ¬ìĿ´": 1325,
      "ê°Ī": 1326,
      "Ġëª¨ëĵł": 1327,
      "ê¾": 1328,
      "Ġë¹ł": 1329,
      "ĠìĿ´ë¦Ħ": 1330,
      "Ġìłķìĭł": 1331,
      "íĻľ": 1332,
      "Ġíģ°": 1333,
      "ì°¸": 1334,
      "Ġë²Į": 1335,
      "ĠìķĦë¬´": 1336,
      "Ġë³´ë©´": 1337,
      "ëł¥ìĿĦ": 1338,
      "ìŀĪëĬĶ": 1339,
      "ìĹĲìĦľëıĦ": 1340,
      "ì´Ŀ": 1341,
      "ìĸµ": 1342,
      "ì§¸": 1343,
      "¼ì§Ģ": 1344,
      "Ġê²ĥìĿ´ëĭ¤": 1345,
      "ëł¥ìĿ´": 1346,
      "ĠìĦłìĪĺ": 1347,
      "ìĭľíĤ¤": 1348,
      "ĠìĹĦ": 1349,
      "íĤ¬": 1350,
      "ĠëĶĶ": 1351,
      "ĠìĤ¼": 1352,
      "ìľ¡": 1353,
      "ì¡´": 1354,
      "Ģë¡ľ": 1355,
      "íĺľ": 1356,
      "ê·¹": 1357,
      "ì¦Į": 1358,
      "ĠêµŃê°Ģ": 1359,
      "ĠëĲĺìĹĪëĭ¤": 1360,
      "Ġì·¨": 1361,
      "Ġë³¼": 1362,
      "ìłĳ": 1363,
      "ì°©": 1364,
      "ĠB": 1365,
      "Ġë³Ħ": 1366,
      "ê°Ģì§Ģ": 1367,
      "ê³¡": 1368,
      "ê²¬": 1369,
      "íĥĪ": 1370,
      "Ġë³´ìĹ¬": 1371,
      "ìŀ¡": 1372,
      "ëĵ¤ëıĦ": 1373,
      "ìĤ¬ëŀĮ": 1374,
      "Ġë§İìĿĢ": 1375,
      "ìĦ±ìĿ´": 1376,
      "Ġíĭ": 1377,
      "ì²ł": 1378,
      "ìĺ¬": 1379,
      "Ġì¶©": 1380,
      "Ġìļ©": 1381,
      "ĠëĬĲ": 1382,
      "Ġê¸°ìĤ¬": 1383,
      "ì£ł": 1384,
      "ĠíķŃ": 1385,
      "en": 1386,
      "ì§ĢëıĦ": 1387,
      "ëĵ¤ìĹĲê²Į": 1388,
      "ëĮĢíķľ": 1389,
      "ĠëĦ¤": 1390,
      "ĠíĤ¤": 1391,
      "Ġì¡°êµŃ": 1392,
      "Ġë°ı": 1393,
      "Ġë³µ": 1394,
      "Ġë³ĳ": 1395,
      "ëłĪê¸°": 1396,
      "ĠíĶĦë¡ľ": 1397,
      "ë°±": 1398,
      "Įĵê¸Ģ": 1399,
      "ëıĮ": 1400,
      "Ġë£": 1401,
      "!!!": 1402,
      "),": 1403,
      "ĠíķĦìļĶ": 1404,
      "Ġìłķë§Ĳ": 1405,
      "Ġì¤Ģ": 1406,
      "st": 1407,
      "ìĬ¤íĦ°": 1408,
      "Ġìĺ¨": 1409,
      "Ġê²°êµŃ": 1410,
      "ĠëıĮìķĦ": 1411,
      "ê²Ģ": 1412,
      "ì©": 1413,
      "ìĵ°": 1414,
      "ìľ¨": 1415,
      "ì½": 1416,
      "íķ©ëĭĪëĭ¤": 1417,
      "ĠìĿ´ìľł": 1418,
      "Ġê°Ī": 1419,
      "ĩ´": 1420,
      "ĠíĽ": 1421,
      "ì§Ģë¥¼": 1422,
      "íıī": 1423,
      "ĠìĻķ": 1424,
      "íķĺìŀĲ": 1425,
      "ì°¬": 1426,
      "Ġê¸Ī": 1427,
      "Ġìĭľê°Ħ": 1428,
      "ĠìĤ°": 1429,
      "ĠìĿ´ìłľ": 1430,
      "ë¹ł": 1431,
      "ĠD": 1432,
      "ĠP": 1433,
      "ĠëĬ¥": 1434,
      "Ġëĳ": 1435,
      "Ġëľ": 1436,
      "ìĿ´ë©°": 1437,
      "Ġ12": 1438,
      "Ġíķĺì§Ģ": 1439,
      "ìĽĢ": 1440,
      "ĠìĺģíĻĶ": 1441,
      "Ġ~": 1442,
      "íĺ¼": 1443,
      "ê²łëĭ¤": 1444,
      "ë¹¨": 1445,
      "ë¦¬ìķĦ": 1446,
      "ì¢Ģ": 1447,
      "Ġì±Ħ": 1448,
      "al": 1449,
      "Ġì²ł": 1450,
      "Ġíģ´": 1451,
      "ãĢĭ": 1452,
      "Ġì°¾": 1453,
      "ëĪĦ": 1454,
      "Ġë³´ê³ł": 1455,
      "Ġìļķ": 1456,
      "ĠíĹĪ": 1457,
      "Ġëĭ¹ìĭľ": 1458,
      "ìĿ´íĬ¸": 1459,
      "ĠíĻ©": 1460,
      "ëĺ": 1461,
      "Ġëĭ¤ìĿĮ": 1462,
      "ìĿ´ìĹĪ": 1463,
      "áĦĴ": 1464,
      "Ġë°±": 1465,
      "Ġëĸł": 1466,
      "ĠëĺĲíķľ": 1467,
      "Ġìī": 1468,
      "ĠíĮĢ": 1469,
      "ìŀħëĭĪëĭ¤": 1470,
      "ðŁ": 1471,
      "ìĸ´ìķ¼": 1472,
      "ĠìĦ¸ê³Ħ": 1473,
      "at": 1474,
      "ëŀľ": 1475,
      "áĦį": 1476,
      "Ġê²½ìłľ": 1477,
      "Ġê²ĥìĿĢ": 1478,
      "Ġê¶Į": 1479,
      "ĠF": 1480,
      "ê²ĥëıĦ": 1481,
      "ëĲĺìĹĪ": 1482,
      "ìĿĳ": 1483,
      "Ġìĵ": 1484,
      "ĠìĿ´ë¯¸": 1485,
      "ĠìĥģëĮĢ": 1486,
      "Ġëªĩ": 1487,
      "ìŀ¬ìķĻ": 1488,
      "Ġë°Ķë¡ľ": 1489,
      "Ġë¬´ìĬ¨": 1490,
      "íķĺì§Ģë§Į": 1491,
      "ĠìĪĺì¤Ģ": 1492,
      "ĠíŀĪ": 1493,
      "ĠìĿ´ìļ©": 1494,
      "ê¼": 1495,
      "êµŃë¯¼": 1496,
      "ëĵ¤ìķĦ": 1497,
      "Ġê·¹": 1498,
      "»ê²Į": 1499,
      "ĠìŀĲê¸°": 1500,
      "ë¸Ķ": 1501,
      "ê±°ë¦¬": 1502,
      "Ġëĵ¯": 1503,
      "ĠìĭĿ": 1504,
      "le": 1505,
      "ou": 1506,
      "Ġê²ĥìľ¼ë¡ľ": 1507,
      "ì§Ģê°Ģ": 1508,
      "ì£¼ëĬĶ": 1509,
      "ìĿ¸ê°Ģ": 1510,
      "ĠíĥĦ": 1511,
      "Ġì§ĢìĹŃ": 1512,
      "ìĬ¤ìĿĺ": 1513,
      "ë¦ŃíĦ°": 1514,
      "ìĸ´ëĤĺ": 1515,
      "ì»¤": 1516,
      "Ġì¶ķ": 1517,
      "ì¼Ģ": 1518,
      "Ġì¢ĭìĿĢ": 1519,
      "êµ´": 1520,
      "Ġê³ĦìĨį": 1521,
      "ĠL": 1522,
      "Ġì¡´ìŀ¬": 1523,
      "ëĤ¬": 1524,
      "ĠëĲł": 1525,
      "ìĤ¬ë¥¼": 1526,
      "ìĤ¬ê°Ģ": 1527,
      "ĠëĤĺìĺ¨": 1528,
      "ĠáĦıáĦıáĦı": 1529,
      "ĠìŀĪìĹĪëĭ¤": 1530,
      "íĭĢ": 1531,
      "±ìĿ´": 1532,
      "Ġë²Ķ": 1533,
      "ëĭµ": 1534,
      "200": 1535,
      "Ġê¸¸": 1536,
      "ì§ķ": 1537,
      "Ġì»¤": 1538,
      "ì¶©": 1539,
      "ĠíĶ¼íķ´": 1540,
      "¶ģ": 1541,
      "ëĵ¤ê³¼": 1542,
      "ìĨĮë¦¬": 1543,
      "íģ¼": 1544,
      "Ġ11": 1545,
      "ìĬ¬": 1546,
      "Ġì§Ģì§Ģ": 1547,
      "ĠìĹ¬ìŀĲ": 1548,
      "Ġìłķê¶Į": 1549,
      "Ġì½": 1550,
      "Ġíİĺ": 1551,
      "íķĺëĬĶëį°": 1552,
      "Ġíļ¨": 1553,
      "ìĬ¤ë¥¼": 1554,
      "Ġê°ĻìĿ´": 1555,
      "Ġìĸ¼ë§Ī": 1556,
      "Ġëĸ¨ìĸ´": 1557,
      "ìĬ¤ê°Ģ": 1558,
      "ĠíħĮ": 1559,
      "ĠìºĲë¦ŃíĦ°": 1560,
      "Ġë°Ŀ": 1561,
      "ëĬĶì§Ģ": 1562,
      "ìĿ¸ëĭ¤": 1563,
      "Ġë¸Į": 1564,
      "Ġìĥģíĥľ": 1565,
      "ĠìŀĲì²´": 1566,
      "Ġ/": 1567,
      "ëĬĺ": 1568,
      "ĠíĺĦìŀ¬": 1569,
      "ìŀĸ": 1570,
      "áħ²": 1571,
      "ĠìŀĲìĭłìĿĺ": 1572,
      "ĩ¼": 1573,
      "íıŃ": 1574,
      "íľ": 1575,
      "ĠíĻĺ": 1576,
      "ĠíĥĪ": 1577,
      "ìłķë¶Ģ": 1578,
      "ĸìĹĲ": 1579,
      "ĠìŀĪëĬĶëį°": 1580,
      "íıĲ": 1581,
      "º¼": 1582,
      "ĠëĨĪ": 1583,
      "ìĨĲ": 1584,
      "ĠãĢĬ": 1585,
      "Ġë°Ģ": 1586,
      "Ġëħ¼": 1587,
      "ë²¨": 1588,
      "ìĸ´ëıĦ": 1589,
      "ê·ľ": 1590,
      "Ġê·¸ëłĩê²Į": 1591,
      "ĠK": 1592,
      "ìĿ´ëĥĲ": 1593,
      "ê¹Ģ": 1594,
      "ìĪĺê°Ģ": 1595,
      "ĠG": 1596,
      "ĠíĶĮëłĪìĿ´": 1597,
      "Ġì¢ĭìķĦ": 1598,
      "ìĭľìķĦ": 1599,
      "ìĿ¼ë³¸": 1600,
      "ëĬĶê²Į": 1601,
      "ì§Ħëĭ¤": 1602,
      "ĠìŀĪìĿĦ": 1603,
      "ìķĮ": 1604,
      "½ĳ": 1605,
      "Ġë£¨": 1606,
      "Ġìĸ´ëĸ»ê²Į": 1607,
      "ê´´": 1608,
      "ë¶Ģë¶Ħ": 1609,
      "ĠI": 1610,
      "ĠëĮĵê¸Ģ": 1611,
      "íķ´ëıĦ": 1612,
      "Ġíĺ¼": 1613,
      "ĠìĤ¬íļĮ": 1614,
      "íĤ¨": 1615,
      "ĠìŀĲìľł": 1616,
      "ê¹¨": 1617,
      "ĠìķĦì§ģ": 1618,
      "ļį": 1619,
      "ìĬ¤íģ¬": 1620,
      "Ġìĸ»": 1621,
      "Ġíľ": 1622,
      "Ġì¶Ķê°Ģ": 1623,
      "ìŀĪëĭ¤": 1624,
      "Ġë°ĽìķĦ": 1625,
      "íķĺëĤĺ": 1626,
      "ëĮĢê°Ģ": 1627,
      "ĠìĹħ": 1628,
      "ìī": 1629,
      "ìģ": 1630,
      "Ġë§Įëĵ¤ìĸ´": 1631,
      "Ġë§¤ìļ°": 1632,
      "Ġê³³": 1633,
      "ë¡Ģ": 1634,
      "ĠìķĬëĬĶ": 1635,
      "Â·": 1636,
      "Ġë´Ĳ": 1637,
      "Ġìŀĺëª»": 1638,
      "ëĲĺê³ł": 1639,
      "Ġì°½": 1640,
      "ëľ": 1641,
      "ìłľë¡ľ": 1642,
      "ĠëŃĶ": 1643,
      "Ġìĸ´ëĶĶ": 1644,
      "ìĥģìĿĦ": 1645,
      "ĠìĹ¬ëŁ¬": 1646,
      "ĠìĹŃìĭľ": 1647,
      "íĦ´": 1648,
      "ìĻľ": 1649,
      "Ġê¹Į": 1650,
      "ìĭľê°Ħ": 1651,
      "ëĦĲ": 1652,
      "ĠìĤ¬ëŀĮìĿ´": 1653,
      "íģ´": 1654,
      "ĠìĻĢ": 1655,
      "Ġì²ĺìĿĮ": 1656,
      "ĠíĮĶ": 1657,
      "Ġë¯¿": 1658,
      "ë¦¬ì¦Ī": 1659,
      "Ġê·Ģ": 1660,
      "Ġì³Ĳ": 1661,
      "ë¥ł": 1662,
      "íħľ": 1663,
      "Ġ.": 1664,
      "ìŀĲëĬĶ": 1665,
      "ĠìłľëĮĢë¡ľ": 1666,
      "ĠìĤ´ìķĦ": 1667,
      "ìĽĲìĿ´": 1668,
      "...)": 1669,
      "Ġì£Ħ": 1670,
      "ìŀ¥ìĿ´": 1671,
      "Ġë°©ìĨ¡": 1672,
      "Ġë¶Ļ": 1673,
      "ìĹĨìĿ´": 1674,
      "íĽ": 1675,
      "ëĨĵê³ł": 1676,
      "ë¦°ëĭ¤": 1677,
      "íķľêµŃ": 1678,
      "ĠìķĬê³ł": 1679,
      "ëĲł": 1680,
      "ìĻĶ": 1681,
      "???": 1682,
      "Ġê¸°ë¡Ŀ": 1683,
      "re": 1684,
      "Ġì±ħ": 1685,
      "Ġì¼": 1686,
      "ìº": 1687,
      "!!!!": 1688,
      "Ġëĳĺ": 1689,
      "Ġíķ´ìķ¼": 1690,
      "ĠìĿĢ": 1691,
      "ĠëĲĺëĬĶ": 1692,
      "ĠìĤ¬ê±´": 1693,
      "ì¶ķ": 1694,
      "ì¡Įëĭ¤": 1695,
      "ĠìĽĶ": 1696,
      "OOO": 1697,
      "Ġìĭľì¦Į": 1698,
      "ê¸°ë¡ľ": 1699,
      "Ġê²Ģì°°": 1700,
      "ĠìĿ´ìķ¼": 1701,
      "Ġë¸Ķ": 1702,
      "ìĸ´ê°Ģ": 1703,
      "ìĹĨëĬĶ": 1704,
      "íĺģ": 1705,
      "Ġëĺĳ": 1706,
      "íķľëĭ¹": 1707,
      "ìłĦìĹĲ": 1708,
      "ìŀ¥ìĿĦ": 1709,
      "ë¦¬ìĬ¤": 1710,
      "ì¢Į": 1711,
      "Ġê±°ìĿĺ": 1712,
      "ë¯Ģë¡ľ": 1713,
      "ëıĪ": 1714,
      "ĠíĦ°": 1715,
      "ìĿ´ìķ¼": 1716,
      "Ġìŀł": 1717,
      "ĠìĦľìļ¸": 1718,
      "ëħĦìĹĲ": 1719,
      "Ġ100": 1720,
      "ê°ĻìĿ´": 1721,
      "ëĵľëĬĶ": 1722,
      "ĠìĿ´ëłĩê²Į": 1723,
      "ë´ī": 1724,
      "ĩĮ": 1725,
      "ìĬ¤ë¡ľ": 1726,
      "íķĺëĦ¤": 1727,
      "ĠëĬĺ": 1728,
      "íĸĪëįĺ": 1729,
      "Ġë¯¼ì£¼ëĭ¹": 1730,
      "Ġê°Ģì§Ģê³ł": 1731,
      "Ġê½": 1732,
      "ĠN": 1733,
      "(...)": 1734,
      "Ġìĥģëĭ¹": 1735,
      "ë¦¬ìĹĲ": 1736,
      "íħĲ": 1737,
      "ìĦ±ìĿĦ": 1738,
      "Ġëĭµ": 1739,
      "ĠìĿ¼ë°ĺ": 1740,
      "ĠìłĦíĪ¬": 1741,
      "Ġì§Ī": 1742,
      "Ġìª½": 1743,
      "Ġì²«": 1744,
      "ìŀĸìķĦ": 1745,
      "ìĹ¼": 1746,
      "Ġê³¨": 1747,
      "ìĿ´ìĹĪëĭ¤": 1748,
      "ê·Ģ": 1749,
      "ê²łì§Ģ": 1750,
      "ĠR": 1751,
      "íĬ¹": 1752,
      "ì¹ĺëĬĶ": 1753,
      "ëħĲ": 1754,
      "ìłķëıĦ": 1755,
      "Ġ15": 1756,
      "Ġì°į": 1757,
      "ë§¨": 1758,
      "Ġë¿Ĳ": 1759,
      "ĠE": 1760,
      "ìĸ¼": 1761,
      "íļĮìĿĺ": 1762,
      "ìĿµ": 1763,
      "Ġ199": 1764,
      "ìµľ": 1765,
      "ëŃ": 1766,
      "ë§ģ": 1767,
      "Ġì¡°ìĦł": 1768,
      "íŀ": 1769,
      "ì¤ĳìĹĲ": 1770,
      "Ġìĭ«": 1771,
      "íĮħ": 1772,
      "ê³¨": 1773,
      "ĠíĻį": 1774,
      "ĠìĶ": 1775,
      "Ġ18": 1776,
      "ê¾¸": 1777,
      "Ġë½ĳ": 1778,
      "ĠëĲĺìĸ´": 1779,
      "Ġëĭ´": 1780,
      "ìĿ¸ìĿĺ": 1781,
      "Ġìĸ´ëĬĲ": 1782,
      "Ġë¨¼": 1783,
      "Ġê¸°ìĪł": 1784,
      "ëıĦê°Ģ": 1785,
      "Ġíķĺë©´": 1786,
      "Ġê·¸ëŁ¬ëĤĺ": 1787,
      "íķĦ": 1788,
      "ìķĦëĭĪ": 1789,
      "ë¦¬ì§Ģ": 1790,
      "ì¸µ": 1791,
      "10": 1792,
      "Ġ30": 1793,
      "ì£¼ê³ł": 1794,
      "ĠìĻĦìłĦ": 1795,
      "ĠìŀĪê³ł": 1796,
      "ĠìŀĪìľ¼ë©°": 1797,
      "íĮĢ": 1798,
      "ĠH": 1799,
      "ìķĬ": 1800,
      "ëįĶëĭĪ": 1801,
      "Ġì§Ħíĸī": 1802,
      "ì£½": 1803,
      "ĠìķĬìĿĢ": 1804,
      "ĠìĪĺëıĦ": 1805,
      "ĠìĽĥ": 1806,
      "ëıĦë¡Ŀ": 1807,
      "ĠëŁ": 1808,
      "is": 1809,
      "ìŀĲë¥¼": 1810,
      "Ġê²½ê¸°": 1811,
      "ìĹĲìĦł": 1812,
      "Ġê´Ģëł¨": 1813,
      "ic": 1814,
      "ê°±ìĿ´": 1815,
      "íĩ´": 1816,
      "it": 1817,
      "ìĿ´ëĦ¤": 1818,
      "»Ķ": 1819,
      "Ġìĺ¬ëĿ¼": 1820,
      "ĠìķĮê³ł": 1821,
      "Ġëª¸": 1822,
      "êµŃìĿĺ": 1823,
      "íĸĪê³ł": 1824,
      "ìĿ´ì§Ģë§Į": 1825,
      "ĠíĮ¬": 1826,
      "ìłķê¶Į": 1827,
      "Ġíį¼": 1828,
      "ë³¼": 1829,
      "Ġëª¨ìĬµìĿĦ": 1830,
      "Ľ°": 1831,
      "ĠìĿ¼ë¶Ģ": 1832,
      "ì¤ĺ": 1833,
      "Ġì¦ī": 1834,
      "Ġê·¸ëłĩ": 1835,
      "ìłķìĿĢ": 1836,
      "ìį¨": 1837,
      "ĠíĨµíķ´": 1838,
      "ĠìŀĪìĸ´": 1839,
      "ë§Ĳê³ł": 1840,
      "ĠëĮĢë¶Ģë¶Ħ": 1841,
      "ĠìķĬìķĺ": 1842,
      "Ġê·¸ë§Į": 1843,
      "íķĺìĺĢ": 1844,
      "íķĺëįĺ": 1845,
      "ëįķ": 1846,
      "ëĤĺëĬĶ": 1847,
      "ĠíĴĢ": 1848,
      "ë°Ģ": 1849,
      "ĠìķĦëĭĪëĭ¤": 1850,
      "ĠìĦ¸ê¸Ī": 1851,
      "ì§Ģë§ī": 1852,
      "Ġë§ĪìĿĮ": 1853,
      "ìĭľì¼ľ": 1854,
      "ĠëĨĢ": 1855,
      "ìłķìĿĦ": 1856,
      "ĠìŀĳíĴĪ": 1857,
      "ì¹Ń": 1858,
      "íĮĶ": 1859,
      "ĠíĬ¹íŀĪ": 1860,
      "Ġì¸": 1861,
      "ĠìĹĨìĿ´": 1862,
      "íķµ": 1863,
      "ìĶ©": 1864,
      "ìĥģìĿ´": 1865,
      "ì¹¨": 1866,
      "íĻķ": 1867,
      "ĠìĹĨìĸ´": 1868,
      "ê±°ì§Ģ": 1869,
      "Ġë¬¼ë¡ł": 1870,
      "Ġê°ĸ": 1871,
      "ĠìĹ¬ê¸°": 1872,
      "Ġíķ´ëĭ¹": 1873,
      "Ġëĭ¹ìĭł": 1874,
      "ĠìĿ´ë²Ī": 1875,
      "ëŀĦ": 1876,
      "ë§Īëĭ¤": 1877,
      "Ġì§ĵ": 1878,
      "ìĭŃ": 1879,
      "íķĺëĥĲ": 1880,
      "~~~": 1881,
      "Ġ0": 1882,
      "Ġíĺĳ": 1883,
      "Ġìĭľë¦¬ì¦Ī": 1884,
      "ìĺ¥": 1885,
      "ĠìķĬëĬĶëĭ¤": 1886,
      "áĦıáĦıáĦı": 1887,
      "ĠíıĲ": 1888,
      "ê³¤": 1889,
      "ë¯¼ì£¼": 1890,
      "ê·¸ëŀĺ": 1891,
      "Ġëĭ¤ë§Į": 1892,
      "ing": 1893,
      "Ġëŀ": 1894,
      "ìĽĥ": 1895,
      "ê·¼íĺľ": 1896,
      "ë³´ê³ł": 1897,
      "ĠìķĶ": 1898,
      "Ġëī´": 1899,
      "ĠëĤ¨ìŀĲ": 1900,
      "ĠìķĦëĭĪê³ł": 1901,
      "18": 1902,
      "ìĤ¼": 1903,
      "ê³³": 1904,
      "Ġê²ĥëıĦ": 1905,
      "ĠìłĢëŁ°": 1906,
      "ëĢ": 1907,
      "Ġë©´": 1908,
      "Ġë¶Ģë¶Ħ": 1909,
      "Ġíļ¨ê³¼": 1910,
      "ë³´ë©´": 1911,
      "ìĤ¬ëĬĶ": 1912,
      "ĠëĮĢíķ´": 1913,
      "ĠëĤ´ìļ©": 1914,
      "ĠëĮĢíĳľ": 1915,
      "Ġìĸ¸ë¡ł": 1916,
      "ëĶ°": 1917,
      "ĠìĿ´ê²Į": 1918,
      "Ġíķĺëĭ¤": 1919,
      "Ġìĸĺ": 1920,
      "ķħ": 1921,
      "ëĦĺ": 1922,
      "ìĬ·": 1923,
      "Ġê¹¨": 1924,
      "Ġìħ": 1925,
      "ĠëĤ®": 1926,
      "ìĭľëĭ¤": 1927,
      "Ġê²°ê³¼": 1928,
      "ê°ĳ": 1929,
      "ëĵľë¥¼": 1930,
      "ĠìłĦë¶Ģ": 1931,
      "ëıĻìķĪ": 1932,
      "Ġê¸°ë³¸": 1933,
      "ìĬ¤ëĬĶ": 1934,
      "ĠìĹĦì²Ń": 1935,
      "ëĤ¸": 1936,
      "Ġë¹¼": 1937,
      "Ġìĵ°ëłĪê¸°": 1938,
      "ĠìłĦìŁģ": 1939,
      "ë¨¼": 1940,
      "Ġíķľë²Ī": 1941,
      "ëĵ¤ìĸ´": 1942,
      "Ġë§¡": 1943,
      "ëŁ¬ìļ´": 1944,
      "ëŀµ": 1945,
      "ìļķ": 1946,
      "ë·": 1947,
      "Ġìłĳ": 1948,
      "Ġì§ĢìĽĲ": 1949,
      "íĺĳ": 1950,
      "ĠW": 1951,
      "Ġëĭ¹ìĹ°": 1952,
      "Ġë°°ìļ°": 1953,
      "Ġê²©": 1954,
      "Ġê¸Ģ": 1955,
      "ë¡ľìļ´": 1956,
      "ĠO": 1957,
      "ëª¬": 1958,
      "íĽĪ": 1959,
      "Ġìľ¤": 1960,
      "ĠìĿ´íķ´": 1961,
      "ìĭ¸": 1962,
      "ë¨¸ëĭĪ": 1963,
      "ĠìĬ¤íĤ¬": 1964,
      "ëªħìĿ´": 1965,
      "Ġìĵ¸": 1966,
      "Ġìķķ": 1967,
      "ëı¼ì§Ģ": 1968,
      "ì±Ħ": 1969,
      "íļį": 1970,
      "ìĿ´ëŁ°": 1971,
      "ĠìĹĶ": 1972,
      "ĠíĻľëıĻ": 1973,
      "Ġì£¼ìĿ¸": 1974,
      "ì²Ļ": 1975,
      "ĠâĢ": 1976,
      "ëł¸ëĭ¤": 1977,
      "ĠíĿ¬": 1978,
      "ĠëĪĦê°Ģ": 1979,
      "ĠìĿ´ëŁ¬": 1980,
      "âĨ": 1981,
      "ëĶ©": 1982,
      "ĠìľĦíķľ": 1983,
      "Ġìĸ¼ë§ĪëĤĺ": 1984,
      "ĠëĿ¼ìĿ´": 1985,
      "ĠìĿĳ": 1986,
      "ëī´": 1987,
      "ê°ĢìĦľ": 1988,
      "ĠáĦı": 1989,
      "Ġth": 1990,
      "Įį": 1991,
      "Ġê¸°ì¤Ģ": 1992,
      "ë¥´ëĬĶ": 1993,
      "ëĺĲ": 1994,
      "ĠëĲĺìĹĪ": 1995,
      "ìĿ´ë©´": 1996,
      "Ġë¹ĦìĬ·": 1997,
      "ìĦ¼": 1998,
      "ĠëĶ¸": 1999,
      "ê·¸ëŁ¬": 2000,
      "ìĭľìĹĲ": 2001,
      "ĠìĬĪ": 2002,
      "ëĮĢíķľë¯¼êµŃ": 2003,
      ".....": 2004,
      "ë¡ľëĬĶ": 2005,
      "Ġë³´ìĿ¸ëĭ¤": 2006,
      "ì°Į": 2007,
      "ë§ŀ": 2008,
      "Ġë§Īì§Ģë§ī": 2009,
      "Ġëĵ£": 2010,
      "Ġìĸ´ëĸ¤": 2011,
      "ìĪĺë¥¼": 2012,
      "ìķ¼ì§Ģ": 2013,
      "Ġb": 2014,
      "ìłł": 2015,
      "Ġë§Įëĵł": 2016,
      "ĠìľĦì¹ĺ": 2017,
      "Ġìµľê³ł": 2018,
      "ĠìĿ¸íķ´": 2019,
      "áĨ": 2020,
      "ê²¼": 2021,
      "ì¦ĺ": 2022,
      "Ġê°ĳ": 2023,
      "Ġì§ģìłĳ": 2024,
      "Ġì¢ĮíĮĮ": 2025,
      "ìĿ´ìĬ¤": 2026,
      "ĠìĤ¬ë§Ŀ": 2027,
      "Ġê·¸ëĮĢë¡ľ": 2028,
      "es": 2029,
      "ë²¤": 2030,
      "ac": 2031,
      "Ġ+": 2032,
      "ì¹ĺê³ł": 2033,
      "ĠìłķëıĦë¡ľ": 2034,
      "Ġìļ°ë¦¬ëĤĺëĿ¼": 2035,
      "ìłķìĿ´": 2036,
      "ë¬¸ìĹĲ": 2037,
      "Ġì¶ľìĭł": 2038,
      "ìŀĲìĿĺ": 2039,
      "ĠìĦ±ê³µ": 2040,
      "ìĹĺ": 2041,
      "Ġì¤ĳìļĶ": 2042,
      "Ġì¹¨": 2043,
      "ĠìĿ¸ë¬¼": 2044,
      "Ġìļ¸": 2045,
      "ìĬĪ": 2046,
      "ĠëĬ¥ëł¥": 2047,
      "ĠìĦłê±°": 2048,
      "Ġê¸ī": 2049,
      "ĠìĿĺë¯¸": 2050,
      "Ġìį¨": 2051,
      "Ġê²½ì°°": 2052,
      "ê²ĥìĿ´": 2053,
      "Ġë¬¸ìŀ¬ìķĻ": 2054,
      "ĠëģĮ": 2055,
      "íķľëĭ¤ê³ł": 2056,
      "Ġíķ´ëıĦ": 2057,
      "ê¿": 2058,
      "ĠëĨĵ": 2059,
      "ìŀĲëĵ¤": 2060,
      "ĠíĹ¤": 2061,
      "ëŁ´": 2062,
      "ìľĦë¥¼": 2063,
      "Ġëĭ¬ë¦¬": 2064,
      "Ġì¶ķêµ¬": 2065,
      "Ĳëĭ¤": 2066,
      "ĠìĨĮë¦¬": 2067,
      "ë¬¸ìŀ¬ìĿ¸": 2068,
      "ĠëĽ°": 2069,
      "Ġëĭ¤ë¥´": 2070,
      "ê±°ëĭ¤": 2071,
      "Ġs": 2072,
      "ìļ±": 2073,
      "Ġë§ĲìĿĦ": 2074,
      "Ġë³´ëĤ´": 2075,
      "Ġì¿ł": 2076,
      "ëĮĢìĿĺ": 2077,
      "ĠëĮĢìĭł": 2078,
      "Ġë§ĲìĿ´": 2079,
      "ìĿ´ëĿ¼ëıĦ": 2080,
      "Ġìłľìŀĳ": 2081,
      "Ġë°ĶëĢ": 2082,
      "Ġë¨¼ìłĢ": 2083,
      "Ġê´Ģê³Ħ": 2084,
      "Ġì°¾ìķĦ": 2085,
      "Ġë§ģ": 2086,
      "ìĿ´ìŀĲ": 2087,
      "ì¸¡": 2088,
      "áĨŀ": 2089,
      "ëĲĺì§Ģ": 2090,
      "ë¿Ĳ": 2091,
      "ìĽħ": 2092,
      "ëĮĢë¥¼": 2093,
      "om": 2094,
      "Ġm": 2095,
      "ĠëĦ£": 2096,
      "Ġ16": 2097,
      "ĠìĿ¸ìłķ": 2098,
      "ì§Ħì§ľ": 2099,
      "íķĺëĿ¼": 2100,
      "Ġë§İëĭ¤": 2101,
      "Ġê°Ļëĭ¤": 2102,
      "ëł¤ëĬĶ": 2103,
      "ë¡ľëĤĺ": 2104,
      "ĠìķĦì£¼": 2105,
      "ĠìŀĲíķľëĭ¹": 2106,
      "ĠOOO": 2107,
      "Ġëľ»": 2108,
      "Ġê°Ĳëıħ": 2109,
      "ìļ°ë¦¬": 2110,
      "ĠíĸīëıĻ": 2111,
      "Ġì§ĢëĤĺ": 2112,
      "ìĿ¸ìĿĢ": 2113,
      "ìŀĺ": 2114,
      "ĠìĤ¬ëĿ¼": 2115,
      "ĠìłľìĻ¸": 2116,
      "Ġëįķ": 2117,
      "BS": 2118,
      "ĠìķĮëł¤": 2119,
      "ĠìĿ´ë¥¼": 2120,
      "Ġë§Ĳê³ł": 2121,
      "Ġê¶ģ": 2122,
      "Ġê·ľ": 2123,
      "ì¿": 2124,
      "ĠëĤĺíĥĢ": 2125,
      "ĠëĨĴìĿĢ": 2126,
      "ë°ĸìĹĲ": 2127,
      "el": 2128,
      "ëŀľëĵľ": 2129,
      "êº¼": 2130,
      "íĬ¸ë¥¼": 2131,
      "Ġìĸ´ì©": 2132,
      "Ġê´´": 2133,
      "ĠìĬ¤íĥĢ": 2134,
      "ëıĦë¥¼": 2135,
      "Ġê³µê°ľ": 2136,
      "ëĭ¤ëĭĪ": 2137,
      "ĠëĤ´ëł¤": 2138,
      "ìĿ¼ìĹĲ": 2139,
      "Ġìı": 2140,
      "Ġê³¡": 2141,
      "ë©ĶìĿ´": 2142,
      "ĠìĿ´ìĸ´": 2143,
      "Ġê°Ģì¡±": 2144,
      "ĠìĦłíĥĿ": 2145,
      "íĴį": 2146,
      "Ġëĥ": 2147,
      "ì·¨": 2148,
      "ìĪĻ": 2149,
      "ìĬ¤íĥĢ": 2150,
      "ĠìĹĨê³ł": 2151,
      "ìĤ¬ìĿĺ": 2152,
      "Ġëĺ¥": 2153,
      "ëıĦë¡ľ": 2154,
      "Ġê³µìĤ°": 2155,
      "ì¢ĭ": 2156,
      "000": 2157,
      "Ġê³¼ê±°": 2158,
      "³¤": 2159,
      "ë§İ": 2160,
      "ìŀĲë¡ľ": 2161,
      "ìĿ¸ìĿĦ": 2162,
      "ëĵ±íķĻêµĲ": 2163,
      "ol": 2164,
      "ìī¬": 2165,
      "ìĭ¶": 2166,
      "Ġê·¸ëŀĺìĦľ": 2167,
      "Ġíı¬íķ¨": 2168,
      "ĠìĹĺ": 2169,
      "ë¡Ń": 2170,
      "Ġê±°ì§ĵ": 2171,
      "íĸĪëĬĶëį°": 2172,
      "íĻĶë¥¼": 2173,
      "ê°Ħëĭ¤": 2174,
      "ëĭĮ": 2175,
      "íı°": 2176,
      "íĬ¼": 2177,
      "Ġíķµ": 2178,
      "Ġìī½": 2179,
      "ìłĦìĿĦ": 2180,
      "íĥģ": 2181,
      "Ġìłľë°ľ": 2182,
      "ëģĦ": 2183,
      "íļ¨": 2184,
      "ëĿ¼ë§Ī": 2185,
      "Ġo": 2186,
      "íĺ¹": 2187,
      "ê³łë¡ľ": 2188,
      "Ġê·¸ìĿĺ": 2189,
      "ĠëĤĺìĺ¤ëĬĶ": 2190,
      "ĠíĭĢ": 2191,
      "Ġì¡°ê¸Ī": 2192,
      "Ġìľ¡": 2193,
      "ĠëŁ¬": 2194,
      "Ġìĸ¸ê¸ī": 2195,
      "he": 2196,
      "Ġë°©ë²ķ": 2197,
      "ìĿ´ëŀĢ": 2198,
      "ìĿ´ë¥¼": 2199,
      "Ġì¡°ìĤ¬": 2200,
      "Ġì¡°ìŀĳ": 2201,
      "ìħĶ": 2202,
      "ĠìĭľìłĪ": 2203,
      "Ġì°©": 2204,
      "ëį¸": 2205,
      "Ġê¿": 2206,
      "ĠìŀĪëįĺ": 2207,
      "Ġíĭ°": 2208,
      "ĠëĪĦêµ¬": 2209,
      "ëªħìĿĦ": 2210,
      "ëĭĿ": 2211,
      "ê°Ĵ": 2212,
      "ìķķ": 2213,
      "ĠìĽĮ": 2214,
      "íĤ¹": 2215,
      "Ġì¹ľêµ¬": 2216,
      "ĠìĤ¬ëŀĮëĵ¤ìĿ´": 2217,
      "Ġê¸°ìĹħ": 2218,
      "íĸĪëĭ¤ê³ł": 2219,
      "íķĺëĭĪ": 2220,
      "íŀĮ": 2221,
      "ĠìłķìĿĺ": 2222,
      "íĶ½": 2223,
      "ĠìĦľë¡ľ": 2224,
      "ad": 2225,
      "ì¤ĳêµŃ": 2226,
      "ë´ĲëĿ¼": 2227,
      "ìľ¤": 2228,
      "ĠìĹ¬ìĦ±": 2229,
      "ĠìłĪëĮĢ": 2230,
      "ìĿ´ëĭĪ": 2231,
      "ĠëĤ´ê°Ģ": 2232,
      "Ġìĸ¼êµ´": 2233,
      "ĠíķĺëĬĶëį°": 2234,
      "Ġê¼¬": 2235,
      "Ġ#": 2236,
      "ĠìŀĪì§Ģë§Į": 2237,
      "Ġì¹´ëĵľ": 2238,
      "Ġt": 2239,
      "ìĻĢìĿĺ": 2240,
      "Ġê¼Ń": 2241,
      "íŀĪëł¤": 2242,
      "íĹĪ": 2243,
      "ĠìĤ¬ëŀĳ": 2244,
      "Ġë©Ģ": 2245,
      "Ġìĥģëĭ¹íŀĪ": 2246,
      "ìļ°ëĬĶ": 2247,
      "ĠìĿĺíķ´": 2248,
      "Ġíĺ¹": 2249,
      "ëĮĢíĨµëł¹": 2250,
      "Ġë´ī": 2251,
      "ĳ¸": 2252,
      "Ġê¼´": 2253,
      "Ġë§Īë²ķ": 2254,
      "Ġíĸ¥": 2255,
      "Ġì¹ľìĿ¼": 2256,
      "ĠìŀĪëĭ¤ëĬĶ": 2257,
      "ĠìĬ¬": 2258,
      "Ġë¹ĦêµĲ": 2259,
      "ëĮĢëĬĶ": 2260,
      "ìĻĢìĦľ": 2261,
      "Ġë¹Į": 2262,
      "Ġê·¸ëŁ¼": 2263,
      "Ġìĩ¼": 2264,
      "ì¤Ģëĭ¤": 2265,
      "ion": 2266,
      "ì¹ĺë¥¼": 2267,
      "Ġê·¸ë¦¬": 2268,
      "ĠìķĦë²Ħ": 2269,
      "Ġë§ģíģ¬": 2270,
      "ëĳ¥": 2271,
      "ëĮĢìĹĲ": 2272,
      "Ġëª»íķľ": 2273,
      "ĠëĶ±": 2274,
      "ëĤľëĭ¤": 2275,
      "am": 2276,
      "ĠĠ": 2277,
      "ê¸°ìĹħ": 2278,
      "ë©¸": 2279,
      "ê°Ķ": 2280,
      "Ġíŀĺëĵ¤": 2281,
      "ĠìłĦì²´": 2282,
      "Ġì£¼ìĿ¸ê³µ": 2283,
      "ë²Īì§¸": 2284,
      "ĠìķĮìķĦ": 2285,
      "ëŀ¨": 2286,
      "Ġë¹¨ê°±ìĿ´": 2287,
      ".\"": 2288,
      "ĠíķĻêµĲ": 2289,
      "Ġ13": 2290,
      "Ġì¹¼": 2291,
      "ĠáĦĴ": 2292,
      "ĠíķĻìĥĿ": 2293,
      "ĠáĦį": 2294,
      "ìļ´ëıĻ": 2295,
      "Ġ50": 2296,
      "ì§Ģì§Ģ": 2297,
      "ĠìĽĲëŀĺ": 2298,
      "ĠëıĻìķĪ": 2299,
      "ĠU": 2300,
      "Ġëĵ±ìĿĺ": 2301,
      "Ġ198": 2302,
      "ĠëĨį": 2303,
      "ĠëŃĺ": 2304,
      "Ġê·¸ëħĢ": 2305,
      "ä¸": 2306,
      "Ġ14": 2307,
      "Ġì±ħìŀĦ": 2308,
      "íĸĪìĿĦ": 2309,
      "ĠìĿ¸íĦ°": 2310,
      "íķĺëĬĶê±°": 2311,
      "ê¸°ìĿĺ": 2312,
      "Ġw": 2313,
      "ë²½": 2314,
      "ì¹ĺê°Ģ": 2315,
      "ëĭ¥": 2316,
      "ĠV": 2317,
      "ìĸ´ìļĶ": 2318,
      "ìĿ´ê¸°": 2319,
      "Ġë°ľìĥĿ": 2320,
      "ìĦľëĬĶ": 2321,
      "Ġìĸ¸ìłľ": 2322,
      "ĠìķĦëĭĮê°Ģ": 2323,
      "id": 2324,
      "ĠìŀĲìĭłìĿ´": 2325,
      "ìĭĿìĿĦ": 2326,
      "ê¾¼": 2327,
      "ĠìĹ°êµ¬": 2328,
      "ĠëĤĺìģ": 2329,
      "ë¥´ê³ł": 2330,
      "Ġíģ¬ê²Į": 2331,
      "ëĿ¼ë©´": 2332,
      "ì¹ł": 2333,
      "ê°Ŀ": 2334,
      "ĠëłĪìĿ´": 2335,
      "¥Ĳ": 2336,
      "ìĬ¤ëŁ½": 2337,
      "ëłĮ": 2338,
      "Ġìĺ¤íŀĪëł¤": 2339,
      "ì¡°êµŃ": 2340,
      "Ġê°ľë°ľ": 2341,
      "Ġë°ĺëĮĢ": 2342,
      "ì³¤": 2343,
      "ë§Įíģ¼": 2344,
      "Ġc": 2345,
      "ìĭĿìĿ´": 2346,
      "199": 2347,
      "êµ¬ë§Į": 2348,
      "ĠíĺĦìĭ¤": 2349,
      "ë¦¬ìĿĺ": 2350,
      "ĠìŀĪëĭ¤ê³ł": 2351,
      "ìĻĦ": 2352,
      "Ġf": 2353,
      "Ġ...": 2354,
      "ëĤĺìļĶ": 2355,
      "ĠìĦłëıĻ": 2356,
      "ĠìĿ´ìłĦ": 2357,
      "íķľê±°": 2358,
      "ĠíĥĢìĿ´": 2359,
      "ì²ľì§Ģ": 2360,
      "Ġìĸ´ëł¤": 2361,
      "íľ´": 2362,
      "????": 2363,
      "íķĺìĭľ": 2364,
      "ê³¼ëĬĶ": 2365,
      "ìĿ´ìĥģ": 2366,
      "Ġ17": 2367,
      "ig": 2368,
      "ĠìĿ´ëĬĶ": 2369,
      "ĠìĪĺìĤ¬": 2370,
      "¤ë²Ħ": 2371,
      "ì¡°ìĦł": 2372,
      "ìłĲìĿĦ": 2373,
      "ëĮĢíĳľ": 2374,
      "ê²łëĦ¤": 2375,
      "Ġd": 2376,
      "ĠìĤ¬ëŀĮëĵ¤": 2377,
      "Ġëįĺ": 2378,
      "Ġê²½ìļ°ê°Ģ": 2379,
      "ì¡°ê±´": 2380,
      "ê°Ģê°Ģ": 2381,
      "as": 2382,
      "ìĥĪëģ¼": 2383,
      "Ġìĺģíĸ¥": 2384,
      "Ġìļ´ìĺģ": 2385,
      "50": 2386,
      "ĠìĿ´ë£¨": 2387,
      "ìľ¼ë¡ľëĬĶ": 2388,
      "ëłµ": 2389,
      "Ġë³´ìĪĺ": 2390,
      "^^": 2391,
      "Ġthe": 2392,
      "ë§ĪëĿ¼": 2393,
      "ê°ĢëĬ¥": 2394,
      "Ġê°Ģì§Ħ": 2395,
      "Ġë¶Ģëª¨": 2396,
      "ĠëĮĢíķĻ": 2397,
      "Ġë²Ķì£Ħ": 2398,
      "ĠëĲĺê³ł": 2399,
      "ê¸°ê³ł": 2400,
      "Ġì¡¸": 2401,
      "Ġ?": 2402,
      "ĠëĤĺìĺ¨ëĭ¤": 2403,
      "Ġíķ´ìĦľ": 2404,
      "íķ´ì£¼": 2405,
      "ĠìĿ´ëıĻ": 2406,
      "ëĭ¹ìĿ´": 2407,
      "ìĺ¤ëĬĶ": 2408,
      "Ġíķĺë£¨": 2409,
      "ë³´ëĭĪ": 2410,
      "ìĩ": 2411,
      "Ġë³´ê¸°": 2412,
      "áħ®": 2413,
      "Ġê·¸ëŀĺëıĦ": 2414,
      "Ġì£¼ìŀ¥": 2415,
      "ĠìĹŃìĤ¬": 2416,
      "Ġê°Ģì§Ģ": 2417,
      "®¤": 2418,
      "ë§¹": 2419,
      "ëľ¨": 2420,
      "ìĻĶëĭ¤": 2421,
      "Ġë¬¸ìłľê°Ģ": 2422,
      "ìºĲ": 2423,
      "ĠêµĲìľ¡": 2424,
      "íĶĦë¡ľ": 2425,
      "ĠìŀĶ": 2426,
      "ìĿĦê¹Į": 2427,
      "Ġì¦Ŀê°Ģ": 2428,
      "Ġìį": 2429,
      "ëĭĽ": 2430,
      "il": 2431,
      "21": 2432,
      "Ġëĭ¤ëĭĪ": 2433,
      "Ġê´": 2434,
      "ĠëĵľëŁ¬": 2435,
      "ìĽĲìĿĦ": 2436,
      "ì°®": 2437,
      "ë¨¹ê³ł": 2438,
      "ëĤĺê°Ģ": 2439,
      "Ġíķ´ê²°": 2440,
      "ĠëĤĺëĿ¼ê°Ģ": 2441,
      "Ġìŀ¡ìķĦ": 2442,
      "Ġë°Ľê³ł": 2443,
      "ìĹĩ": 2444,
      "ìĹĦ": 2445,
      "ëŀį": 2446,
      "ìĽł": 2447,
      "ìĸ´ë¡ľ": 2448,
      "Ġáħ³": 2449,
      "ĠìŀĪìĸ´ìĦľ": 2450,
      "ìłģìĿ´": 2451,
      "ìĹĨëĭ¤": 2452,
      "ëł¤ìĦľ": 2453,
      "ë¦¬ê·¸": 2454,
      "Ġë°ĿíĺĢ": 2455,
      "ëĵľê°Ģ": 2456,
      "ë¶Īìĸ´": 2457,
      "ĠíĻĪ": 2458,
      "íĬ¸ê°Ģ": 2459,
      "ìľ¼ë©´ìĦľ": 2460,
      "ëĤĺë§Ī": 2461,
      "íĬľ": 2462,
      "Ġë°©ìĸ´": 2463,
      "Ġìľłëªħ": 2464,
      "Ġìĭ¤ìłľë¡ľ": 2465,
      "ê³¼ìĿĺ": 2466,
      "Ġì»¨": 2467,
      "ed": 2468,
      "Ġë§ĪìĬ¤íģ¬": 2469,
      "íĻĶê°Ģ": 2470,
      "ì§Ģê¸Ī": 2471,
      "Ġìłķë³´": 2472,
      "ĠëĺĲëĬĶ": 2473,
      "ĠêµŃíļĮìĿĺ": 2474,
      "Ġì¶ľìĹ°": 2475,
      "íķĺëĬĶê²Į": 2476,
      "ì¯": 2477,
      "et": 2478,
      "ĠìĤ¬ê³ł": 2479,
      "ê²łì§Ģë§Į": 2480,
      "ĠìŀĲì£¼": 2481,
      "ĠìķłëĭĪ": 2482,
      "ìĿ´ëŀĳ": 2483,
      "ë¢": 2484,
      "Ġë°ķê·¼íĺľ": 2485,
      "ëĲĺë©´": 2486,
      "ëŀĻ": 2487,
      "ĠìĿ´ê²ĥ": 2488,
      "ĠìĨĶ": 2489,
      "ĠìĪ¨": 2490,
      "ìĹŃìĭľ": 2491,
      "Ġìĥī": 2492,
      "ë¦¬ì¹´": 2493,
      "Ġp": 2494,
      "ëĵľìĿĺ": 2495,
      "íľĺ": 2496,
      "Ġìľłì§Ģ": 2497,
      "ìĦ¸ê³Ħ": 2498,
      "ê¹Ŀ": 2499,
      "Ġë©¤ë²Ħ": 2500,
      "ê°ľìĿĺ": 2501,
      "us": 2502,
      "ay": 2503,
      "Ġë°ĶëĢĮ": 2504,
      "ĠìľĦíķ´ìĦľ": 2505,
      "ĠëıĦìĭľ": 2506,
      "Ġëħ¸ëŀĺ": 2507,
      "ìłķíķľ": 2508,
      "ĠìĥĪëģ¼": 2509,
      "12": 2510,
      "Ġíľ´": 2511,
      "íķĺê¸°ëıĦ": 2512,
      "âĨĴ": 2513,
      "ë¥¸ëĭ¤": 2514,
      "íķľëĭ¤ëĬĶ": 2515,
      "ĠìĿ´ìĹĲ": 2516,
      "ĠìĿ´ê±´": 2517,
      "--": 2518,
      "ĠìĹĨìĹĪ": 2519,
      "Ġëª»íķĺê³ł": 2520,
      "Ġë¬ĺ": 2521,
      "Ġê°ķëł¥": 2522,
      "ìŀĲê¸°": 2523,
      "ëķĮë¬¸ìĹĲ": 2524,
      "ë¦¬ë©´": 2525,
      "ĠìľłìłĢ": 2526,
      "ê¼´": 2527,
      "ë¦¬ìĸ´": 2528,
      "ìħ¨": 2529,
      "Ġë§Īì°¬": 2530,
      "ĠìĿ´ìķ¼ê¸°": 2531,
      "ê·¸ëŀ¨": 2532,
      "Ġê·¸ê²Į": 2533,
      "ĠëĤĺê°Ģ": 2534,
      "ìĭĿìľ¼ë¡ľ": 2535,
      "ë¢°": 2536,
      "Ġë¦¬ê·¸": 2537,
      "ìĩ¼": 2538,
      "Ġë¹¨ë¦¬": 2539,
      "ĠíĻķìĭ¤": 2540,
      "ĠëĬĲëĤ": 2541,
      "Ġì§ľ": 2542,
      "Ġì¸¡": 2543,
      "ĠJ": 2544,
      "Ġì£¼ë³Ģ": 2545,
      "ro": 2546,
      "Ġìŀ¥ë©´": 2547,
      "ìŀĲëĵ¤ìĿ´": 2548,
      "ê·¸ë¦¬ê³ł": 2549,
      "Ġíķ´ëĿ¼": 2550,
      "Ġë¬´ìĭľ": 2551,
      "ĠìłĦíĺĢ": 2552,
      "ëįĶëĿ¼ëıĦ": 2553,
      "ĠìķĦìĺĪ": 2554,
      "íķľëį°": 2555,
      "Ġê·¸ëĬĶ": 2556,
      "ĠìĨĮìĨį": 2557,
      "ĠíĻķìĿ¸": 2558,
      "ì§Ŀ": 2559,
      "ìĦŃ": 2560,
      "ëł¤ë©´": 2561,
      "ĠíĿĶ": 2562,
      "ì»¬": 2563,
      "ëª°": 2564,
      "ìĪĺìĿĺ": 2565,
      "Ġë¶Ģì¡±": 2566,
      "ĠìķĬìķĺëĭ¤": 2567,
      "ìķĦê°Ģ": 2568,
      "ì¼ĵ": 2569,
      "íĢ": 2570,
      "ëĦ·": 2571,
      "ì§Ģìĸ´": 2572,
      "Ġof": 2573,
      "ëĶ±": 2574,
      "ë¥´ë©´": 2575,
      "Ġìĵ´": 2576,
      "ĠíĥĦíķµ": 2577,
      "ĠìĦ¸ìĥģ": 2578,
      "íĸĪì§Ģë§Į": 2579,
      "Ġë³¸ìĿ¸": 2580,
      "Ġë§Īì°¬ê°Ģì§Ģ": 2581,
      "ĠìĿ¼ìĿ´": 2582,
      "ê¶ģ": 2583,
      "ĠìķĦëĭĪë©´": 2584,
      "ê¸°ìĤ¬": 2585,
      "ĠêµŃë¯¼ëĵ¤": 2586,
      "íĥķ": 2587,
      "Ġê²°ìłķ": 2588,
      "ê¹¨ë¬¸": 2589,
      "ë§ĮìĽĲ": 2590,
      "ì²©": 2591,
      "and": 2592,
      "ĠíĢ": 2593,
      "Ġë§ĮëĤĺ": 2594,
      "ĠìĹŃíķł": 2595,
      "ëįĶëĿ¼": 2596,
      "ìĭľë¯¼": 2597,
      "ìĿ´ëŁ¬": 2598,
      "ìłľê°Ģ": 2599,
      "Ġì°¬": 2600,
      "ĠíĶĦëŀĳ": 2601,
      "Ġê½¤": 2602,
      "Ġê¸°ìĸµ": 2603,
      "ĠáĦįáĦį": 2604,
      "ìĿĮìĿĦ": 2605,
      "~~~~": 2606,
      "Ġì«": 2607,
      "ë¹Ī": 2608,
      "ê·ł": 2609,
      "Ġíĩ´": 2610,
      "Ġê·¸ëŁ°ëį°": 2611,
      "ĠëķĮë¬¸ìĿ´ëĭ¤": 2612,
      "ëĭ¤ë©´": 2613,
      "ë°©ìĨ¡": 2614,
      "Ġë³´ìĹ¬ì£¼": 2615,
      "ĠëĩĮ": 2616,
      "Ġëĵ¤ìĸ´ê°Ģ": 2617,
      "ê²©ìĿĦ": 2618,
      "Ġê³µìĭĿ": 2619,
      "ìĤ¬ìĭ¤": 2620,
      "Ġ,": 2621,
      "ëĶĶìĺ¤": 2622,
      "íħĲëį°": 2623,
      "Ġê°ľìĿ¸": 2624,
      "Ġë»Ķ": 2625,
      "íĹĮ": 2626,
      "ìĿ´ë²Ħ": 2627,
      "Ġëģ¼": 2628,
      "ĠìĤ¬ì§Ħ": 2629,
      "Ġë¹ĦíĮĲ": 2630,
      "11": 2631,
      "Ġê°ľëı¼ì§Ģ": 2632,
      "ìĿ¼ìĿ´": 2633,
      "êµŃê°Ģ": 2634,
      "ìĸ´ë²Ħ": 2635,
      "ĠëĮĢì²´": 2636,
      "ĠìĨ¡": 2637,
      "ëĤ´ëĬĶ": 2638,
      "Ġìĸµ": 2639,
      "Ġíıīê°Ģ": 2640,
      "ë¡¯": 2641,
      "ìŀĲìĿ¸": 2642,
      "Ġê´ľ": 2643,
      "ìķĶ": 2644,
      "ëŃĲ": 2645,
      "Ġìŀĥ": 2646,
      "Ġê²°íĺ¼": 2647,
      "ĠëĮĢêµ¬": 2648,
      "ëªħìĿĺ": 2649,
      "ê²łëĭ¤ê³ł": 2650,
      "ê±°ìķ¼": 2651,
      "Ġ..": 2652,
      "ëıĦìĿĺ": 2653,
      "Ġì½Ķë¡ľëĤĺ": 2654,
      "Ġë°ľë§¤": 2655,
      "Ġê±±": 2656,
      "íķĺê±°ëĤĺ": 2657,
      "ìĶ¬": 2658,
      "Ġë¯¸ì¹ľ": 2659,
      "ĠìķĦì§ģëıĦ": 2660,
      "ìĬ¤íħľ": 2661,
      "Ġê²¬": 2662,
      "ëĿ¼ìĦľ": 2663,
      "Ġ<": 2664,
      "Ġíķĺë©°": 2665,
      "Ġì²ŃìĻĢ": 2666,
      "ëĮĢì²´": 2667,
      "Ġëª¬": 2668,
      "ìłĦìĹĲìĦľ": 2669,
      "ìľĦìĽĲ": 2670,
      "Ġê´Ģìĭ¬": 2671,
      "ĠìĬ¤íĨł": 2672,
      "ĠìĬ¤ìĬ¤ë¡ľ": 2673,
      "ĬìĿĢ": 2674,
      "Ġìļ°ìĬ¹": 2675,
      "ìķ¡": 2676,
      "ĠìĦĿ": 2677,
      "ãģĦ": 2678,
      "ì§Ģë¡ľ": 2679,
      "Ġì§ķ": 2680,
      "Ġìī¬": 2681,
      "ìĸ´ëĤľ": 2682,
      "ìĺĢëįĺ": 2683,
      "ìĿ´ê²Į": 2684,
      "ĠêµŃëĤ´": 2685,
      "ĠëĦĺìĸ´": 2686,
      "30": 2687,
      "ãģ®": 2688,
      "Ġë³Ģê²½": 2689,
      "ĠíĳľíĺĦ": 2690,
      "ë¶ĦìĹĲ": 2691,
      "ĠìĦ¤ì¹ĺ": 2692,
      "ìĿ¼ë³´": 2693,
      "ë¬¼ìĿĦ": 2694,
      "Ġ25": 2695,
      "Ġê°Ģìł¸": 2696,
      "Ġìłķìĥģ": 2697,
      "ĠëĭĪëĵ¤": 2698,
      "ĠìĶ¨": 2699,
      "ì°į": 2700,
      "ìĿ¸ê°Ħ": 2701,
      "**": 2702,
      "Ġëª¨ìĸĳ": 2703,
      "Ġë¥": 2704,
      "ĠìłģìĿ´": 2705,
      "ìĪĺëĬĶ": 2706,
      "ì¼°": 2707,
      "15": 2708,
      "ëħĦëĮĢ": 2709,
      "ìĻĢëĬĶ": 2710,
      "ê²ģ": 2711,
      "ìĻ¸ë¶Ģ": 2712,
      "ìĮį": 2713,
      "íĻį": 2714,
      "ìŀ¥ê´Ģ": 2715,
      "ìĿ´íĦ°": 2716,
      "Ġë§¨": 2717,
      "ìĿ´ìĸ´": 2718,
      "Ġê°Ģê¹Į": 2719,
      "ëĤ´ê³ł": 2720,
      "ch": 2721,
      "ĠìŀĲì²´ê°Ģ": 2722,
      "ĠìĤ¬ê¸°": 2723,
      "ë¡ľìĦľ": 2724,
      "ëĴ": 2725,
      "Ġì¢ĭëĭ¤": 2726,
      "áĦĴáĦĴ": 2727,
      "ëĤ¬ëĭ¤": 2728,
      "Ġëª»íķĺëĬĶ": 2729,
      "ĠìĻ¸êµŃ": 2730,
      "Ġë¬»": 2731,
      "ì¤¬": 2732,
      "íķĻìĥĿ": 2733,
      "ĠìłĦìĹĲ": 2734,
      "Ġë¬´ê¸°": 2735,
      "ĠìķĦë²ł": 2736,
      "ìłķìĭł": 2737,
      "ìĿ´ëıĦ": 2738,
      "Ġê°ĢëĬĶ": 2739,
      "Ġë¹Ħíķ´": 2740,
      "Ġëª¨ë¥´ëĬĶ": 2741,
      "ìĿ¸ëĵ¤": 2742,
      "Ġì´Īë°ĺ": 2743,
      "íĬ¸ë¡ľ": 2744,
      "ëķ": 2745,
      "ĠìĿĮìķħ": 2746,
      "Ġë¬´ì¡°ê±´": 2747,
      "ĠëĭĪê°Ģ": 2748,
      "ë¬´ìĽĲ": 2749,
      "ê°ĦìĹĲ": 2750,
      "ìķĦìķ¼": 2751,
      "ìłĲìĿ´": 2752,
      "ë¡¤": 2753,
      "ëĵľìĭľ": 2754,
      "ì²´ê°Ģ": 2755,
      "Ġì´ĿìĦł": 2756,
      "Ġëĵ±ìĿĦ": 2757,
      "ëłī": 2758,
      "ĠíĹĮ": 2759,
      "Ġìĺģìĥģ": 2760,
      "......": 2761,
      "Ġìĵ°ëĬĶ": 2762,
      "Ġíĺ¼ìŀĲ": 2763,
      "Ġìŀ¥ê´Ģ": 2764,
      "Ġíĥĵ": 2765,
      "Ġëķħ": 2766,
      "ìĿ´ëĿ¼ë©´": 2767,
      "Ġíĥĳ": 2768,
      "íķĳ": 2769,
      "ë°¥": 2770,
      "âĢĻ": 2771,
      "ê²łëĥĲ": 2772,
      "Ġìĸ´ë¦°": 2773,
      "Ġë¯¸ëŀĺ": 2774,
      "ĠìĬ¹ë¦¬": 2775,
      "ìļ´ëĵľ": 2776,
      "ê²½ìłľ": 2777,
      "å¤": 2778,
      "ìŀ¥ìĿĢ": 2779,
      "Ġë°¥": 2780,
      "Ġë³´ëĬĶ": 2781,
      "ìŀ¥ìĹĲìĦľ": 2782,
      "ĠìĭľíĤ¤": 2783,
      "Ġë¿": 2784,
      "ì§ĢìķĬ": 2785,
      "ĠìľłìĿ¼": 2786,
      "ìŀĦìĿĦ": 2787,
      "Ġìłķì±ħ": 2788,
      "Ġë°ĶëŀĮ": 2789,
      "ëĮĢíķĻêµĲ": 2790,
      "Ġëıħë¦½": 2791,
      "ë£¡": 2792,
      "ìĪĺëıĦ": 2793,
      "ìĭľê³ł": 2794,
      "ìĭľíĤ¨": 2795,
      "êµ°ìĿĺ": 2796,
      "Ġë°ĸìĹĲ": 2797,
      "Ġë§ĪìĿ´": 2798,
      "Ġíķľìĭ¬": 2799,
      "ĠíķĺìŀĲ": 2800,
      "Ġê·¸ê±¸": 2801,
      "Ġê·¼ëį°": 2802,
      "ĠìĻĦìłĦíŀĪ": 2803,
      "ĠìĹ¬ë¡ł": 2804,
      "ĠìĥĿìĤ°": 2805,
      "ìĪ¨": 2806,
      "ĠìĪł": 2807,
      "ê²©ìĿ´": 2808,
      "Ġêº¼": 2809,
      "ĠìĿ½": 2810,
      "ĠìĤ¼ìĦ±": 2811,
      "ìķĦìĿ´": 2812,
      "Ġê¸°ì¡´": 2813,
      "ĠìĥĪë¡ľìļ´": 2814,
      "ĠêµŃìłľ": 2815,
      "Ġì£¼ë¡ľ": 2816,
      "ëģĶ": 2817,
      "ĠëıħìĿ¼": 2818,
      "ìĿ´ëĵľ": 2819,
      "ĠíĽ¨": 2820,
      "ĠíĮĮê´´": 2821,
      "ĠìĦ¤ëªħ": 2822,
      "Ġê°ĢëĬ¥íķĺëĭ¤": 2823,
      "Ġìķ¨": 2824,
      "ê±´ëį°": 2825,
      "ìĪĺë¡Ŀ": 2826,
      "ìĹĲìĦľìĿĺ": 2827,
      "Ġì¤Ģë¹Ħ": 2828,
      "ë´¤": 2829,
      "ë£¹": 2830,
      "ìĸ´ë¥¼": 2831,
      "Ġíķĺë©´ìĦľ": 2832,
      "ìĵ": 2833,
      "Ġìĸĺê¸°": 2834,
      "Ġë°ľê²¬": 2835,
      "Ġë°ľíĳľ": 2836,
      "ĠìĤ¬ëŀĮìĿĢ": 2837,
      "ìŀĶ": 2838,
      "ê¹Ĳ": 2839,
      "ĠìľłëĭĽ": 2840,
      "ow": 2841,
      "ëł´": 2842,
      "Ġë°ĽìĿĢ": 2843,
      "ë¦¬ìĺ¤": 2844,
      "ëĩĮ": 2845,
      "ĠìķĬìķĦ": 2846,
      "ĠëŃĲê°Ģ": 2847,
      "Ġì§Ģì¼ľ": 2848,
      "ĠìĦ¬": 2849,
      "ëı¼": 2850,
      "ĠìĽĢ": 2851,
      "Ġìļ´ëıĻ": 2852,
      "ìŀĲë¦¬": 2853,
      "ìĿ´ë¡ľ": 2854,
      "ve": 2855,
      "ì¡°ì°¨": 2856,
      "ê°Ģë¦¬": 2857,
      "ĠìľĦíĹĺ": 2858,
      "ìĬ¤ìĻĢ": 2859,
      "Ġê³§": 2860,
      "ĠìĿ¼ëĭ¨": 2861,
      "ìĥģìľ¼ë¡ľ": 2862,
      "ĠëĵľëĿ¼ë§Ī": 2863,
      "Ġê¾": 2864,
      "ë³´ëĭ¤ëĬĶ": 2865,
      "Ġì°¸ìĹ¬": 2866,
      "{{": 2867,
      "ë§ĮìĿ´": 2868,
      "ì¹Ļ": 2869,
      "ìĽĶíĺ¸": 2870,
      "ëĤĻ": 2871,
      "ìŀ¥ìĹĲ": 2872,
      "ĠìŀĲìĭĿ": 2873,
      "Ġíĺķíĥľ": 2874,
      "ĠêµŃíļĮìĿĺìĽĲ": 2875,
      "Ġê°ĢìĦľ": 2876,
      ";;": 2877,
      "íĶĦíĬ¸": 2878,
      "25": 2879,
      "íķĺëĭ¤ê³ł": 2880,
      "áħ²áħ²": 2881,
      "Ġìĭ¤íĮ¨": 2882,
      "ìĽ¨": 2883,
      "ìĿ´ìĹĲ": 2884,
      "ì§Ģë©´": 2885,
      "ìĸ´ëĿ¼": 2886,
      ").": 2887,
      "Ġì§±": 2888,
      "Ġëį°ë¯¸": 2889,
      "âĺ": 2890,
      "ìĦ¸ê¸°": 2891,
      "ĠëĮĢëĭ¨": 2892,
      "ĠìķĦëĭĪëĥĲ": 2893,
      "ĠìłľìĿ¼": 2894,
      "ĠìķĦëĵ¤": 2895,
      "Ġê°Ģì§ľ": 2896,
      "Ġë¬´ëĬ¥": 2897,
      "ë³´ëĬĶ": 2898,
      "ĠëįĶë¶Īìĸ´": 2899,
      "BC": 2900,
      "ëŁŃ": 2901,
      "Ġë¨¸ë¦¬": 2902,
      "Ġëĭ¹ìĹ°íŀĪ": 2903,
      "ht": 2904,
      "Ġ40": 2905,
      "Ġê²¨": 2906,
      "Ġë§Įíģ¼": 2907,
      "ì´Į": 2908,
      "ëĵľë¡ľ": 2909,
      "ìķŀ": 2910,
      "Ġë¨¹ê³ł": 2911,
      "Ġêµ¬ìĦ±": 2912,
      "ëĵ¯ìĿ´": 2913,
      "ëħ¼": 2914,
      "ëĭ¹ìĿĢ": 2915,
      "ì¶ĺ": 2916,
      "Ġìłģìļ©": 2917,
      "ê²½ê¸°": 2918,
      "ëĭĪìķĦ": 2919,
      "Ġì°¸ê°Ģ": 2920,
      "Ġíľĺ": 2921,
      "ĠíĦ¸": 2922,
      "ìĿ´ìłľ": 2923,
      "ĠëĤĻ": 2924,
      "ĠìķĦëŀĺ": 2925,
      "ĠíŀĺìĿĦ": 2926,
      "ĠìĤ¬ê³¼": 2927,
      "ê²ĮìŀĦ": 2928,
      "ĠíĶĦë¦¬": 2929,
      "ĠëĤĺìĻĶ": 2930,
      "ë·°": 2931,
      "ëĲĲ": 2932,
      "ì¹¸": 2933,
      "Ġì¿": 2934,
      "ĠëĿ": 2935,
      "Ġë¹Ī": 2936,
      "ê¼¬": 2937,
      "ĠìķĦìĿ´íħľ": 2938,
      "íħĶ": 2939,
      "ì§ĢìĹĲ": 2940,
      "ĠìĤ¬ìĭ¤ìĥģ": 2941,
      "ê±´ê°Ģ": 2942,
      "ĠìĿ´ë²¤": 2943,
      "ĠìļĶêµ¬": 2944,
      "px": 2945,
      "ìĻľêµ¬": 2946,
      "Ġë³´íĨµ": 2947,
      "Ġìĭľë¯¼": 2948,
      "ĠíĿĳ": 2949,
      "ìĽĢìĿĦ": 2950,
      "ê·¸ëĥ¥": 2951,
      "ĠìĿ´ëķĮ": 2952,
      "ìľĦìĹĲ": 2953,
      "ĠëĶľ": 2954,
      "áĦĤ": 2955,
      "ì½ĺ": 2956,
      "ê°ģì£¼": 2957,
      "ìľ¼ë¡ľìĦľ": 2958,
      "ëŀĲ": 2959,
      "ë§ĮìĹĲ": 2960,
      "ëĤĺê²Į": 2961,
      "Ġêµ¬ìĨį": 2962,
      "ì§ĢìĿĺ": 2963,
      "ĠëĤĺëĿ¼ë¥¼": 2964,
      "Ġ197": 2965,
      "ĠìŀĪìľ¼ë©´": 2966,
      "ëĭ¹íķľ": 2967,
      "ëĮ": 2968,
      "ĠìĤ¬ëĬĶ": 2969,
      "Ġìµľì¢ħ": 2970,
      "Ġê±±ìłķ": 2971,
      "ĠëıĻìĭľìĹĲ": 2972,
      "Ġíķ©ëĭĪëĭ¤": 2973,
      "ê¶ĮìĿĦ": 2974,
      "Ġëĵ±ìĿ´": 2975,
      "ëĪĪ": 2976,
      "ê²ĥìĿĦ": 2977,
      "ĠíĽĦë°ĺ": 2978,
      "ĠëĴ·": 2979,
      "Ġë³´ëĭĪ": 2980,
      "Ġëħ¹": 2981,
      "ì§Ģê²Į": 2982,
      "ë§Įíķľ": 2983,
      "ëıĦëĬĶ": 2984,
      "Ġë³´íĺ¸": 2985,
      "ìĪĺë¡ľ": 2986,
      "ĠìĭľìĬ¤íħľ": 2987,
      "ìłľë¥¼": 2988,
      "ìĭľëĬĶ": 2989,
      "ìĿ¼ìĿĦ": 2990,
      "ìłĦìĿ´": 2991,
      "ë©ĶìĿ´ìħĺ": 2992,
      "un": 2993,
      "ìĹĪê³ł": 2994,
      "ë¥´ê²Į": 2995,
      "ĠíĽĪ": 2996,
      "Ġê³Ħíļį": 2997,
      "ì²´ë¥¼": 2998,
      "ë°Ľê³ł": 2999,
      "Ġìµľì´Ī": 3000,
      "íĸĪìľ¼ë©°": 3001,
      "Ġëıħìŀ¬": 3002,
      "Ġìĸ´ì°Į": 3003,
      "ĠëłĪë²¨": 3004,
      "Ġíķ´ìĻ¸": 3005,
      "íĺĪ": 3006,
      "ent": 3007,
      "ĠêµŃë¯¼ìĿ´": 3008,
      "íĸĪëĭ¤ëĬĶ": 3009,
      "ì»µ": 3010,
      "ĠìĹĨìĹĪëĭ¤": 3011,
      "ìĨĶ": 3012,
      "Ġìĸ´ëłµ": 3013,
      "ëł¥ìĿĢ": 3014,
      "ĠìķĪëĲĺëĬĶ": 3015,
      "ë¶Ļ": 3016,
      "ë°į": 3017,
      "ëįĺëį°": 3018,
      "Ġë¶Ģìłķ": 3019,
      "ĠíĴį": 3020,
      "ĠìķĦë§Ī": 3021,
      "īìŀ¥": 3022,
      "ìĽĲìĿĺ": 3023,
      "Ġì¢Įë¹¨": 3024,
      "ĠíĶĦë¡ľê·¸ëŀ¨": 3025,
      "ĠíĽ¨ìĶ¬": 3026,
      "Ġê·¸ëĤĺë§Ī": 3027,
      "ë¹Į": 3028,
      "Ġì°¨ì§Ģ": 3029,
      "ĠìµľëĮĢ": 3030,
      "ĠíĽĦë³´": 3031,
      "ìĦłìĿĦ": 3032,
      "ìĹĪëĬĶëį°": 3033,
      "Ġê°ķíĻĶ": 3034,
      "ĠìķĪëĲĺ": 3035,
      "ĠëķĮëĬĶ": 3036,
      "Ġë¹ĦìĬ·íķľ": 3037,
      "ĠìĨĮíĻĺ": 3038,
      "ë»Ķ": 3039,
      "Ġê¿Ī": 3040,
      "Ġë¶Īê°ĢëĬ¥": 3041,
      "ĠëĮĢíķ´ìĦľ": 3042,
      "ĠìĽĢì§ģ": 3043,
      "Ġê¸´": 3044,
      "Ġìĭ¬ì§Ģìĸ´": 3045,
      "ìłĦíŀĪ": 3046,
      "Ġëĵ¤ê³ł": 3047,
      "ëģ¼ë¦¬": 3048,
      "Ġìĭłê²½": 3049,
      "ëįľ": 3050,
      "íĻĶìĹĲìĦľ": 3051,
      "Ġë°Ľìķĺ": 3052,
      "ĠíĻľìķ½": 3053,
      "©ëĭĪëĭ¤": 3054,
      "ĠëĤĺëĬĶ": 3055,
      "ĠX": 3056,
      "16": 3057,
      "Ġì±Ļ": 3058,
      "ĠìĺĨ": 3059,
      "........": 3060,
      "ĠíĮĲëĭ¨": 3061,
      "Ġì¤ĳìĭ¬": 3062,
      "ĠìłĦë¬¸": 3063,
      "Ġê±°ì§ĵë§Ĳ": 3064,
      "Ġì§ĳëĭ¨": 3065,
      ".)": 3066,
      "ìĽĲìĿĢ": 3067,
      "ëł¤ëĿ¼": 3068,
      "Ġê¸°ìŀĲ": 3069,
      "Ġ2018": 3070,
      "ìķĦëĿ¼": 3071,
      "198": 3072,
      "ìĤ¬ë¡ľ": 3073,
      "ìĥ¤": 3074,
      "Ġë§Ľ": 3075,
      "ëĭ¤ë¥¸": 3076,
      "ìĭľì¦Į": 3077,
      "êµĲìľ¡": 3078,
      "Ġì½ĺ": 3079,
      "ĠìĿ´ë£¨ìĸ´": 3080,
      "ìĿ´íĽĦ": 3081,
      "Ġ24": 3082,
      "ĠìŀĲëıĻ": 3083,
      "Ġë°ĺìĿĳ": 3084,
      "áĦĭ": 3085,
      "ĠìĿ¼ìĿĦ": 3086,
      "ĠìŀĪìľ¼ëĭĪ": 3087,
      "ĠìĻ¸êµĲ": 3088,
      "ë¶ģíķľ": 3089,
      "ìľĦë¡ľ": 3090,
      "ëĭī": 3091,
      "ëŀ¬": 3092,
      "ĠêµŃë¯¼ëĵ¤ìĿ´": 3093,
      "ê±´ì§Ģ": 3094,
      "Ġê±°ê¸°": 3095,
      "ê²ĥìĿ´ëĭ¤": 3096,
      "ĠìĬ¤íĬ¸": 3097,
      "Ġì¤ĳìķĻ": 3098,
      "Ġ[": 3099,
      "Ġëª¨ëį¸": 3100,
      "im": 3101,
      "Ġìķŀìľ¼ë¡ľ": 3102,
      "Ġìĺ¤ëŀĺ": 3103,
      "ìĿ´ê¸°ëıĦ": 3104,
      "ìĦłê±°": 3105,
      "Ġì²ĺë²Į": 3106,
      "Ġì£¼ëĬĶ": 3107,
      "ëĵ¤ë§Į": 3108,
      "ëį¤": 3109,
      "ê²łëĭ¤ëĬĶ": 3110,
      "ìŀ¥ìĿĺ": 3111,
      "ĠìĿ¼ìľ¼": 3112,
      "ìł¸ìĦľ": 3113,
      "Ġ)": 3114,
      "Ġêµ´": 3115,
      "ĠìķĦëĭĺ": 3116,
      "Ġê²½íĹĺ": 3117,
      "Ġa": 3118,
      "ë¬¸ìĿĦ": 3119,
      "ì¡°ìĤ¬": 3120,
      "ĠëĤĺìĻĢ": 3121,
      "ë¦¬ê¸°": 3122,
      "ë¡±": 3123,
      "ĠìĿĳìĽĲ": 3124,
      "ìĦ±ìĿĢ": 3125,
      "Ġë°ĽëĬĶ": 3126,
      "ìĭ±": 3127,
      "ĠëŁ¬ìĭľìķĦ": 3128,
      "ĠëĤĺìĦľ": 3129,
      "Ġë²Ĺ": 3130,
      "ĠìĿ´ëŁ¬íķľ": 3131,
      "íļĮë¥¼": 3132,
      "Ġìĺ¤ëĬĺ": 3133,
      "ë¶Ģë¥¼": 3134,
      "ëĿ¼ê°Ģ": 3135,
      "áĦī": 3136,
      "ìĥĿê°ģ": 3137,
      "ĠíķŃìĥģ": 3138,
      "Ġì§ĢíĤ¤": 3139,
      "íĭ´": 3140,
      "ĠëĦĪíĿ¬": 3141,
      "Ġë©į": 3142,
      "Ġíĺ¹ìĿĢ": 3143,
      "ĠìĦ¼": 3144,
      "ê°Ķëĭ¤": 3145,
      "Ġë¬¸ìĦľ": 3146,
      "ĠìĪľê°Ħ": 3147,
      "ì¶°": 3148,
      "ëĥĲê³ł": 3149,
      "Ġ2019": 3150,
      "ì´ĪìĹĲ": 3151,
      "ĠìĦ±ëĬ¥": 3152,
      "Ġë¬´ìĹĩ": 3153,
      "Ġå": 3154,
      "ĠâĨĴ": 3155,
      "Ġëļ": 3156,
      "íĥĵ": 3157,
      "ĠêµŃë¯¼ìĿĦ": 3158,
      "ĠìĺģêµŃ": 3159,
      "Ġêµ¬ì¡°": 3160,
      "Ġ21": 3161,
      "Ġy": 3162,
      "Ġìĸ´ì©Į": 3163,
      "ĠëĮĢíķľë¯¼êµŃìĿĺ": 3164,
      "ëĮĢíķĻ": 3165,
      "ëĲ¨": 3166,
      "ëĿ¼ìĿ¸": 3167,
      "ëł¬": 3168,
      "ĠìŀĪê²Į": 3169,
      "Ġë²Įìĸ´": 3170,
      "ìĿĦëķĮ": 3171,
      "ĠìŀĲë¦¬": 3172,
      "ĠëĤ¨ìķĦ": 3173,
      "ìłķì¹ĺ": 3174,
      "ĠëıĻìĿ¼": 3175,
      "ĠìłģíıĲ": 3176,
      "ĠìĪĻ": 3177,
      "ëłĢ": 3178,
      "Ġìŀ¬ìķĻ": 3179,
      "Ġê¹ĢìłķìĿĢ": 3180,
      "ĠëĲĺì§Ģ": 3181,
      "Ġëª¬ìĬ¤íĦ°": 3182,
      "ë·Ķ": 3183,
      "ìĩĦ": 3184,
      "ìĹĪëįĺ": 3185,
      "Ġë°ĺëĵľìĭľ": 3186,
      "Ġìĭ±": 3187,
      "ìŀ¥ìľ¼ë¡ľ": 3188,
      "êµ¬ë¥¼": 3189,
      "ĠìłķíĻķ": 3190,
      "ëĨĪëĵ¤": 3191,
      "Ġì°Į": 3192,
      "ìĬ´": 3193,
      "ĠëĭĪëĵ¤ìĿ´": 3194,
      "ĠìĺģìĽħ": 3195,
      "ë¯¼ì£¼ëĭ¹": 3196,
      "ë§Ĳë¡ľ": 3197,
      "Ġê²Įëĭ¤ê°Ģ": 3198,
      "Ġìī½ê²Į": 3199,
      "ìĭľíĤ¤ëĬĶ": 3200,
      "ĠíļĮë³µ": 3201,
      "ĠìķĦë¬´ë¦¬": 3202,
      "íĹ¤": 3203,
      "ĠìĦ¤ìłķ": 3204,
      "ĠìĥĿíĻľ": 3205,
      "ĠìķĬëĭ¤": 3206,
      "êµ°ìĿ´": 3207,
      "Ġê³łëł¤": 3208,
      "Ġë§ĺ": 3209,
      "Ġëĭ¤ìĸĳ": 3210,
      "ê²ĥëĵ¤": 3211,
      "Ġì·¨ê¸ī": 3212,
      "Ġ2016": 3213,
      "Ġì¶©ë¶Ħ": 3214,
      "Ġ2017": 3215,
      "ĠíĮ¨ë°°": 3216,
      "Ġë°Ķê¿": 3217,
      "ĠíĮĲë§¤": 3218,
      "ĠíķĺìĹ¬": 3219,
      "ìĭ¬íŀĪ": 3220,
      "ĠëĲĺë©´": 3221,
      "):": 3222,
      "ë¹Ħê°Ģ": 3223,
      "ĠìĿĺê²¬": 3224,
      "ĠìµľìĨĮ": 3225,
      "íĨ¤": 3226,
      "ĠëĤĺìģľ": 3227,
      "ìļ°ìĬ¤": 3228,
      "ot": 3229,
      "ì¡°ìŀĳ": 3230,
      "ĠìĪĺê°Ģ": 3231,
      "Ġì¤ĳìļĶíķľ": 3232,
      "ĠìĥģëĮĢë¡ľ": 3233,
      "ë¦¼íĶ½": 3234,
      "ë¯¸êµŃ": 3235,
      "ĠëĤĺìĺ¬": 3236,
      "ëĵ¤ìĹĲ": 3237,
      "Ġì²ĺë¦¬": 3238,
      "ë¨¹ëĬĶ": 3239,
      "ìłģìĿĦ": 3240,
      "Ġn": 3241,
      "ìĹ¬ìĦľ": 3242,
      "Ġë³´ëĭ¤": 3243,
      "Ġì¦Ŀê±°": 3244,
      "Ġê²ģ": 3245,
      "Ġì§Ģë°©": 3246,
      "Ġì°¨ëŁī": 3247,
      "Ġê¾¸": 3248,
      "ëī´ìĬ¤": 3249,
      "ì°©ìĻľêµ¬": 3250,
      "Ġê´Ģë¦¬": 3251,
      "ëŁ¼íĶĦ": 3252,
      "Ġìĭłì²ľì§Ģ": 3253,
      "ĠìŀĪì§Ģ": 3254,
      "ĠâĢĺ": 3255,
      "Ġl": 3256,
      "Ġìĭ«ìĸ´": 3257,
      "17": 3258,
      "ê³Ħë¥¼": 3259,
      "ë²ĦìĬ¤": 3260,
      "ìĭľìĿĺ": 3261,
      "ë¦¿": 3262,
      "Ġ2020": 3263,
      "ìĿ´ìĿĺ": 3264,
      "ê·¸ëŁ°": 3265,
      "ìĽĮìĦľ": 3266,
      "íķĺìĦ¸ìļĶ": 3267,
      "Ġin": 3268,
      "ëļ": 3269,
      "ë§İìĿĢ": 3270,
      "ĠíĪ¬íĳľ": 3271,
      "ĠíĬ¹ì§ķ": 3272,
      "ë©į": 3273,
      "ĠëįĶìļ±": 3274,
      "ĠëıĦìĻĢ": 3275,
      "ëĶľ": 3276,
      "Ġë¬¸íĻĶ": 3277,
      "áĦįáĦį": 3278,
      "ë¬¸ìłľ": 3279,
      "ĠìŀĲìĭłìĿĦ": 3280,
      "ĠëĮĢê¹¨ë¬¸": 3281,
      "ëĤĺê³ł": 3282,
      "ë³´ìŀĲ": 3283,
      "ëĮĢíķľë¯¼êµŃìĿĺ": 3284,
      "íĬ¸ìĿĺ": 3285,
      "ëĳĶ": 3286,
      "ê²Ģì°°": 3287,
      "ĠáĦī": 3288,
      "ĠìķĪíĥĢ": 3289,
      "ìľĦê°Ģ": 3290,
      "äº": 3291,
      "ĠìĬĪíį¼": 3292,
      "íķĺëł¤": 3293,
      "ëĳĺ": 3294,
      "êµ¬ê°Ģ": 3295,
      "ê²ĥìĿĢ": 3296,
      "Ġêµīìŀ¥": 3297,
      "ë¹Ħë¥¼": 3298,
      "íĿ¥": 3299,
      "ĠíĹ¬": 3300,
      "Ġìį©": 3301,
      "Ġìĥ¤": 3302,
      "ĠíĬ¹ìĪĺ": 3303,
      "ĠëģĬ": 3304,
      "em": 3305,
      "ë¬¼ìĿ´": 3306,
      "íķłëķĮ": 3307,
      "ĠíļĮìĤ¬": 3308,
      "Ġë§¥": 3309,
      "Ġê¸°ëĭ¤": 3310,
      "ĠëĤĺë¨¸": 3311,
      "ĠìŀĪê¸°": 3312,
      "íĶĪ": 3313,
      "Ġëī´ìĬ¤": 3314,
      "ê°ĲìĿĦ": 3315,
      "ãģª": 3316,
      "Ġìķī": 3317,
      "ĠìłĦëĿ¼ëıĦ": 3318,
      "Ġìĥģê´Ģ": 3319,
      "ĠëĳĲê³ł": 3320,
      "Ġê¸°ëĬ¥": 3321,
      "ĠíĸĪëĬĶëį°": 3322,
      "Ġì¶ľìĭľ": 3323,
      "ĠìŀĦëªħ": 3324,
      "íŀĪëĬĶ": 3325,
      "íķłìĪĺ": 3326,
      "40": 3327,
      "Ġëĭ¨ìĪľ": 3328,
      "ëĵ¤ê³ł": 3329,
      "Ġ2015": 3330,
      "Ġê´ľì°®": 3331,
      "ëĴ¤": 3332,
      "nd": 3333,
      "Ġë¹Ľ": 3334,
      "ĠìŀĲìĦ¸": 3335,
      "Ġëįķë¶ĦìĹĲ": 3336,
      "Ġì¦Ĳ": 3337,
      "ëĿ¼ë¦¬": 3338,
      "ĠìŀĲëŀĳ": 3339,
      "ĠìĹ¼": 3340,
      "íģĲ": 3341,
      "Ġì¼ĢìĿ´": 3342,
      "ê°ĸ": 3343,
      "ĠêµŃë¯¼ìĿĺ": 3344,
      "ìłĢëŁ°": 3345,
      "ìĭłìĿ´": 3346,
      "ĠëĬĲëĤĮ": 3347,
      "ë¦¬ë¡ľ": 3348,
      "ìļ°ê³ł": 3349,
      "Ġì²ŃìĻĢëĮĢ": 3350,
      "ìĦľìļ¸": 3351,
      "ëģĮ": 3352,
      "íģ¬ë¡ľ": 3353,
      "ĠíĸĪì§Ģë§Į": 3354,
      "ëª½": 3355,
      "íķĺëĭ¤ê°Ģ": 3356,
      "ĠìķĦëĬĶ": 3357,
      "ëĭ¤ë§Į": 3358,
      "Ġì¡°ì§ģ": 3359,
      "ìĿĺë¥¼": 3360,
      "íĬ¸ëĬĶ": 3361,
      "Ġìĵ°ê³ł": 3362,
      "Ġì»´": 3363,
      "Ġêµ³": 3364,
      "Ġë¯¸ìĤ¬": 3365,
      "Ġì¡¸ìĹħ": 3366,
      "ver": 3367,
      "ë¦ĩ": 3368,
      "Ġì½ľ": 3369,
      "ëķħ": 3370,
      "ìķĦë²Ħ": 3371,
      "Ġë°¤": 3372,
      "ìĭľíĤ¤ê³ł": 3373,
      "ĠëıĦë§Ŀ": 3374,
      "Ġë²Īì§¸": 3375,
      "ĠìĭľìłĲ": 3376,
      "ë¬¸ìŀ¬ìķĻ": 3377,
      "ëĦ£": 3378,
      "íĸīìĿĦ": 3379,
      "ĠíĮ©": 3380,
      "ĠìĿ´ë¦ĦìĿĦ": 3381,
      "Ġìļ°ë¦¬ê°Ģ": 3382,
      "ìĿ´ìĹĪëįĺ": 3383,
      "ê²Ĳ": 3384,
      "ĠìĤ¬ëŀĮëĵ¤ìĿĢ": 3385,
      "Ġì¼Ģ": 3386,
      "Ġë§ŀëĬĶ": 3387,
      "Ġìĭľê°ĦìĿ´": 3388,
      "ĠìķĬìĿĦ": 3389,
      "ì§ĢìĹŃ": 3390,
      "íĦ¸": 3391,
      "Ġìĸ´ë¨¸ëĭĪ": 3392,
      "ê°Ģê³ł": 3393,
      "ĠìĦ±ìļ°": 3394,
      "Ġì§Ħìĭ¤": 3395,
      "Ġst": 3396,
      "ëĶ´": 3397,
      "ì§Ģë§Ĳê³ł": 3398,
      "ĠíĻķë¥ł": 3399,
      "Ġë´¤": 3400,
      "ë°Ķë¡ľ": 3401,
      "ĠìĹĦì²ŃëĤľ": 3402,
      "ĠìĤ¬ìĹħ": 3403,
      "Ġë¶Īêµ¬": 3404,
      "Ġì§Ħì¶ľ": 3405,
      "ĠìĽĶëĵľ": 3406,
      "Ġì¹Ń": 3407,
      "ëĤĺìĦľ": 3408,
      "Ġê·¸ëķĮ": 3409,
      "Ġë§ĪìĿĦ": 3410,
      "ĠìľłëŁ½": 3411,
      "Ġê°ĢëĬ¥íķľ": 3412,
      "Ġë¶Ħëħ¸": 3413,
      "ìĦłìĿ´": 3414,
      "ik": 3415,
      "ìĪŃ": 3416,
      "ê°Ģë¥¼": 3417,
      "ĠëħĦ": 3418,
      "ur": 3419,
      "ĠìĤ´ìĿ¸": 3420,
      "æľ": 3421,
      "ir": 3422,
      "Ġíķĺê¸°": 3423,
      "ì°¨íĶ¼": 3424,
      "ëĤ¼": 3425,
      "ĠìĹ¬ê¸°ìĦľ": 3426,
      "Ġê°Ģë©´": 3427,
      "Ġë³´ìĿ´": 3428,
      "Ġë¿Į": 3429,
      "Ġë²ķë¬´": 3430,
      "Ġìĺ¤ë¸Į": 3431,
      "Ġ196": 3432,
      "ĠìķłëĭĪë©ĶìĿ´ìħĺ": 3433,
      "ĠìĥĿê°ģíķ´": 3434,
      "ëŀĺê³¤": 3435,
      "ë¹Ļ": 3436,
      "ë¹µ": 3437,
      "ëĤ´ê°Ģ": 3438,
      "ĠìĿ¼ìĸ´ëĤĺ": 3439,
      "ĠíĿĲ": 3440,
      "Ġê¸°ëĮĢ": 3441,
      "Ġíĳ¸": 3442,
      "Ġì§ĢìĨį": 3443,
      "Ġ2014": 3444,
      "ë±": 3445,
      "Ġg": 3446,
      "êµĲìķĪ": 3447,
      "Ġë³´ìĿ´ëĬĶ": 3448,
      "ê½": 3449,
      "()": 3450,
      "Ġê¹Ķ": 3451,
      "Ġë¶ĦìľĦ": 3452,
      "åħ": 3453,
      "ìĭ¬ìĿ´": 3454,
      "ì¢ĮíĮĮ": 3455,
      "Ġìĭ¤ìłľ": 3456,
      "ë¶ĢìĹĲ": 3457,
      "ĠìļĶì¦ĺ": 3458,
      "ë¶ĢìĿĺ": 3459,
      "ëĮĵê¸Ģ": 3460,
      "Ġìķ¨ë²Ķ": 3461,
      "íĢ´": 3462,
      "íļĮìĹĲ": 3463,
      "Ġê²½ìļ°ëıĦ": 3464,
      "ê°ľíĺģ": 3465,
      "ìĪĺì²ĺ": 3466,
      "ĠìĿ´ê±°": 3467,
      "ê¹Įì§ĢëĬĶ": 3468,
      "Ġê·¸ë¦¼": 3469,
      "ë¶Ģë¡ľ": 3470,
      "Ġìĭ¬ê°ģ": 3471,
      "ĠëĤ«": 3472,
      "ĠìĬ¤íħĮ": 3473,
      "Ġë¶ĢìĤ°": 3474,
      "ĠìĿµ": 3475,
      "Ġ|": 3476,
      "Ġìłľê³µ": 3477,
      "ĠëĶ°ëĿ¼ìĦľ": 3478,
      "Ġìĭľì²Ń": 3479,
      "ĠëģĮìĸ´": 3480,
      "Ġì±Ķ": 3481,
      "14": 3482,
      "ĠíķĺìĺĢëĭ¤": 3483,
      "Ġê°ĢëĬ¥ìĦ±ìĿ´": 3484,
      "Ġê°Ķ": 3485,
      "ĠëĶ°ë¥´ë©´": 3486,
      "Ġ22": 3487,
      "ì¯¤": 3488,
      "ĠìĿ¸ìĥĿ": 3489,
      "ëħĦë¶ĢíĦ°": 3490,
      "Ġk": 3491,
      "ë¶Ģê°Ģ": 3492,
      "áĦĥ": 3493,
      "ĠìĪĺìĥģ": 3494,
      "áĦħ": 3495,
      "Ġëį°ë·Ķ": 3496,
      "ĠíĺĪ": 3497,
      "ĵ¨": 3498,
      "ìĿ¸ëĵ¤ìĿ´": 3499,
      "ĠìķĪë³´": 3500,
      "ìķĹ": 3501,
      "Ġë¶ĪëŁ¬": 3502,
      "Ġë¶Īë²ķ": 3503,
      "íķĺëĭ¤ëĬĶ": 3504,
      "od": 3505,
      "ĠáĦĮ": 3506,
      "ag": 3507,
      "ëĭĪê°Ģ": 3508,
      "Ġë§ĮëĵľëĬĶ": 3509,
      "íķ´ìķ¼ì§Ģ": 3510,
      "ĠìĿ´ìľłëĬĶ": 3511,
      "Ġë§ĲíķĺëĬĶ": 3512,
      "ëĲĺìĹĪê³ł": 3513,
      "íĸĪìľ¼ëĤĺ": 3514,
      "ì£¼ìĦ¸ìļĶ": 3515,
      "ìłķìĿĺ": 3516,
      "ĠìĤ¶": 3517,
      "Ġê²ĢìĤ¬": 3518,
      "Ġë¶Ħëªħ": 3519,
      "ĠìĤ¬ëŀĮìĿĦ": 3520,
      "ëłĪìĬ¤": 3521,
      "ìŀĲëĵ¤ìĿĢ": 3522,
      "ìłķë§Ĳ": 3523,
      "ìľ¼ë¯Ģë¡ľ": 3524,
      "Ġë²ĦìłĦ": 3525,
      "13": 3526,
      "ìĺ¨ëĭ¤": 3527,
      "ĠìĹĨìĿĦ": 3528,
      "Ġíİ¸ìĿ´ëĭ¤": 3529,
      "Ġ23": 3530,
      "ĠìķĦë²Ħì§Ģ": 3531,
      "ĠìŀĪìĹĪëįĺ": 3532,
      "Ġë°ĳ": 3533,
      "ë¬´ë¦¬": 3534,
      "Ġëĭ´ëĭ¹": 3535,
      "ĠìĤ¬ìļ©íķĺëĬĶ": 3536,
      "Ġì§ĢëıĦ": 3537,
      "ãģ¦": 3538,
      "ìĭľëĮĢ": 3539,
      "êµŃìĿ´": 3540,
      "ĠíķĺëĬĺ": 3541,
      "Ġëĭ¤ìĿ´": 3542,
      "ëł¥ìľ¼ë¡ľ": 3543,
      "Ġê±´ë¬¼": 3544,
      "Ġë³´ìĬ¤": 3545,
      "ĠìĹ¬ìłĦíŀĪ": 3546,
      "ë´Ĳìķ¼": 3547,
      "Ġìŀħìŀ¥": 3548,
      "Ġë§İìķĦ": 3549,
      "ĠíĿĺ": 3550,
      "ĠìĹ´ìĭ¬íŀĪ": 3551,
      "ĠìŀĳìĿĢ": 3552,
      "ìĽĶìĹĲ": 3553,
      "ì¹ĺë¡ľ": 3554,
      "ĠìĹĨìķł": 3555,
      "ë¦¬ê²Į": 3556,
      "ê°ľë¥¼": 3557,
      "ìĥģìĿĺ": 3558,
      "Ġì¢ħêµĲ": 3559,
      "Ġì§Ģêµ¬": 3560,
      "Ġë°ľëıĻ": 3561,
      "íĴĢ": 3562,
      "ĠìĥĿê¸´": 3563,
      "Ġë¶Ģë¥´": 3564,
      "ĠTV": 3565,
      "ëŀĢëĭ¤": 3566,
      "ĠìĻĶ": 3567,
      "Ġë°ĽìĿĦ": 3568,
      "ĠëĤĺì¤ĳìĹĲ": 3569,
      "ĠíĿ¥": 3570,
      "ëĥĪëĭ¤": 3571,
      "Ġì¥Ĳ": 3572,
      "Ġíı¬ê¸°": 3573,
      "Ġì¹ĺë£Į": 3574,
      "ĠëıĦëĮĢì²´": 3575,
      "ĠìĿ´ìľłê°Ģ": 3576,
      "ê±°ëĥĲ": 3577,
      "ĠëĶ°ë¡ľ": 3578,
      "Ġêµīìŀ¥íŀĪ": 3579,
      "ëłĪë²¨": 3580,
      "Ġê°ķëł¥íķľ": 3581,
      "ĠìŀĲìĹ°": 3582,
      "ĠíĥĲ": 3583,
      "ìĤ¬ê±´": 3584,
      "ĠíĬ¹ë³Ħ": 3585,
      "ĠíĺĦëĮĢ": 3586,
      "ĠìķĦíĶĦ": 3587,
      "ĠìĤŃ": 3588,
      ",,,": 3589,
      "Ġì¶ľìĥĿ": 3590,
      "íĶ¼ìĨĮ": 3591,
      "Ġëº": 3592,
      "Ġë°ľìĸ¸": 3593,
      "ëªħìĿĢ": 3594,
      "ĠìĿ¼ë³¸ìĿĺ": 3595,
      "ĠìłĢì§Ģ": 3596,
      "ĠìĹĨëĭ¤ê³ł": 3597,
      "ĠëĲĲ": 3598,
      "ìĦ±ìĿĺ": 3599,
      "ë¶ĦìĿ´": 3600,
      "ĠìĨĮìĦ¤": 3601,
      "ĠíĹĽ": 3602,
      "Ġ!": 3603,
      "ë§Ľ": 3604,
      "Ġëķ": 3605,
      "ëŁīìĿ´": 3606,
      "ìľ¨ìĿ´": 3607,
      "íĬľë¸Į": 3608,
      "ëĳĲê³ł": 3609,
      "ëįĺê°Ģ": 3610,
      "ĠY": 3611,
      "Ġëħ¼ëŀĢ": 3612,
      "ĠáĦĴáĦĴ": 3613,
      "Ġ2010": 3614,
      "ìĭ¬ìĿĦ": 3615,
      "Ġíŀ": 3616,
      "Ġh": 3617,
      "ĠíĶĦëŀĳìĬ¤": 3618,
      "Ġê°ĳìŀĲê¸°": 3619,
      "íķĺìĺĢê³ł": 3620,
      "ĠêµĲìĪĺ": 3621,
      "ec": 3622,
      "ë§ĪëĶĶ": 3623,
      "Ġíļį": 3624,
      "ì½ľ": 3625,
      "ĠíĶĮëłĪìĿ´ìĸ´": 3626,
      "Ġì§Ģíķĺ": 3627,
      "ĠíĻľìļ©": 3628,
      "ĠíĥĢê³ł": 3629,
      "ëĤĺìĿ´": 3630,
      "Ġê°ĲìĨĮ": 3631,
      "å®": 3632,
      "ê·¸ëŁ¼": 3633,
      "ãĢį": 3634,
      "Ġì¡°ìļ©": 3635,
      "Ġì¡°ê±´": 3636,
      "ìį": 3637,
      "Ġìĵ°ëŁ¬": 3638,
      "Ġì§Ģëĵ¤": 3639,
      "ĠëĵĿ": 3640,
      "ĠìŀĪìĬµëĭĪëĭ¤": 3641,
      "ãĥ¼": 3642,
      "Ġë¬¸ìłľëĬĶ": 3643,
      "ë§¥": 3644,
      "Ľë¶Ī": 3645,
      "Ġíķľëĭ¤ê³ł": 3646,
      "Ġë³¸ìĿ¸ìĿ´": 3647,
      "ĠìĿ´ìłł": 3648,
      "Ġë°Ķê¾¸": 3649,
      "ìļ´ëį°": 3650,
      "ĠíĴĪ": 3651,
      "ĠìĬ¤íİĺ": 3652,
      "Ġë¶ĢëģĦ": 3653,
      "Ġìķ¡": 3654,
      "ëĿ¼ë©°": 3655,
      "ì½©": 3656,
      "ë§ĮìĿĦ": 3657,
      "ĠìľłëĭĪ": 3658,
      "ì§Ĳ": 3659,
      "ìĽĢìĿ´": 3660,
      "Ġì¤ĳìĹĲ": 3661,
      "ë¦¬ìŀĲ": 3662,
      "ĠíĥĿ": 3663,
      "íķĺëł¤ê³ł": 3664,
      "Ġê³µê²©ìĿĦ": 3665,
      "íĶ¼ìĸ¸": 3666,
      "Ġíı´": 3667,
      "Ġëĭ¬ì°½": 3668,
      "ĠìĿ´ê±¸": 3669,
      "ĠëĮĢìĿĳ": 3670,
      "Ġì£½ìĿĢ": 3671,
      "Ġìĺ¬ëł¤": 3672,
      "Ġìĭľì¼ľ": 3673,
      "ìĤ¬íļĮ": 3674,
      "ì¼ĢìĿ´": 3675,
      "um": 3676,
      "Ġë©ĭ": 3677,
      "ĠëĿ¼ê³ł": 3678,
      "Ġë§Īì°¬ê°Ģì§Ģë¡ľ": 3679,
      "ìĭľë§Ī": 3680,
      "ëĲĺë©´ìĦľ": 3681,
      "íĮĮíĬ¸": 3682,
      "ìĦ¸ë¥¼": 3683,
      "Ġê³¼ìłķ": 3684,
      "Ġë´ĲëıĦ": 3685,
      "2020": 3686,
      "Ġë°©íĸ¥": 3687,
      "Ġë§ĲëıĦ": 3688,
      "ĠëĮĢíĨµëł¹ìĿ´": 3689,
      "ĠíĽĦìĹĲ": 3690,
      "Ġê°ģê°ģ": 3691,
      "ĠìŀħêµŃ": 3692,
      "Ġê³Ħìķ½": 3693,
      "Ġ28": 3694,
      "ìł¤": 3695,
      "Ġë¯¸êµŃìĿĺ": 3696,
      "ëĨį": 3697,
      "ë¥Ļ": 3698,
      "ĠìĥĿê²¼": 3699,
      "ĠíĶ¼íķ´ë¥¼": 3700,
      "ĠìĿĺìĽĲ": 3701,
      "ĠìĦ±ê²©": 3702,
      "ìĥģìĹĲ": 3703,
      "ĠìĹ°ê²°": 3704,
      "ëħķ": 3705,
      "ĠëıĪìĿĦ": 3706,
      "ëªĩ": 3707,
      "Ġë¬´ìĦľ": 3708,
      "Ġë±": 3709,
      "Ġê°ķíķľ": 3710,
      "ĠëĮĢíļĮ": 3711,
      "ì¹¼": 3712,
      "Ġë¶Īêµ¬íķĺê³ł": 3713,
      "ëĤ¨ë¶Ī": 3714,
      "Ġê³µë¬´ìĽĲ": 3715,
      "Ġì§ĢëĤľ": 3716,
      "Ġëĵ£ê³ł": 3717,
      "ĠìĿ´ê¸°": 3718,
      "Ġê¶Įëł¥": 3719,
      "ìĺģíĻĶ": 3720,
      "êµŃìĹĲ": 3721,
      "ack": 3722,
      "ìĹĪëĭ¤ê³ł": 3723,
      "ìŀĲìĻĢ": 3724,
      "Ġ26": 3725,
      "Ġìļ°ì£¼": 3726,
      "Ġìŀ¥ëĤľ": 3727,
      "2019": 3728,
      "!\"": 3729,
      "íĳ¸": 3730,
      "Ġê°ĻìĿĢëį°": 3731,
      "ĠìĮį": 3732,
      "Ġëĭ¹ìŀ¥": 3733,
      "ëĵłì§Ģ": 3734,
      "Ġê°ĸê³ł": 3735,
      "ë¡ľëĤ¨ë¶Ī": 3736,
      "ëĭ¨ì²´": 3737,
      "ë¹ĦìķĦ": 3738,
      "Ġ2013": 3739,
      "ĠëĤĺìĿ´": 3740,
      "Ġê°ľíĺģ": 3741,
      "ĠìĦ¤ë¦½": 3742,
      "ĠìłĢëłĩê²Į": 3743,
      "ĠíĿ¡": 3744,
      "áħ³áħ³": 3745,
      "ëĿ¼ìĿĺ": 3746,
      "ĠìĺĽ": 3747,
      "ìĨĮë¥¼": 3748,
      "ĠìĹĨìĸ´ìĦľ": 3749,
      "ìĽĲìĹĲ": 3750,
      "Ġ2012": 3751,
      "Ġë°ľìłĦ": 3752,
      "ìķ¼íķľëĭ¤": 3753,
      "ë°Ķë¦¬": 3754,
      "Ġì§§": 3755,
      "ë¬ĺ": 3756,
      "ì¿Ħ": 3757,
      "Ġë°Ľìķĺëĭ¤": 3758,
      "ĠìĿ´ìľłë¡ľ": 3759,
      "Ġëĵ±ìŀ¥íķĺëĬĶ": 3760,
      "ĠìĽĲìŀĳ": 3761,
      "ìĹĲê²ĮëĬĶ": 3762,
      "22": 3763,
      "ë¤": 3764,
      "2018": 3765,
      "Ġìĺģíĸ¥ìĿĦ": 3766,
      "Ġáħ": 3767,
      "Ġëĭ¬ëĿ¼": 3768,
      "Ġë§µ": 3769,
      "Ġìłľíķľ": 3770,
      "ê°ĦìĿĺ": 3771,
      "ìĿ¸ìľ¼ë¡ľ": 3772,
      "ë¡ľê°Ģ": 3773,
      "ë´ĩ": 3774,
      "Ġê°Ģê²©": 3775,
      "ĠíĺĲ": 3776,
      "Ġë¶Ģíĥģ": 3777,
      "Ġê³µë¶Ģ": 3778,
      "ë¨¼ì§Ģ": 3779,
      "íķ¨ìĿĦ": 3780,
      "ëĤĺìĺ¤": 3781,
      "ĠìłĬìĿĢ": 3782,
      "ìĭľì¼°": 3783,
      "ìĹĲë§Į": 3784,
      "ë§Īê°Ģ": 3785,
      "íı´": 3786,
      "Ġì£¼ê³ł": 3787,
      "Ġê¸°ê´Ģ": 3788,
      "ëĶĶìĸ´": 3789,
      "ĠíıŃë°ľ": 3790,
      "íĪ": 3791,
      "Ġë¬¼ìĸ´": 3792,
      "ðŁĺ": 3793,
      "Ġì£¼ìĿĺ": 3794,
      "ìĭľê°Ģ": 3795,
      "ì§Ģê¸°": 3796,
      "Ġëª©ìĪ¨": 3797,
      "Ġìĺ¤ë¥¸": 3798,
      "Ġê¸°ì¤Ģìľ¼ë¡ľ": 3799,
      "=\"": 3800,
      "Ġë¹Ħë¡¯": 3801,
      "ĠìĹĨëĭ¤ëĬĶ": 3802,
      "ĠìķĮë°Ķ": 3803,
      "ĠëĦĮ": 3804,
      "ut": 3805,
      "ãģŁ": 3806,
      "Ġ27": 3807,
      "ĠìĿ¸êµ¬": 3808,
      "ĠìĬµ": 3809,
      "íŀĺ": 3810,
      "ì§±": 3811,
      "ìĭłìĿĦ": 3812,
      "ĠëĤ©": 3813,
      "Ġë°°ê²½": 3814,
      "íķĻëħĦ": 3815,
      "ê»´": 3816,
      "ĠìĤ¬ìĭ¤ìĿĦ": 3817,
      "ĠíĬ¹ìĦ±": 3818,
      "ìĿ¸ë¬¼": 3819,
      "ìłķìľ¼ë¡ľ": 3820,
      "Ġì°¸ì¡°": 3821,
      "ìĬ¤ëŁ¬ìļ´": 3822,
      "ë°ĽëĬĶ": 3823,
      "Ġê´ĳì£¼": 3824,
      "ff": 3825,
      "Ġê²ĥìĹĲ": 3826,
      "Ġæ": 3827,
      "Ġìĺ·": 3828,
      "ë¡ľë¶ĢíĦ°": 3829,
      "ìĤ¬ìĹĲ": 3830,
      "ë¦¬ë©°": 3831,
      "Ġë®¤": 3832,
      "ëŀŃ": 3833,
      "Ġì²Ļ": 3834,
      "ĠìĹŃíķłìĿĦ": 3835,
      "ĠìĦłë°ľ": 3836,
      "Ġë¹ĦëĤľ": 3837,
      "ĠëĬ¦": 3838,
      "ĠìĥģìĬ¹": 3839,
      "ëĳĳ": 3840,
      "ĠìĮĵ": 3841,
      "Ġyou": 3842,
      "ëıĻìĤ°": 3843,
      "ĠíķĦìļĶíķľ": 3844,
      "Ġëħ¸ìĦł": 3845,
      "ĠëıĻë£Į": 3846,
      "ìĭľìĺ¤": 3847,
      "íĥĳ": 3848,
      "ê°±": 3849,
      "ì¤Į": 3850,
      "ĠìĪĺë¡Ŀ": 3851,
      "ìłĦìŁģ": 3852,
      "Ġë¬´ëĦĪ": 3853,
      "ê²Ł": 3854,
      "ìľ¼ëĭĪê¹Į": 3855,
      "Ġê°Ģë§Į": 3856,
      "Ġ60": 3857,
      "íĭ°ë¸Į": 3858,
      "Ġëª¨ë¥´ê³ł": 3859,
      "ëĲĺë©°": 3860,
      "ĠìĹĲíĶ¼ìĨĮ": 3861,
      "ë§ĪìłĢ": 3862,
      "ĠìĤ¬íĥľ": 3863,
      "Ġìľłë¦¬": 3864,
      "Ġë¹łìł¸": 3865,
      "ĠìĦ±ìŀ¥": 3866,
      "ìĥģìĿĢ": 3867,
      "ë¯¹": 3868,
      "ë©ĺ": 3869,
      "ê²¹": 3870,
      "Ġë°Ķë³´": 3871,
      "Ġìĭ¶ìĿĢ": 3872,
      "Ġìłķë¶Ģê°Ģ": 3873,
      "ë¹ĦìĬ¤": 3874,
      "ëį´": 3875,
      "Ġê·¸ë¥¼": 3876,
      "ë¿": 3877,
      "ĠìķĮìķĺ": 3878,
      "ëªħë°ķ": 3879,
      "Ġìĺ®": 3880,
      "ĠíĻĺê²½": 3881,
      "íĥĪë¦¬ìķĦ": 3882,
      "ì§Ģë§Ī": 3883,
      "ê¸°ê´Ģ": 3884,
      "Ġ=": 3885,
      "íķĺëĿ¼ê³ł": 3886,
      "ê°ĢìĿĺ": 3887,
      "Ġë²ĦìĬ¤": 3888,
      "op": 3889,
      "ĠìĦ¸ìĽĶíĺ¸": 3890,
      "ëĺ¥": 3891,
      "ìĹħìĿĦ": 3892,
      "Ġê°ľëħĲ": 3893,
      "Ġì´Īê¸°": 3894,
      "íĮ©": 3895,
      "ê·¼ëį°": 3896,
      "ĠìŀĪëĭ¤ë©´": 3897,
      "íķľëĭ¤ë©´": 3898,
      "Ġëı¼": 3899,
      "ĠëĤ®ìĿĢ": 3900,
      "ê°ľìĽĶ": 3901,
      "ĠìĤ¬íĺķ": 3902,
      "Ġë¯¼ì¡±": 3903,
      "ìĥĿíĻľ": 3904,
      "ì¥Ĳ": 3905,
      "âĢĿ": 3906,
      "ìĺĢê³ł": 3907,
      "ĠëıĮìķĦê°Ģ": 3908,
      "Ġì§Ģê¸ĪìĿĢ": 3909,
      "ĠìĤ¬ìļ©íķł": 3910,
      "//": 3911,
      "Ġì±ĶíĶ¼ìĸ¸": 3912,
      "ĠìŀĬ": 3913,
      "ìŀī": 3914,
      "ĠìŀĪëĤĺ": 3915,
      "ë¦¬ìĻĢ": 3916,
      "Ġì°¸ê³ł": 3917,
      "ĠëĤľë¦¬": 3918,
      "ë¯¸ê°Ģ": 3919,
      "yle": 3920,
      "Ġëĭ¬ëł¤": 3921,
      "ìĦ¸ëĮĢ": 3922,
      "ĠíķĺìĿ´": 3923,
      "2017": 3924,
      "Ġëª°ìķĦ": 3925,
      "ĠëĬĲëģ¼": 3926,
      "ê°Ģì¡±": 3927,
      "ìĭľë¥¼": 3928,
      "íĶĮëłĪìĿ´": 3929,
      "TV": 3930,
      "Ġë¶ĪìĮį": 3931,
      "ĠíĸĪëįĺ": 3932,
      "ĠìĹ°ê¸°": 3933,
      "Ġë§ĲìķĦ": 3934,
      "Ġìłķìŀĳ": 3935,
      "ak": 3936,
      "Ġìµľìķħ": 3937,
      "Ġê²½ìŁģ": 3938,
      "Ġìĺ¬ë¦¼íĶ½": 3939,
      "Ġëľ¨": 3940,
      "ëĭĺìĿ´": 3941,
      "Ġì¡°íķ©": 3942,
      "ëĭ¤ìļ´": 3943,
      "Ġê°Ģë¥´": 3944,
      "ìĪĺì¤Ģ": 3945,
      "ê·¸ëŁ¬ëĤĺ": 3946,
      "(...).": 3947,
      "ë¬´ë¥¼": 3948,
      "Ġë³Ħë¡ľ": 3949,
      "ĠìķĦë¥´": 3950,
      "ine": 3951,
      "íķľê²Į": 3952,
      "Ġìĭ¸ìļ°": 3953,
      "ìĤ¬ìĻĢ": 3954,
      "os": 3955,
      "ĠìŀĲìĤ´": 3956,
      "Ġê·¸ê°Ģ": 3957,
      "Ġv": 3958,
      "ĠíıīíĻĶ": 3959,
      "Ġê·¸ìłĢ": 3960,
      "Ġíŀĺëĵł": 3961,
      "Ġë©ĶìĿ´": 3962,
      "ĠëĤĺë¨¸ì§Ģ": 3963,
      "Ġëħ¸ëıĻ": 3964,
      "ĠìĿ´ëŀĺ": 3965,
      "Ġëĭ¤ìĸĳíķľ": 3966,
      "Ġëħ¸ëł¥": 3967,
      "ĠìĿ´ë²¤íĬ¸": 3968,
      "Ġê±°ì§Ģ": 3969,
      "ê°ĲìĿ´": 3970,
      "ĠëģĿê¹Įì§Ģ": 3971,
      "ê´Ģê³Ħ": 3972,
      "ìĭľë¡ľ": 3973,
      "ìĦ¸ë¨¼ì§Ģ": 3974,
      "ĠìĿ¸íĦ°ë·°": 3975,
      "Ġë§Įìķ½": 3976,
      "ê²½ì°°": 3977,
      "Ġì¶Ķìłķ": 3978,
      "ĠìĿ¼ë³¸ìĿ´": 3979,
      "Ġì°¸ê³łë¡ľ": 3980,
      "ĠíĨµíķ©": 3981,
      "ëĤĺëıĦ": 3982,
      "Ġì§Ħë³´": 3983,
      "ĠìĦľë¯¼": 3984,
      "60": 3985,
      "ĠìŀĪëĦ¤": 3986,
      "Ġëĸ¨": 3987,
      "áĦĮ": 3988,
      "ìĽĲìľ¼ë¡ľ": 3989,
      "ëĮĢê°Ģë¦¬": 3990,
      "ê¸°ìĻĢ": 3991,
      "ëĥĪ": 3992,
      "Ġë§Ĳíķľëĭ¤": 3993,
      "ìŀĲíķľëĭ¹": 3994,
      "ëĲĲëĭ¤": 3995,
      "ê¸ĪìĿĦ": 3996,
      "ĠìĹŃëĮĢ": 3997,
      "Ġê·¸ëŁ´": 3998,
      "ëŀ«": 3999,
      "ì£¼ë©´": 4000,
      "Ġêµ°ìĤ¬": 4001,
      "ĠíļįëĵĿ": 4002,
      "ë®¤": 4003,
      "ĠìĹ¬íĸī": 4004,
      "ê²ĥëĵ¤ìĿ´": 4005,
      "ë¡ľë¥¼": 4006,
      "Ġì¢ħë£Į": 4007,
      "ĠíĮ¨íĦ´": 4008,
      "Ġë¬¼ê±´": 4009,
      "ĠìķĪìłĦ": 4010,
      "2016": 4011,
      "Ġìķħë§Ī": 4012,
      "ĠëĦĵ": 4013,
      "ation": 4014,
      "Ġë¶ĢíĻľ": 4015,
      "ëłĪìĿ´ëĵľ": 4016,
      "ìĿ¼ìĿĢ": 4017,
      "ĠìĤ´ê³ł": 4018,
      "Ġíķĺê²Į": 4019,
      "ìĦľë¥¼": 4020,
      "ìĤ¬ìĿ´": 4021,
      "ĠìĺĪìłķ": 4022,
      "ĠêµŃíļĮ": 4023,
      "ë§ĲìĿ´": 4024,
      "ìĦ¸ê°Ģ": 4025,
      "ì¹´ìĿ´": 4026,
      "ë°ĽìĿĢ": 4027,
      "Ġ&": 4028,
      "ëĦ¤ê°Ģ": 4029,
      "ë¬¸ìĿ´": 4030,
      "ì§ĦìĿ´": 4031,
      "ĠëĪĦêµ°": 4032,
      "ĠëĤ¨íİ¸": 4033,
      "ĠìĥĿê°ģìĿ´": 4034,
      "ap": 4035,
      "ìĪľìĭ¤": 4036,
      "ë§Įìľ¼ë¡ľ": 4037,
      "ëıĦìĹĲ": 4038,
      "íİĻ": 4039,
      "Ġë°´": 4040,
      "197": 4041,
      "ìĿ´íĮħ": 4042,
      "Ġì¢ĭìķĦíķĺëĬĶ": 4043,
      "Ġë»": 4044,
      "ê³µê²©": 4045,
      "ëĵ¤íķľíħĮ": 4046,
      "ĠìĿ´ìļ©íķ´": 4047,
      "ëĶ¸": 4048,
      "ĠìĿ¸ê°ĦìĿ´": 4049,
      "Ġì§Ĳ": 4050,
      "ìŀĲìľł": 4051,
      "Ġë³Ģíĺ¸": 4052,
      ".(": 4053,
      "ĠíĿ¬ìĥĿ": 4054,
      "ĠíĨłì°©ìĻľêµ¬": 4055,
      "Ġ2000": 4056,
      "ëĭ¨ìĿ´": 4057,
      "Ġëĵľëŀĺê³¤": 4058,
      "km": 4059,
      "ì£¼ë¡ľ": 4060,
      "Ġì£¼ìļĶ": 4061,
      "ëħĦìĹĲëĬĶ": 4062,
      "ëĭ¨ìĿĺ": 4063,
      "Ġìłķëĭ¹": 4064,
      "ĠìłĦêµŃ": 4065,
      "ê²½ìĽĲ": 4066,
      "ë¶ĢëĬĶ": 4067,
      "Ġê°ĲìĤ¬": 4068,
      "ĠíħĶ": 4069,
      "ĠíĶĦëłĪ": 4070,
      "ìĭľìŀ¥": 4071,
      "íĶĦë¥¼": 4072,
      "ìĤ´ìķĦ": 4073,
      "Ġíķľëĭ¤ëĬĶ": 4074,
      "Ġìļ°ìĦł": 4075,
      "ĠìĺĪìĥģ": 4076,
      "íĺĶëĭ¤": 4077,
      "Ġíİ¼": 4078,
      "ê³łë¥¼": 4079,
      "áĦĩ": 4080,
      "íĬ¸ëĤ¨": 4081,
      "ĠìķĪëĲľëĭ¤": 4082,
      "Ġê²ª": 4083,
      "ëĭ¨ìĿĦ": 4084,
      "íĭ±": 4085,
      "íĥĢë¥¼": 4086,
      "ĠìľĦìĹĲ": 4087,
      "ìľĪ": 4088,
      "ìłĦìĿĺ": 4089,
      "ĠëĤĺìĻĶëĭ¤": 4090,
      "ĠìĨĮìŀ¬": 4091,
      "ĠìłĲìłĲ": 4092,
      "áĦĢ": 4093,
      "ëĿ¼ìļ´ëĵľ": 4094,
      "ìĹ¬ìŀĲ": 4095,
      "Ġì¹ľìĿ¼íĮĮ": 4096,
      "Ġê³łíĨµ": 4097,
      "Ġê°ģì¢ħ": 4098,
      "Ġìŀĩ": 4099,
      "ĠìĹ°ìĨį": 4100,
      "Ġë°ĶëĿ¼": 4101,
      "íķĻê³¼": 4102,
      "Ġand": 4103,
      "ìī½": 4104,
      "ìĭłìĿĺ": 4105,
      "íķ´ë³´": 4106,
      "Ġë°ľìĤ¬": 4107,
      "Ġ2011": 4108,
      "ĠìĭľëıĦ": 4109,
      "ĠëıĻë¬¼": 4110,
      "¥¬": 4111,
      "Ġê°ĲìĹ¼": 4112,
      "ìķĦëĭĮ": 4113,
      "ĠìłľíĴĪ": 4114,
      "Ġë¸ĶëŀĻ": 4115,
      "Ġê°¤": 4116,
      "ëĵ¤ìĿ´ëĭ¤": 4117,
      "Ġë§ĪëĿ¼": 4118,
      "Ġëĺĳê°Ļ": 4119,
      "Ġë²¨": 4120,
      "Ġêµ¬ê°Ħ": 4121,
      "Ġë§¹": 4122,
      "ĠìĿ´ëģĮ": 4123,
      "ĠìĥģíĻ©ìĹĲìĦľ": 4124,
      "Ġë©¸": 4125,
      "ë¬¸íĻĶ": 4126,
      "Ġëĵ±ìŀ¥íķľëĭ¤": 4127,
      "Ġëĭ¤ëĵ¤": 4128,
      "ĠìĹī": 4129,
      "ĠìĪĺë¹Ħ": 4130,
      "Ġìĭ¶ëĭ¤": 4131,
      "ul": 4132,
      "ë»": 4133,
      "ìķĦì§ģ": 4134,
      "Ġìµľê·¼": 4135,
      "ĠëĤĺëıĦ": 4136,
      "Ġ70": 4137,
      "Ġ29": 4138,
      "Ġë¯¼ì£¼ì£¼ìĿĺ": 4139,
      "ëĺĲíķľ": 4140,
      "ëħĦìĿ´": 4141,
      "ê±°ëĵł": 4142,
      "Ġë¹Ħíĸī": 4143,
      "ãģĹ": 4144,
      "ìłľë°ľ": 4145,
      "Ġìłľëª©": 4146,
      "Ġë³´ìľł": 4147,
      "íĮ¬": 4148,
      "ì£¼ë¥¼": 4149,
      "ĠìĥĿê°ģíķĺëĬĶ": 4150,
      "Ġê±´ìĦ¤": 4151,
      "ĠìĿ¸íĦ°ëĦ·": 4152,
      "Ġë¸ĮëĿ¼": 4153,
      "Ġê·¸ë£¹": 4154,
      "ĠìĥģíĻ©ìĿ´": 4155,
      "Ġë°©ìĺģ": 4156,
      "ë¬´íĺĦ": 4157,
      "Ġëį¤": 4158,
      "ì§ĢìĽĲ": 4159,
      "íķĢ": 4160,
      "ĠSt": 4161,
      "ìª½ìľ¼ë¡ľ": 4162,
      "ì§ĪìĿ´": 4163,
      "?)": 4164,
      "ĠëĿ¼ìĿ¸": 4165,
      "Ġì§ĢëŀĦ": 4166,
      "ìĿ´ê±´": 4167,
      "ĠìĽ¨": 4168,
      "Ġìŀ¥ë¹Ħ": 4169,
      "Ġë©įì²Ń": 4170,
      "ë²ķìĿĦ": 4171,
      "ìĹ¬ê¸°": 4172,
      "ĠëĬĺìĸ´": 4173,
      "Ġì¤ĺ": 4174,
      "ìĽĲìĹĲìĦľ": 4175,
      "ë°ĽìķĦ": 4176,
      "ìľ¼ë¡ľìį¨": 4177,
      "Ġëįľ": 4178,
      "Ġëĭ¨ì²´": 4179,
      "Ġëĵł": 4180,
      "Ġìĸ´ì©Ķ": 4181,
      "Ġìĺ¨ê°ĸ": 4182,
      "Ġê¸°ê°Ħ": 4183,
      "Ġì£¼ë¯¼": 4184,
      "ê±°ëĿ¼": 4185,
      "ê·¸ëŀĺìĦľ": 4186,
      "ê¸°ë§Į": 4187,
      "Ġê³łìĥĿ": 4188,
      "Ġëª©íĳľ": 4189,
      "ĠìĹĳ": 4190,
      "Ġto": 4191,
      "ĠìĿ¼ìĸ´": 4192,
      "ĠìĭľëĮĢ": 4193,
      "Ġì¢ĭì§Ģ": 4194,
      "Ġíĸīìłķ": 4195,
      "Ġë§Įëĵ¤ê³ł": 4196,
      "Ġëª¨ìĬµìĿ´": 4197,
      "ë²Ķì£Ħ": 4198,
      "ight": 4199,
      "Ġë¶ĪìķĪ": 4200,
      "ëĿ¼ìĬ¤": 4201,
      "ĠíĬ¸ëŁ¼íĶĦ": 4202,
      "Ġë°Ķê¿Ķ": 4203,
      "ê»ı": 4204,
      "ĠìĹĨëĬĶëį°": 4205,
      "ĠìĿ¼ë²ł": 4206,
      "ìłľìĹĲ": 4207,
      "Ġëı¼ì§Ģ": 4208,
      "Ġ194": 4209,
      "ë¶ĢëĮĢ": 4210,
      "Ġì¶ľìłĦ": 4211,
      "Ġê¶ģê¸Ī": 4212,
      "æĿ": 4213,
      "ë²Ħë¦°": 4214,
      "ë¦¬íĭ°": 4215,
      "ëĵ¬": 4216,
      "ë¹Ľ": 4217,
      "ë¡Ńê²Į": 4218,
      "Ġ80": 4219,
      "ëį°ìĿ´íĬ¸": 4220,
      "oc": 4221,
      "ìłĲìľ¼ë¡ľ": 4222,
      "ĠëĮ": 4223,
      "ĠìĭľíĹĺ": 4224,
      "ìľłìĿĺ": 4225,
      "ĠíķŃê³µ": 4226,
      "ìĪĺíķľ": 4227,
      "ìľĦëĬĶ": 4228,
      "ĠìĤ¬íĩ´": 4229,
      "íķĺëŁ¬": 4230,
      "Ġê¸Īì§Ģ": 4231,
      "ĠëįĶëŁ¬ìļ´": 4232,
      "ìłķíĿ¬": 4233,
      "ĠëĴ¤ìĹĲ": 4234,
      "ĠìķĬê²Į": 4235,
      "ĠìĭŃ": 4236,
      "Ġëĭ¤íĸī": 4237,
      "Ġë§¤êµŃ": 4238,
      "ĺìĬ¤íĬ¸": 4239,
      "Ġìķłì´ĪìĹĲ": 4240,
      "ì°¨ê°Ģ": 4241,
      "íĤ¤ëĬĶ": 4242,
      "ìĿ´ìĻĢ": 4243,
      "ĠëĤ³": 4244,
      "Ġì¤Ħìĸ´": 4245,
      "Ġê²½ìļ°ëĬĶ": 4246,
      "Ġë²½": 4247,
      "ìĦ¸ê¸Ī": 4248,
      "Ġìłķìĭłì°¨": 4249,
      "ĠëĲĺëĬĶëį°": 4250,
      "Ġë°ĶìĿ´": 4251,
      "ëł¤ìķ¼": 4252,
      "ëĭ´ìľ¼ë¡ľ": 4253,
      "ë¸Ĳ": 4254,
      "íŀĲ": 4255,
      "¬ìĺģ": 4256,
      "Ġëį®": 4257,
      "ëĤĺìĿĺ": 4258,
      "Ġìĸ´ëĶĶìĦľ": 4259,
      "ìĿ´ë²Ī": 4260,
      "ìĿ´ì¦Ī": 4261,
      "ĠëĨĴëĭ¤": 4262,
      "Ġëĭ¤ìĿĮê³¼": 4263,
      "ê³łëĵ±íķĻêµĲ": 4264,
      "ëķĮëĬĶ": 4265,
      "ëį©": 4266,
      "íĵ¨": 4267,
      "Ġë°ĸ": 4268,
      "ri": 4269,
      "ĠìĹ°ìĺĪ": 4270,
      "ĠìĿĺìĭ¬": 4271,
      "íķľêµŃëĭ¹": 4272,
      "ë¥´íģ¬": 4273,
      "ĠìĥĿì¡´": 4274,
      "Ġìķ¼êµ¬": 4275,
      "ĠëŃĶê°Ģ": 4276,
      "Ġìĺ¥": 4277,
      "ì§ģíŀĪ": 4278,
      "ê¸°ìĪł": 4279,
      "ì§ĪìĿĦ": 4280,
      "ê´ĢìĿ´": 4281,
      "ĠíŀĪë¡ľ": 4282,
      "Ġëª¨ìŀĲ": 4283,
      "ĠìłľêµŃ": 4284,
      "ĠìķĮê²Į": 4285,
      "íİľ": 4286,
      "Ġì§ģìĹħ": 4287,
      "Ġê·¸ê²ĥëıĦ": 4288,
      "Ġë¬´ìĭĿ": 4289,
      "ëª¨ê°Ģ": 4290,
      "ì£¼ê°Ģ": 4291,
      "ãģ«": 4292,
      "ĠëĤ¨ìĿĢ": 4293,
      "ë¨¹ìĿĦ": 4294,
      "Ġëĭ¤ë¥´ê²Į": 4295,
      "ê°ľê°Ģ": 4296,
      "ĠìłĦìļ©": 4297,
      "2015": 4298,
      "Ġê³¼íķĻ": 4299,
      "ìĸ´ìķ¼ì§Ģ": 4300,
      "ìĿĮìĹĲëıĦ": 4301,
      "ë³µìĿĦ": 4302,
      "Ġëĭ¥": 4303,
      "ìĥģëıĦ": 4304,
      "Ġëªħëł¹": 4305,
      "ĠëĮĢìłĦ": 4306,
      "ãĤĭ": 4307,
      "ĠìłģìĿĢ": 4308,
      "Ġìĭ¬íĮĲ": 4309,
      "ĠìŀĲë£Į": 4310,
      "Ġë¶Īë§¤": 4311,
      "Ġìŀĳì¤ĳ": 4312,
      "Ġíģ¬ë¡ľ": 4313,
      "ĠëĪĪì¹ĺ": 4314,
      "Ġë¥ĺ": 4315,
      "ê³µìĤ°": 4316,
      "Ġê·¸ëŀ¬": 4317,
      "ĠìľłíĬľë¸Į": 4318,
      "ìĿĮìĿ´": 4319,
      "Ġëĭ¬ìĦ±": 4320,
      "ĠëĮĢë¶Ģë¶ĦìĿĺ": 4321,
      "ì§Ģë§ĪëĿ¼": 4322,
      "Ġìµľê³łìĿĺ": 4323,
      "Ġê²ĥê³¼": 4324,
      "ì¡¸": 4325,
      "ĠíıīìĥĿ": 4326,
      "íĺ¸ë¥¼": 4327,
      "ê°Ģë©´": 4328,
      "ëĭ¬ëĿ¼ê³ł": 4329,
      "ì¢ħìĿĺ": 4330,
      "Ġì´Ľë¶Ī": 4331,
      "ìĵ¸": 4332,
      "Ġê³µìĪĺì²ĺ": 4333,
      "ìłķìĹĲ": 4334,
      "ë³´ëĦ¤": 4335,
      "Ġì§ĳì¤ĳ": 4336,
      "Ġê²¸": 4337,
      "ëĨĵìĿĢ": 4338,
      "ĠìĿ´ìĥģìĿĺ": 4339,
      "ë¦¬ìĬ¤íĬ¸": 4340,
      "ìķ¼ë§Ī": 4341,
      "Ġë¶ĢíĦ°": 4342,
      "ìĿį": 4343,
      "īìĿĢ": 4344,
      "ê¹ĮìļĶ": 4345,
      "Ġìĸ´ì°¨íĶ¼": 4346,
      "Ġë¬¼ë¦¬": 4347,
      "ĠìĬ¤íĨłë¦¬": 4348,
      "ĠëıĮëł¤": 4349,
      "êµ°ìĿĦ": 4350,
      "ìŀĲëĤĺ": 4351,
      "ìĸ¸ë¡ł": 4352,
      "ĠëĮĢëĨĵê³ł": 4353,
      "ĠìķĪíķĺê³ł": 4354,
      "ĠìķĪìłķ": 4355,
      "Ġë²ĪìĹŃ": 4356,
      "Ġì²´ëł¥": 4357,
      "ìĦĿìĹ´": 4358,
      "ë¬¼ë¡ł": 4359,
      "ìķĦì¹ĺ": 4360,
      "ĠíķŃëª©": 4361,
      ".#": 4362,
      "ìĨĮê°Ģ": 4363,
      "ë¬µ": 4364,
      "ëĲĺê¸°": 4365,
      "Ġìĸ»ìĿĦ": 4366,
      "Ġìļ´íĸī": 4367,
      "ë¨¸ë¦¬": 4368,
      "ĠìĿĮë°ĺ": 4369,
      "Ġëĺĳê°ĻìĿĢ": 4370,
      "ëıĻìĿĦ": 4371,
      "Ġìłķì¹ĺìĿ¸": 4372,
      "ëĿ¼ì§Ģ": 4373,
      "ìĿ¸íĬ¸": 4374,
      "Ġì²łëıĦ": 4375,
      "ĠìłķëıĦìĿĺ": 4376,
      "ĠìķĦëĤĺ": 4377,
      "Ġê°Ĳìĺ¥": 4378,
      "ĠìĿĺë£Į": 4379,
      "ë§ĪìŀĲ": 4380,
      "Ġê½ĥ": 4381,
      "ĠìłģìĿĦ": 4382,
      "íĺ¸ê°Ģ": 4383,
      "íĺĦìŀ¬": 4384,
      "ĠëĵĢ": 4385,
      "Ġìıĺ": 4386,
      "ĠíķĺëĦ¤": 4387,
      "ĠíħĶëłĪ": 4388,
      "ĠëĦ¤ìĿ´ë²Ħ": 4389,
      "Ġêµ³ìĿ´": 4390,
      "Ġê·¸ëıĻìķĪ": 4391,
      "ab": 4392,
      "ëĤĺë©´": 4393,
      "ĠíĬĢ": 4394,
      "ìĨĮëħĦ": 4395,
      "ìĬ¤ìĹĲ": 4396,
      "êµ°ìĿĢ": 4397,
      "ĠìĪĺëĬĶ": 4398,
      "íķ´ì§Ħ": 4399,
      "ê°ĢëĿ½": 4400,
      "ĠìĿ¸ê¶Į": 4401,
      "ĠìĿĺìĤ¬": 4402,
      "ìĦĿìĿ´": 4403,
      "ëģĿ": 4404,
      "ĠìĹĦë§Ī": 4405,
      "ì§ĦìĿĦ": 4406,
      "ë¹ĦìłĦ": 4407,
      "ĠìķĦëĭĲ": 4408,
      "ìĬ¤íħĮ": 4409,
      "ëĶĺ": 4410,
      "ĠìĭĿìľ¼ë¡ľ": 4411,
      "Ġê¸°ëłĪê¸°": 4412,
      "ĠìķĬìľ¼ë©´": 4413,
      "ĠìĤ¬íļĮì£¼ìĿĺ": 4414,
      "ĠêµĲì²´": 4415,
      "Ġë°ĺë©´": 4416,
      "Ġì§Ģíľĺ": 4417,
      "ce": 4418,
      "ĠìłľìĻ¸íķľ": 4419,
      "ĠìĹĲëĦĪ": 4420,
      "ĠíĽĪëł¨": 4421,
      "ëĬĶê±°ì§Ģ": 4422,
      "Ġë°©ìĭĿ": 4423,
      "¾Į": 4424,
      "Ġê±°ë¶Ģ": 4425,
      "ìķĦì£¼": 4426,
      "åŃ": 4427,
      "ìŀĲê³ł": 4428,
      "ĠìŀĪëĥĲ": 4429,
      "Ġê³µìĤ°ëĭ¹": 4430,
      "ì©Ŀ": 4431,
      "Ġìľ¼": 4432,
      "?\"": 4433,
      "ìŀĲëıĦ": 4434,
      "Ġíģ¬ë¦¬ìĬ¤": 4435,
      "ë°©ìĹĲ": 4436,
      "âĺħ": 4437,
      "ER": 4438,
      "ĠìĬ¤íĥ": 4439,
      "Ġìĸ´ëł¤ìļ´": 4440,
      "ĠThe": 4441,
      "Ġëĸ¡": 4442,
      "Ġëª»íĸĪëĭ¤": 4443,
      "ĠíķĺëĭĪ": 4444,
      "ĠKBS": 4445,
      "íļĮê°Ģ": 4446,
      "ëĿ¼ë¥¼": 4447,
      "ĠëĦĲ": 4448,
      "ê¹Ŀëĭ¤": 4449,
      "ì°¨ë¥¼": 4450,
      "ĠìħĪ": 4451,
      "ì³ĲìĦľ": 4452,
      "íı¬ì¸ł": 4453,
      "Ġê±´ê°ķ": 4454,
      "ĠìĨĮë¹Ħ": 4455,
      "ĠíĥĪì¶ľ": 4456,
      "ĠìĦłìĥĿ": 4457,
      "Ġê°ĢìĪĺ": 4458,
      "ìĬ¤íĨł": 4459,
      "Ġìĭ¸ìĽĢ": 4460,
      "Ġë§ĲìĹĲ": 4461,
      "ĠìĿ¸ìĤ¬": 4462,
      "Ġëª½": 4463,
      "ĠëĮĢë¯¸": 4464,
      "ëıħêµĲ": 4465,
      "ê·¸ëŀĺëıĦ": 4466,
      "ìĦłìĿĺ": 4467,
      "íĻĶêµŃ": 4468,
      "ì¡°ê°Ģ": 4469,
      "Ġì§Ģìłķ": 4470,
      "ĠìĹħëį°ìĿ´íĬ¸": 4471,
      "ë£¬": 4472,
      "íķ´ìļĶ": 4473,
      "ĠíĬ¹ìłķ": 4474,
      "Ġì¶©ë¶ĦíŀĪ": 4475,
      "ìłĢíŀĪ": 4476,
      "Ġì§Ģì§Ģìľ¨": 4477,
      "ĠíıĲì§Ģ": 4478,
      "ĠìķŀìĹĲ": 4479,
      "íĶĦëłĪ": 4480,
      "Ġëŀľ": 4481,
      "ëĲĺìĹĪìľ¼ë©°": 4482,
      "ĠëĬ¥ëł¥ìĿĦ": 4483,
      "ĠìĽĶê¸ī": 4484,
      "ath": 4485,
      "ìŀĩ": 4486,
      "ãģ£": 4487,
      "Ġë¹łë¥¸": 4488,
      "ìłģìĿĢ": 4489,
      "ĠíĨµê³¼": 4490,
      "Ġê³µëıĻ": 4491,
      "Ġ90": 4492,
      "Ġê¹ľ": 4493,
      "ĠìĿ´ìĥģíķľ": 4494,
      "Ġë¬¸ì£Ħ": 4495,
      "ĠëĤĺë¦Ħ": 4496,
      "Ġíķĺëįĺ": 4497,
      "'s": 4498,
      "ìļ©ìĿ´": 4499,
      "ìĿ¸ê³¼": 4500,
      "Ġê³µìĹ°": 4501,
      "Ġíĺľ": 4502,
      "all": 4503,
      "ëķĲ": 4504,
      "ìĬ¤íĭ°": 4505,
      "ë¹¨ê°±ìĿ´": 4506,
      "Ġ2009": 4507,
      "Ġ2008": 4508,
      "Ġìķłëĵ¤": 4509,
      "ĠìĹ°ì¶ľ": 4510,
      "ìĦ±ìĹĲ": 4511,
      "Ġêµ°ëĮĢ": 4512,
      "ë¯¸êµŃìĿĺ": 4513,
      "Ġê³µìĤ°ì£¼ìĿĺ": 4514,
      "ìĤ¬ê³ł": 4515,
      "ì¤ĺìķ¼": 4516,
      "Ġìĺ¹": 4517,
      "ĠìķĪìĹĲ": 4518,
      "ê²°êµŃ": 4519,
      "ĠíĮĮìĽĮ": 4520,
      "Ġëĥī": 4521,
      "Ġì°¨ëĿ¼ë¦¬": 4522,
      "Ġìłķë¦¬": 4523,
      "ìķĦìļĶ": 4524,
      "Ġëĵ±ìľ¼ë¡ľ": 4525,
      "Ġë¹ħ": 4526,
      "Ġíģ´ë¦¬ìĸ´": 4527,
      "Ġìĭ¹": 4528,
      "ĠëĿ¼ëĬĶ": 4529,
      "Ġëª¨ëĵľ": 4530,
      "ĠìĿĺíĺ¹": 4531,
      "ST": 4532,
      "24": 4533,
      "ĠíķĺëĬĶê±°": 4534,
      "Ġëĺĳê°ĻìĿ´": 4535,
      "ìħľ": 4536,
      "ì§Ģìħĺ": 4537,
      "ĠëĸłëĤĺ": 4538,
      "ë¦¬ëĤĺ": 4539,
      "íĿĲ": 4540,
      "Ġì¹ł": 4541,
      "Ġë¯¿ê³ł": 4542,
      "Ġë°ĺìĿ¼": 4543,
      "ĠëĿĦ": 4544,
      "Ġì¶Ķì²ľ": 4545,
      "Ġê·¼ì²ĺ": 4546,
      "ĠíĻķì§Ħ": 4547,
      "Ġì£½ìĿĦ": 4548,
      "íİĺìĿ´ì§Ģ": 4549,
      "ë¯¼ì£¼ì£¼ìĿĺ": 4550,
      "Ġì°¨ìĿ´ê°Ģ": 4551,
      "Ġë°ĶëŀĮìĹĲ": 4552,
      "Ġíĸīë³µ": 4553,
      "ĠëıĦìŀħ": 4554,
      "Ġìĺģìĸ´": 4555,
      "ìĭľíĤ¬": 4556,
      "ëĵĢ": 4557,
      "íĬ¹ë³Ħ": 4558,
      "ëĤĺëĭ¤": 4559,
      "ĠìķķëıĦ": 4560,
      "ëĤ©": 4561,
      "Ġì©": 4562,
      "ĠíĪ¬ìŀĲ": 4563,
      "ĠëĤĺë¬´": 4564,
      "Ġê°Ģê¹Įìļ´": 4565,
      "Ġë´ĲëĿ¼": 4566,
      "ĠëıĻìĥĿ": 4567,
      "Ġê°ĢëģĶ": 4568,
      "Ġê¸°ë°ĺ": 4569,
      "Ġëª»íķł": 4570,
      "Ġê°Ħì²©": 4571,
      "ìĹ°íŀĪ": 4572,
      "ëŀįëĭĪëĭ¤": 4573,
      "Ġê°ķìłľ": 4574,
      "ì»¨": 4575,
      "Ġì§ĳìĹĲ": 4576,
      "ìłķì±ħ": 4577,
      "ìĦ¬": 4578,
      "ë§ĮìĿĺ": 4579,
      "ëĤ¸ëĭ¤": 4580,
      "Ġë°Ģìĸ´": 4581,
      "ê¹Ķ": 4582,
      "Ġêµ¬ë§¤": 4583,
      "ĠíĿ¬ë§Ŀ": 4584,
      "ãĥ³": 4585,
      "Ġíķ´ìķ¼ì§Ģ": 4586,
      "ìĤ¬ëŀĮìĿ´": 4587,
      "ter": 4588,
      "ĠìłĦê¸°": 4589,
      "ìļ©ìľ¼ë¡ľ": 4590,
      "Ġìłķë¶ĢëĬĶ": 4591,
      "Ġë¶Īë¦¬": 4592,
      "Ġë©ĶìĿ¸": 4593,
      "Ġë§ĮíĻĶ": 4594,
      "ìĵ°ëłĪê¸°": 4595,
      "ìĦ±ê³¼": 4596,
      "âĸ": 4597,
      "Ġê³ĦìĹ´": 4598,
      "íĮĮìĿ´": 4599,
      "Ġì§Ģë°°": 4600,
      "ìł¸ëĿ¼": 4601,
      "çĶ": 4602,
      "ì¹´ìĻĢ": 4603,
      "Ġstyle": 4604,
      "Ġìĭ±ê¸Ģ": 4605,
      "ìłĿ": 4606,
      "Ġìłľê±°": 4607,
      "ìĸ´ëĸ": 4608,
      "2014": 4609,
      "Ġë»Ķë»Ķ": 4610,
      "ĠëĽ°ìĸ´": 4611,
      "íĥĢë¡ľ": 4612,
      "Ġáħ²áħ²": 4613,
      "ĠìĿ¼ìłľ": 4614,
      "Ġíķľë§ĪëĶĶ": 4615,
      "ãģĭ": 4616,
      "Ġìį¼": 4617,
      "ìĪĺìĤ¬": 4618,
      "Ġì«ĵ": 4619,
      "Ġë§ĲìĿĢ": 4620,
      "Ġì¹¸": 4621,
      "ĠìŀĲê¾¸": 4622,
      "ëĬĲëĿ¼": 4623,
      ",,,,": 4624,
      "êµ¬ìļĶ": 4625,
      "ĠíĻķìłķ": 4626,
      "ìĦ¼íĦ°": 4627,
      "Ġìķ½ê°Ħ": 4628,
      "ìĬ¬ëŀĮ": 4629,
      "Ġê²ĢìĿĢ": 4630,
      "ê³Ħê°Ģ": 4631,
      "ìĦ±ëıĦ": 4632,
      "ĠëĨĵê³ł": 4633,
      "ĠâĢľ": 4634,
      "ëĭĲ": 4635,
      "ãĢĬ": 4636,
      "íģ¬ë¥¼": 4637,
      "ìŀĪê³ł": 4638,
      "ëĭ«": 4639,
      "ĠìĹ°íķ©": 4640,
      "Ġáħ³áħ³": 4641,
      "ëĭ¹íŀĪ": 4642,
      "ê²ģëĭĪëĭ¤": 4643,
      "Ġì§ĳìķĪ": 4644,
      "Ġìłģê·¹": 4645,
      "ĠëŃĲëĥĲ": 4646,
      "Ġíķľìłķ": 4647,
      "êµ¬ìĿĺ": 4648,
      "Ġìŀłìĭľ": 4649,
      "ìĹĨê³ł": 4650,
      "ìģĺ": 4651,
      "Ġì§Ħìĭ¬": 4652,
      "ìĹĪì§Ģë§Į": 4653,
      "ĠìľĦíĺĳ": 4654,
      "ĠëĮĢìĤ¬": 4655,
      "ĠìĹĨìĿĮ": 4656,
      "Ġë¶ĢëıĻìĤ°": 4657,
      "ë¨¹ìĿĢ": 4658,
      "Ġë§ĪìĬ¤íĦ°": 4659,
      "Ġë¯¸ìħĺ": 4660,
      "ìĬ¤ì½Ķ": 4661,
      "ë§ĪíĬ¸": 4662,
      "ĠëĭĪëĦ¤": 4663,
      "ê½ĥ": 4664,
      "ĠëĲĺìĹĪê³ł": 4665,
      "ĠìĥĿê°ģíķĺë©´": 4666,
      "ĠìłĦëŀµ": 4667,
      "ëł¥ê³¼": 4668,
      "ë¡ľëıĦ": 4669,
      "ĠìķĦë¬´ê²ĥëıĦ": 4670,
      "Ġì´¬ìĺģ": 4671,
      "ìļ°ê°Ģ": 4672,
      "ĠìĪĺíĸī": 4673,
      "Ġë¬´ë¦¬": 4674,
      "ëªħìľ¼ë¡ľ": 4675,
      "ëĨĪìĿ´": 4676,
      "ìĬ¤ëŁ½ê²Į": 4677,
      "',": 4678,
      "ëĺĳ": 4679,
      "ĠìĭľìŀĳíĸĪëĭ¤": 4680,
      "ìłģìĿ´ëĭ¤": 4681,
      "íĭ¸": 4682,
      "Ġë§Īì¹ĺ": 4683,
      "Ġì§Ģê¸Īê¹Įì§Ģ": 4684,
      "Ġìľłëªħíķľ": 4685,
      "Ġì¸ł": 4686,
      "{{{": 4687,
      "ĠëıĻë¬¸": 4688,
      "ĠíĢĺìĬ¤íĬ¸": 4689,
      "ê²łìĬµëĭĪëĭ¤": 4690,
      "Ġíļ": 4691,
      "Ġê¸°íĥĢ": 4692,
      "ĠíĻķìĭ¤íŀĪ": 4693,
      "ĠìľĦì¹ĺíķľ": 4694,
      "ĠìĿ¸ëıĦ": 4695,
      "ĠìĥĪë¡ľ": 4696,
      "Ġëį°ëł¤": 4697,
      "ĠìĪĺë§İìĿĢ": 4698,
      "Ġë¬ĺìĤ¬": 4699,
      "ëĵ¤ë¡ľ": 4700,
      "ĠìĹĶëĶ©": 4701,
      "ìķĺëįĺ": 4702,
      "ĠìĨĮê°ľ": 4703,
      "ìłģìĿ´ê³ł": 4704,
      "80": 4705,
      "Ġëªħì¹Ń": 4706,
      "ìĺ·": 4707,
      "ìķ¼ë§Ĳë¡ľ": 4708,
      "Ġ31": 4709,
      "Ġê´ĳê³ł": 4710,
      "Ġíķ´ì£¼": 4711,
      "ĠëķĮëł¤": 4712,
      "ĠëĮĢíĻĶ": 4713,
      "ĠìŀĪìľ¼ëĤĺ": 4714,
      "ĠìĪĺìłķ": 4715,
      "êµ°ìļĶ": 4716,
      "ìļ°ë¦¬ëĤĺëĿ¼": 4717,
      "Ġëĸ¼": 4718,
      "ê¶": 4719,
      "åĲ": 4720,
      "ê¸ĭ": 4721,
      "ìĻ¸ë¡ľ": 4722,
      "23": 4723,
      "Ġë¬¼ëŁ¬": 4724,
      "ãĢī": 4725,
      "ĠëĤĺìģĺ": 4726,
      "ìľĦìĽĲíļĮ": 4727,
      "ì¤ĳìĿ´": 4728,
      "ìłķë³´": 4729,
      "ĠíĻ©êµĲìķĪ": 4730,
      "ĠìķĦìĿ´ëıĮ": 4731,
      "ëŀĢëĵľ": 4732,
      "ë´ĲëıĦ": 4733,
      "íķĺëł¤ëĬĶ": 4734,
      "ìł¸ìķ¼": 4735,
      "Ġëª©ë¡Ŀ": 4736,
      "ëĤĺìĻĢ": 4737,
      "ĠìĿ´ë¦ĦìĿ´": 4738,
      "Ġíıīê·ł": 4739,
      "ĠìľłìĤ¬": 4740,
      "ìĤ¬ëŀĳ": 4741,
      "ëĬĲëĥĲ": 4742,
      "Ġì¡±": 4743,
      "Ġìĭľìŀ¥": 4744,
      "Ġ||": 4745,
      "Ġë½ĳìķĦ": 4746,
      "Ġë°ĶìĿ´ëŁ¬": 4747,
      "Ġëĵ±ëĵ±": 4748,
      "Ġêµ¬ë¶Ħ": 4749,
      "ìĸĳìĿ´": 4750,
      "gr": 4751,
      "ìĿ¼ë¶ĢíĦ°": 4752,
      "Ġìŀ¥ì°©": 4753,
      "ĠìķŀìĹĲìĦľ": 4754,
      "ĠêµĲíĨµ": 4755,
      "Ġê²ĥìĿ´ëĿ¼ê³ł": 4756,
      "ĠìŀĪìĹĪëĬĶëį°": 4757,
      "ĠìķĦëĥĲ": 4758,
      "Ġìļ´ìłĦ": 4759,
      "ê¸Īì§Ģ": 4760,
      "ĠìŀĲê¸°ê°Ģ": 4761,
      "ĠìĪ«": 4762,
      "ĠìĤ´íķ´": 4763,
      "ìħī": 4764,
      "ĠìķĦëĭĪëĿ¼ê³ł": 4765,
      "Ġê±°ê¸°ìĹĲ": 4766,
      "ĠìĥĿê°ģìĿĦ": 4767,
      "ìĸ´ìĿĺ": 4768,
      "ëħĦê°Ħ": 4769,
      "ëŀĺëıĦ": 4770,
      "ëłģ": 4771,
      "ĠëĤ¨ìĦ±": 4772,
      "ĠìµľìłĢ": 4773,
      "ĠìĿ´íĥĪë¦¬ìķĦ": 4774,
      "ĠíĨµìĿ¼": 4775,
      "ìĿ´ëĵ¤": 4776,
      "ĠíķĺëĬĶê²Į": 4777,
      "ĠìķłêµŃ": 4778,
      "Ġìĺ³": 4779,
      "Ġìłķìĭłë³ĳ": 4780,
      "ound": 4781,
      "Ġë¹Ļ": 4782,
      "ĠìķĦëĭĮëį°": 4783,
      "íķĺëıĦë¡Ŀ": 4784,
      "íĵ¨íĦ°": 4785,
      "Ġê°ĢìĬ´": 4786,
      "Ġëª»íķĺê²Į": 4787,
      "Ġê°ľìĨĮë¦¬": 4788,
      "Ġë¯¸ìĤ¬ìĿ¼": 4789,
      "ë¥ľ": 4790,
      "ĠíĺĦìŀ¬ëĬĶ": 4791,
      "åı": 4792,
      "ĠìĹĨì§Ģë§Į": 4793,
      "ĠëĴ¤ì§ĳ": 4794,
      "ìĭľê¸¸": 4795,
      "ĠëĮĢìĥģ": 4796,
      "ĠìĿ´ìķ¼ê¸°ë¥¼": 4797,
      "ĠìĨĮëª¨": 4798,
      "ĠìļĶì²Ń": 4799,
      "ĠëıĦë¡ľ": 4800,
      "ëĭ¹ìĿĺ": 4801,
      "Ġìķ¤": 4802,
      "ìłĲìĿĢ": 4803,
      "ĠìĬ¤íĶ¼": 4804,
      "ĠáĦĩ": 4805,
      "ãģ¨": 4806,
      "ĠíķłìĪĺ": 4807,
      "Ġë¹łë¥´ê²Į": 4808,
      "ĠìĿ¼ìĿĢ": 4809,
      "ìŀĪëĦ¤": 4810,
      "ìŀĲìĹĲ": 4811,
      "Ġ195": 4812,
      "ĠìĿ´ëĤĺëĿ¼": 4813,
      "áħ®áħ®": 4814,
      "Ġìłĳê·¼": 4815,
      "ìĤ°ìĿĦ": 4816,
      "íŀĪê³ł": 4817,
      "Ġëĭ¹ìĦł": 4818,
      "ĠìłĦë°ĺ": 4819,
      "Ġë¨¹ëĬĶ": 4820,
      "ĠìĤ¬ìĿ´ìĹĲ": 4821,
      "ê·¹ê¸°": 4822,
      "Ġì¤Ģëĭ¤": 4823,
      "ĠëĤ´ë¡ľëĤ¨ë¶Ī": 4824,
      "Ġë¯¸ë¦¬": 4825,
      "ì§ĢìĻĢ": 4826,
      "Ġê´Ģê´ĳ": 4827,
      "Ġì¡´ìŀ¬íķľëĭ¤": 4828,
      "ëıĮìķĦ": 4829,
      "ëŁīìĿĦ": 4830,
      "ĠìľłìĿ¼íķľ": 4831,
      "Ġê±·": 4832,
      "Ġíĥ±": 4833,
      "ĠìŁ": 4834,
      "ë¯¸ì¹ľ": 4835,
      "Ġê°Ģìļ´ëį°": 4836,
      "ĦìĥĪ": 4837,
      "ìĹĪìĿĦ": 4838,
      "ì¢ĭìĿĢ": 4839,
      "Ġë²ķë¬´ë¶Ģ": 4840,
      "ë¯¸ë¥¼": 4841,
      "ĠíĿī": 4842,
      "ĠêµŃë¯¼ëĵ¤ìĿĢ": 4843,
      "íķĺìĿĺ": 4844,
      "Ġë³´ëıĦ": 4845,
      "Ġë³µê·Ģ": 4846,
      "Ġì£½ìĹ¬": 4847,
      "ĠëĮĢíķĻêµĲ": 4848,
      "ĠëĪĪìĹĲ": 4849,
      "Ġìŀĳê³¡": 4850,
      "ëĮĢìłĦ": 4851,
      "ĠìĤ¬ë¡Ģ": 4852,
      "Ġê²ĥì²ĺëŁ¼": 4853,
      "Ġë°ĺëĮĢë¡ľ": 4854,
      "Ġë²¤": 4855,
      "ìĹŃìĿĦ": 4856,
      "ìĸ´ì§Ħ": 4857,
      "ê±¸ë¡ľ": 4858,
      "ì°¸ê³łë¡ľ": 4859,
      "Ġë°°ì¹ĺ": 4860,
      "ĠìĿ¼íĸī": 4861,
      "ëĭ¤ìĭľ": 4862,
      "Ġê·¸ëŁ¬ëĭĪ": 4863,
      "Ġë¹Ħë°Ģ": 4864,
      "ì´ī": 4865,
      "Ġíĺģ": 4866,
      "Ġìŀ¡ê³ł": 4867,
      "Ġê·¸ëłĩì§Ģ": 4868,
      "ìŀĪëĬĶëį°": 4869,
      "Ġìĳ": 4870,
      "ìĦ¯": 4871,
      "Ġë¶ķ": 4872,
      "ëĵ£": 4873,
      "art": 4874,
      "Ġ2007": 4875,
      "ĠìĻ¼": 4876,
      "Ġê´Ģíķľ": 4877,
      "ëĤĺëĿ¼ëĬĶ": 4878,
      "ë¯¸íĦ°": 4879,
      "ĠìĿ´ë¦¬": 4880,
      "ëģĹ": 4881,
      "Ġìĸĳìĭ¬": 4882,
      "ìķĪìĿĦ": 4883,
      "ĠëıĪìĿ´": 4884,
      "ĠìłĦíĻĶ": 4885,
      "ìĭ«": 4886,
      "ĠëĬ¥ëł¥ìĿ´": 4887,
      "ĠëĤłìķĦ": 4888,
      "ìĨĮìĹĲ": 4889,
      "ìłľìĿĺ": 4890,
      "ĠìĿ¸ê°Ħëĵ¤": 4891,
      "Ġe": 4892,
      "ìķħíķľ": 4893,
      "ìľĦìĿĺ": 4894,
      "ia": 4895,
      "Ġì²ĺìĿĮìľ¼ë¡ľ": 4896,
      "ìĽĲëıĦ": 4897,
      "ë³´ëĭ¤ëıĦ": 4898,
      "ĠìĹĲíĶ¼ìĨĮëĵľ": 4899,
      "ë¤Ħ": 4900,
      "Ġì²ĺëŁ¼": 4901,
      "Ġìĭ¤íĹĺ": 4902,
      "Ġë¬¸ìŀ¬ìĿ¸ìĿ´": 4903,
      "ĠìķĮìķĦìĦľ": 4904,
      "Ġìŀ¬íĮĲ": 4905,
      "ie": 4906,
      "ĠìĪĺì¶ľ": 4907,
      "ëĳĲíĻĺ": 4908,
      "Ġê²½ìļ°ìĹĲëĬĶ": 4909,
      "ìĿ¸ëıĦ": 4910,
      "ìĿ´ë¸Į": 4911,
      "Ġê°ĢëĿ¼": 4912,
      "ëŀĲëĭ¤": 4913,
      "ìŀł": 4914,
      "ĠìŀĪìĿĮ": 4915,
      "ĠìŀĪìĹĪê³ł": 4916,
      "ĠìŀĪìĸ´ìķ¼": 4917,
      "ëıĻìĿ´": 4918,
      "ìĦłìĪĺ": 4919,
      "100": 4920,
      "ĠëıĻëĦ¤": 4921,
      "ðŁĴ": 4922,
      "ëĪĦê°Ģ": 4923,
      "ĠìĤŃìłľ": 4924,
      "ê»Ħ": 4925,
      "ë¦¬íĬ¸": 4926,
      "ìĹ½": 4927,
      "ĠìĿ¸íķľ": 4928,
      "Ġëª»íķ´": 4929,
      "ìŀĲëĵ¤ìĿĺ": 4930,
      "Ġê²ĮìŀĦìĿĦ": 4931,
      "Ġë³¸ëĭ¤": 4932,
      "Ġë°Ķëĭ¥": 4933,
      "Ġë¯¸ìĦ¸ë¨¼ì§Ģ": 4934,
      "ìľ¼ëł¤ê³ł": 4935,
      "Ġíķĳ": 4936,
      "ì¼ĵëª¬": 4937,
      "ìģľ": 4938,
      "Ġë§ŀìķĦ": 4939,
      "ĠëĤ´ë¶Ģ": 4940,
      "êµ¬ë¡ľ": 4941,
      "ĠìĥĿê¸°": 4942,
      "íĸ¥ìĿ´": 4943,
      "ìĺĢëĬĶëį°": 4944,
      "ìĿ´ìħĺ": 4945,
      "ëĬ¥ëł¥": 4946,
      "ìŀĦìĿ´": 4947,
      "Ġëį±": 4948,
      "Ġìĺµ": 4949,
      "(?)": 4950,
      "ëĲ©ëĭĪëĭ¤": 4951,
      "ĠFC": 4952,
      "Ġìµľê°ķ": 4953,
      "ë¯¿": 4954,
      "Ġê·¸ê±´": 4955,
      "Ġë¶ĢìĹ¬": 4956,
      "Ġë¬´ìĦŃ": 4957,
      "ĠìĪĺì¤ĢìĿ´": 4958,
      "Ġê·¼ìłĳ": 4959,
      "Ġì¢ĭê²łëĭ¤": 4960,
      "ĠìĨĮëħĢ": 4961,
      "ĠìĿ´ìłľëĬĶ": 4962,
      "ĠìĽ¹": 4963,
      "mm": 4964,
      "Ġë¶Ħë¥ĺ": 4965,
      "Ġë¡ľë§Ī": 4966,
      "ĠíķĺëĤĺëıĦ": 4967,
      "íĺĶ": 4968,
      "Ġì¤ĳìĹĲìĦľ": 4969,
      "ìľĦíķ´": 4970,
      "Ġì¤ĳê°Ħ": 4971,
      "ë°ķê·¼íĺľ": 4972,
      "ĠëıĻë§¹": 4973,
      "ãģĨ": 4974,
      "ê°ľë¡ľ": 4975,
      "FA": 4976,
      "ĠëĤĺëĪ": 4977,
      "ìĿ´ë¯¸": 4978,
      "Ġì¤ĳêµŃìĿ¸": 4979,
      "ë§ĲìĿĦ": 4980,
      "Ġì¿¨": 4981,
      "ĠìĹĨëĦ¤": 4982,
      "der": 4983,
      "ëįĺì§Ģ": 4984,
      "ĠëĨĴìķĦ": 4985,
      "ĠëĮĢì¤ĳ": 4986,
      "ë²Ħëł¸ëĭ¤": 4987,
      "ìĿ¼ëŁ¬": 4988,
      "Ġê²°ìĬ¹": 4989,
      "ŁìķĦ": 4990,
      "ĠìĿ¼ìłķ": 4991,
      "Ġìĺ¤ë¥´": 4992,
      "Ġë²łìĿ´": 4993,
      "ĠìĿ´ëªħë°ķ": 4994,
      "ĠìĻĦë²½": 4995,
      "íķĺê¸´": 4996,
      "Ġê³¼ìłķìĹĲìĦľ": 4997,
      "ìłģìľ¼ë¡ľëĬĶ": 4998,
      "Ġë§ŀì¶Ķ": 4999,
      "ĠìĤ¬ëĥ¥": 5000,
      "íĨ¨": 5001,
      "ĠìĽĲíķĺëĬĶ": 5002,
      "ëĮĢêµ¬": 5003,
      "Ġì£½ìĿĮ": 5004,
      "iki": 5005,
      "ĠëĤĺìĺ¤ì§Ģ": 5006,
      "ĠëĭŃ": 5007,
      ")'": 5008,
      "ìĹ°êµ¬": 5009,
      "ĠëħĢ": 5010,
      "ĠìĪĺìŀħ": 5011,
      "ì³¤ëĭ¤": 5012,
      "ì¿¨": 5013,
      "ê¸´ëĭ¤": 5014,
      "ë³´ìĪĺ": 5015,
      "ĠëĨĪëĵ¤": 5016,
      "ëª¨íĨł": 5017,
      "ra": 5018,
      "Ġë¶Īê³¼": 5019,
      "ĠìĹ¬ê¸°ìĹĲ": 5020,
      "ĠìĹĨìľ¼ë©´": 5021,
      "Ġìļ°íķľ": 5022,
      "Ġìĸ»ìĸ´": 5023,
      "ëĭ¹ìĹĲ": 5024,
      "Ġìŀĳê°Ģ": 5025,
      "ì¹ľëĭ¤": 5026,
      "Ġê·¸ê±°": 5027,
      "Ġìłķê·ľ": 5028,
      "ĠíķĺëĥĲ": 5029,
      "ëĦĮ": 5030,
      "ĠìĺģìĽĲ": 5031,
      "ë°©ìĿĦ": 5032,
      "ëħĦê¹Įì§Ģ": 5033,
      "ìĸ´ëĬĶ": 5034,
      "ĠìĿ´ìĻ¸": 5035,
      "Ġìŀħê³ł": 5036,
      "Ġì¹ĺê³ł": 5037,
      "ìĽĲìłĦ": 5038,
      "ãĤĵ": 5039,
      "Ġê¸°ëħĲ": 5040,
      "pl": 5041,
      "Ġëĭ®": 5042,
      "Ġìĭłë¢°": 5043,
      "ëĤ¨ëıĦ": 5044,
      "ë°ĶìĿ´": 5045,
      "ìĸĺ": 5046,
      "íĤ¤ê°Ģ": 5047,
      "ĠìĤ¬ëŀĮëıĦ": 5048,
      "ħëĭĪëĭ¤": 5049,
      "ìŀ¡ê³ł": 5050,
      "íĸĪìľ¼ë©´": 5051,
      "ëĨĢ": 5052,
      "Ġë§ŀê³ł": 5053,
      "Ġê±°ë¦¬": 5054,
      "ë³´ëĭ¨": 5055,
      "ĠìĿ¼ë³¸ìĿĢ": 5056,
      "ĠëĬĲê»´": 5057,
      "ill": 5058,
      "Ġì§Ħìłķíķľ": 5059,
      "ĠìĿ´ìŀ¬": 5060,
      "{{{#": 5061,
      "ìĭ¼": 5062,
      "ĠëĤ¸": 5063,
      "ë¬¸ìĿĺ": 5064,
      "Ġë¡¤": 5065,
      "ì²´ëĬĶ": 5066,
      "ìĹŃìĤ¬": 5067,
      "ê³ĦìĿĺ": 5068,
      "ĠëŃī": 5069,
      "ìĵ´": 5070,
      "ĠìĤ¬ë¬´": 5071,
      "ì»·": 5072,
      "ì¹ĺìĿĺ": 5073,
      "Ġê·¼ê±°": 5074,
      "ĠĠĠĠ": 5075,
      "ðŁĲ": 5076,
      "ĠíĻĢ": 5077,
      "ìŀĦê¸Ī": 5078,
      "Ġì¶Ķì¸¡": 5079,
      "ìħĢ": 5080,
      "Ġê°ľíĮĲ": 5081,
      "ì°¾": 5082,
      "!!!!!!!!": 5083,
      "ĠìŀĪëĬĶì§Ģ": 5084,
      "ĠìŀĲë¦¬ë¥¼": 5085,
      "ĠíĮĶìķĦ": 5086,
      "íĿĳ": 5087,
      "ĠìłĦìĦ¤": 5088,
      "ìĵ°ê³ł": 5089,
      "Ġë°ĺìĦ±": 5090,
      "ĠíĸĪìľ¼ëĤĺ": 5091,
      "Ġëĭ¤ë£¨": 5092,
      "ĠìĿ´ë¦ĦìĿĢ": 5093,
      "ê°ĢìļĶ": 5094,
      "Ġê²ĥëĵ¤ìĿ´": 5095,
      "ä»": 5096,
      "ĠíĭĢëĶ±": 5097,
      "Ġë§ŀì¶°": 5098,
      "ðŁĳ": 5099,
      "ëŃĶ": 5100,
      "2013": 5101,
      "Ġìĭłê³ł": 5102,
      "íĻĶëĲľ": 5103,
      "Ġìºł": 5104,
      "ĠìĿ´ìłģ": 5105,
      "ĠìĭľìĦ¤": 5106,
      "ëıĻìĥĿ": 5107,
      "ĠìĥģìľĦ": 5108,
      "ëĭ¤ìĿĮ": 5109,
      "Ġì¡°ìĭ¬": 5110,
      "Ġê°ľê·¸": 5111,
      "ª¼": 5112,
      "ê´ĳìĹŃìĭľ": 5113,
      "Ġì½¤": 5114,
      "ĠëıĦì¿Ħ": 5115,
      "Ġê³µì¤ĳ": 5116,
      "ĠíĪ¬ìŀħ": 5117,
      "ĠìĭľìłĦ": 5118,
      "Ġìļ°ë¦¬ëĬĶ": 5119,
      "ì¹ĺê¸°": 5120,
      "Ġê³µíı¬": 5121,
      "ìĿ´ëĿ¼ìĦľ": 5122,
      "Ġ2006": 5123,
      "íĬ¸ë¦¬": 5124,
      "Ġë¬´ëł¤": 5125,
      "ĠìĥĿëªħ": 5126,
      "ê¸°ìŀĲ": 5127,
      "ìĿ¼ìĿĺ": 5128,
      "ĠëĦĺìĸ´ê°Ģ": 5129,
      "Ġíļ¨ê³¼ë¥¼": 5130,
      "ìłľëĬĶ": 5131,
      "ĠíĮĮíĭ°": 5132,
      "ĠëĮĢë¹Ħ": 5133,
      "ë¥Ń": 5134,
      "âĹ": 5135,
      "Ġë¡¯": 5136,
      "ìĽĲëŀĺ": 5137,
      "ê°Ļëĭ¤": 5138,
      "ë¶ĢíĦ°ëĬĶ": 5139,
      "Ġê¹Įì§Ģ": 5140,
      "ĠìĤ¬ë²ķ": 5141,
      "ĠíķľêµŃìĿĺ": 5142,
      "Ġìĭľê°ĦìĿĦ": 5143,
      "ĠìķĦëĭĪì§Ģë§Į": 5144,
      "Ġë°ĺë³µ": 5145,
      "íķľê±´": 5146,
      "ë§ĪìĿ´": 5147,
      "ĠíĽĮ": 5148,
      "ĠëĮĢë³Ģ": 5149,
      "ĠìĿ¸ì²ľ": 5150,
      "ìª½ìĹĲ": 5151,
      "íĺĲ": 5152,
      "Ġê±°ì£¼": 5153,
      "Ġë¹¼ê³ł": 5154,
      "ĠìĬ¤íħĮìĿ´ì§Ģ": 5155,
      "ëįĶë§Į": 5156,
      "Ġíķľíİ¸": 5157,
      "ëĭµê²Į": 5158,
      "ëŁ¬ìĽĮ": 5159,
      "ëĿ¼ëĭĪ": 5160,
      "Ġìŀī": 5161,
      "Ġë²łíĬ¸ëĤ¨": 5162,
      "196": 5163,
      "ìĿ¸ê±°": 5164,
      "ìĥģíĥľ": 5165,
      "Ġê°Ģë§ĮíŀĪ": 5166,
      "ëĳł": 5167,
      "ãĤī": 5168,
      "íģ¬ê°Ģ": 5169,
      "wiki": 5170,
      "ĠìĨĮë¦¬ë¥¼": 5171,
      "ëŁ¿": 5172,
      "ìķĦë²ł": 5173,
      "ëª¨ë¡ľ": 5174,
      "Ġì½ĶìĬ¤": 5175,
      "Ġê°Ħëĭ¤": 5176,
      "Ġì§Ģìłģ": 5177,
      "ìĦłëıĻ": 5178,
      "æĸ": 5179,
      "ëİ": 5180,
      "ìĶ¨ê°Ģ": 5181,
      "Ġë°Ķëĭ¤": 5182,
      "ìĿ¸ì¤Ħ": 5183,
      "Ġë°©íķ´": 5184,
      "ĠìĿ´ë¦Ħìľ¼ë¡ľ": 5185,
      "ëĲĺëĬĶëį°": 5186,
      "ìĿ´ëłĩê²Į": 5187,
      "ìĦĿìĿĦ": 5188,
      "ĠëıĦì°©": 5189,
      "Ġì¢Ģë¹Ħ": 5190,
      "Ġì£¼ìĤ¬": 5191,
      "ìĸ´ë¦¬": 5192,
      "ì§Ģë©´ìĦľ": 5193,
      "ĠêµĲíļĮ": 5194,
      "Ġê³łìłķ": 5195,
      "Ġì§ģíĽĦ": 5196,
      "ëĭ¹ìĭľ": 5197,
      "Ġëħ¸ë¬´íĺĦ": 5198,
      "íķĺëĬĶê±´": 5199,
      "ĠìĥģíĥľìĹĲìĦľ": 5200,
      "íĻĶìĿĺ": 5201,
      "ĠZ": 5202,
      "ìĬ¤ì¹´": 5203,
      "ë³´ê¸°": 5204,
      "ĠìĨĮëł¨": 5205,
      "ìĬµëĭĪê¹Į": 5206,
      "ĠìķĦì¹´": 5207,
      "ĠìłĦìĦ¸ê³Ħ": 5208,
      "ê³µìŀĲ": 5209,
      "Ġê³¤": 5210,
      "ê°Ģì§Ģê³ł": 5211,
      "íķ´ìķ¼íķľëĭ¤": 5212,
      "ë¡ľìĿĺ": 5213,
      "ĠíĸĪê³ł": 5214,
      "Ġì¢ħë¥ĺ": 5215,
      "íģ°": 5216,
      "ìĭ¶ëĭ¤": 5217,
      "Ġê°Ģê³ł": 5218,
      "ëıĦìĭľ": 5219,
      "Ġì§Ģìĺ¥": 5220,
      "ĠMBC": 5221,
      "ê·¸ë¦¬": 5222,
      "Ġê°Ģìłķ": 5223,
      "ĠìĦ¸ëł¥": 5224,
      "íĶĦê°Ģ": 5225,
      "ë³´ë¥¼": 5226,
      "íĥĢê°Ģ": 5227,
      "ëĬĶê°Ģ": 5228,
      "ĠSK": 5229,
      "ĠìĨĲìĿĦ": 5230,
      "Ġì£Ħëĭ¤": 5231,
      "Ġì±ĦëĦĲ": 5232,
      "Ġëª»íķľëĭ¤": 5233,
      "ĠìĿĦ": 5234,
      "áĦģ": 5235,
      "Ġíĳľê¸°": 5236,
      "Ġë§º": 5237,
      "Ġì§±ê¹¨": 5238,
      "ĠìĿ´íķ´ê°Ģ": 5239,
      "íķĺëĬĶì§Ģ": 5240,
      "Ġë³´ìŀĲ": 5241,
      "íĺķìĿĦ": 5242,
      "ãģ¯": 5243,
      "ìĹ¬íĸī": 5244,
      "ĠìĻĦìĦ±": 5245,
      "Ġê³µê°Ħ": 5246,
      "ĠíķĺëĤĺë¡ľ": 5247,
      "Ġë©Ī": 5248,
      "ĠëģĿìĹĲ": 5249,
      "ĠìľłìĿ¼íķĺê²Į": 5250,
      "ĠëķĮë§Īëĭ¤": 5251,
      "2012": 5252,
      "ê·¸ëŁ°ëį°": 5253,
      "ìľµ": 5254,
      "ĠìłķìĿĢ": 5255,
      "ĠíĻĶìĿ´íĮħ": 5256,
      "ĠìŀĲë¹ł": 5257,
      "ĠíŀĲ": 5258,
      "ĠìĨĮìľł": 5259,
      "ë²Ħë¦°ëĭ¤": 5260,
      "ĠìĽĶëĵľì»µ": 5261,
      "åľ": 5262,
      "ĠëĮĢì±ħ": 5263,
      "Ġëļ«": 5264,
      "ĠìĿ¸ìĭĿ": 5265,
      "íļĮìĤ¬": 5266,
      "ìĿ´ëĵł": 5267,
      "ìĩł": 5268,
      "ĠìĤ¬ìļ©íķľëĭ¤": 5269,
      "Ġë³¸ìĿ¸ìĿĺ": 5270,
      "ì¢Įë¹¨": 5271,
      "Ġê±°ìķ¼": 5272,
      "Ġíıīë²Ķ": 5273,
      "Ġëľ¯": 5274,
      "ë²Ħë¦¬": 5275,
      "ĠìĿ´ìĿµ": 5276,
      "ëĳ¥ìĿ´": 5277,
      "Ġë³´ìķĦ": 5278,
      "Ġíķ´ì²´": 5279,
      "ê²½ìĿĦ": 5280,
      "Ġë§Ĳë¡ľ": 5281,
      "ĠìĦłìĸ¸": 5282,
      "ë¶ĦìĿĦ": 5283,
      "ĠìĹ°ìĬµ": 5284,
      "ë¶ķ": 5285,
      "Ġì§ģìĽĲ": 5286,
      "Ġíļ¨ê³¼ê°Ģ": 5287,
      "ĠëĮĢíĺķ": 5288,
      "ĠëĮĢëĭ¤": 5289,
      "ĠìŀĳìĹħ": 5290,
      "ìŀĲìĹĲê²Į": 5291,
      "ĠìķĦìĽĥ": 5292,
      "ë³´ëĤ´": 5293,
      "Ġ500": 5294,
      "ì¦ĪìĿĺ": 5295,
      "Ġì¡°êµŃìĿ´": 5296,
      "Ġê°ľìµľ": 5297,
      "Ġìŀ¥ê¸°": 5298,
      "ìĿ´ê±°": 5299,
      "Ġì¡°ì¢ħ": 5300,
      "ê·¸ë£¹": 5301,
      "ìĺĢìľ¼ëĤĺ": 5302,
      "âĻ": 5303,
      "ëĵľë¦¬": 5304,
      "íĬ¸ìĹĲ": 5305,
      "ë¬¸íļĮ": 5306,
      "ì¨": 5307,
      "Ġìĺģíĺ¼": 5308,
      "ëĿ¼ìļ°": 5309,
      "Ġë¶Ļìĸ´": 5310,
      "ì¹ĺê²Į": 5311,
      "ìĶĢ": 5312,
      "íķĺê³łëĬĶ": 5313,
      "ìľ¼ë¡ľë¶ĢíĦ°": 5314,
      "Ġë¬¸ìłľë¥¼": 5315,
      "2010": 5316,
      "íĥĦìĿĦ": 5317,
      "Ġ300": 5318,
      "ëħ¸ì´Ŀ": 5319,
      "Ġëħ¸ìĺĪ": 5320,
      "Ġìķ½ìĨį": 5321,
      "Ġê²¨ìļ°": 5322,
      "Ġë§Ĳíķ´": 5323,
      "Ġë¦°": 5324,
      "{{{#!": 5325,
      "Ġë§¨ëĤł": 5326,
      "íĨµìĿ´": 5327,
      "ìļĶìĿ¼": 5328,
      "ëª¨ëĵł": 5329,
      "Ġíģ´ëŀĺ": 5330,
      "ë²¼": 5331,
      "ëª¨ë¥¼": 5332,
      "ĠìĿ¼ë³¸ìĹĲ": 5333,
      "ĠëĮĢê°Ģ": 5334,
      "ê¶ĮìĿ´": 5335,
      "Ġë¬´ìŀ¥": 5336,
      "Ġì¡°ìļ©íŀĪ": 5337,
      "Ġë¹¼ìķĹ": 5338,
      "ìľ¼ëł¤": 5339,
      "ê²¼ëĭ¤": 5340,
      "ëĦĪë¬´": 5341,
      "ĠíĸĪëĭ¤ê³ł": 5342,
      "ì¹ĺì§Ģ": 5343,
      "ĠëįĶìĿ´ìĥģ": 5344,
      "ãĤĤ": 5345,
      "Ġëĵ±ìĹĲ": 5346,
      "ìĿ¸ëĵ¤ìĿĢ": 5347,
      "ì½¤": 5348,
      "ë²Ħë¦¬ê³ł": 5349,
      "Ġê·¸ê²ĥ": 5350,
      "ìĤ´ìķĦìŀĪëĬĶ": 5351,
      "íķĺëĭĪê¹Į": 5352,
      "Ġíģ´ëŁ½": 5353,
      "Ġëĵ±ìŀ¥íķľ": 5354,
      "æ°": 5355,
      "ë§Ļ": 5356,
      "Ġê³łë¯¼": 5357,
      "ì¹´ëĵľ": 5358,
      "ê°ľë°ľ": 5359,
      "Ġëį°ìĿ´íĦ°": 5360,
      "ĠëĮĢìĦł": 5361,
      "ĠãĢĮ": 5362,
      "ĠìĿ´ìĤ¬": 5363,
      "ĠìĺĪìłĦ": 5364,
      "Ġë§¤êµŃëħ¸": 5365,
      "ĠíĤ¹": 5366,
      "ĠëĿ¼ìĿ´ë¸Į": 5367,
      "ëıĦìĻĢ": 5368,
      "Ġê°Ģê²Į": 5369,
      "Ġì¶©ê²©": 5370,
      "ĠêµŃìłķ": 5371,
      "ĠìłĦìŀĳ": 5372,
      "íģ¬ìĿĺ": 5373,
      "Ġíķłë¨¸ëĭĪ": 5374,
      "Ġíķ©ë¥ĺ": 5375,
      "ĠìĻĢìĦľ": 5376,
      "ãģ§": 5377,
      "ê±°ë¦¬ëĬĶ": 5378,
      "Ġë¬¸ë¹ł": 5379,
      "70": 5380,
      "Ġì¢ħë¶ģ": 5381,
      "ĠëĮĢê°Ģë¦¬": 5382,
      "Ġë©ĺ": 5383,
      "ĠìĪĺìĭŃ": 5384,
      "ĠëĽ°ìĸ´ëĤľ": 5385,
      "ëĭ¹ìĿĦ": 5386,
      "Ġë°©ë¬¸": 5387,
      "ĠëįĶëŁ½": 5388,
      "Ġê³µê²©ëł¥": 5389,
      "ê´": 5390,
      "âĺĨ": 5391,
      "ĠãĢĪ": 5392,
      "ì§ĢìĹĲìĦľ": 5393,
      "Ġë³´ìĹ¬ì¤Ģëĭ¤": 5394,
      "ea": 5395,
      "êµ¬ëĬĶ": 5396,
      "ĠìłĲìĿĦ": 5397,
      "éĩ": 5398,
      "ìķĺê³ł": 5399,
      "ĠìŀĲê²©": 5400,
      "Ġëªĩëªĩ": 5401,
      "ëĩ": 5402,
      "ãĥ»": 5403,
      "Ġë°ĽëĬĶëĭ¤": 5404,
      "¼Ī": 5405,
      "íħĲì¸ł": 5406,
      "ĠëĤĺíĥĢëĤĺ": 5407,
      "Ġê²½ê¸°ìĹĲìĦľ": 5408,
      "ìķĺëĬĶëį°": 5409,
      "ĠìŀĲì²´ëĬĶ": 5410,
      "ĠíĴĢìĸ´": 5411,
      "ë¥´ê¸°": 5412,
      "Ġì§Ģê°Ģ": 5413,
      "å¤§": 5414,
      "ëĳ¬": 5415,
      "Ġê±į": 5416,
      "ĠìłĢëŁ¬": 5417,
      "Ġë°ķìłķíĿ¬": 5418,
      "ìĿĺìĽĲ": 5419,
      "48": 5420,
      "ĠëķĮëıĦ": 5421,
      "ë¯¼ì¡±": 5422,
      "ì´Ŀìŀ¥": 5423,
      "Ġíĺĳë°ķ": 5424,
      "íĻĢ": 5425,
      "ì£¼ìĿ¸": 5426,
      "ĠëķĮê¹Įì§Ģ": 5427,
      "ëĵľë¦½": 5428,
      "íĺ¸ìĦł": 5429,
      "ĠêµŃë¯¼ìĿĢ": 5430,
      "ëłĽ": 5431,
      "ĠLG": 5432,
      "Ġë²Ħíĭ°": 5433,
      "ìłĦíĪ¬": 5434,
      "Ġì»´íĵ¨íĦ°": 5435,
      "ĠìĥģíĻ©ìĿĦ": 5436,
      "Ġê²½ê¸°ë¥¼": 5437,
      "ëħĦìĿĦ": 5438,
      "ĠìĿ´ì¤ĳ": 5439,
      "ĠìĤ¬ëŀĮìĿĺ": 5440,
      "ìķĦìĿĺ": 5441,
      "ont": 5442,
      "ê·¸ëłĩê²Į": 5443,
      "ĠìĿ´ê³³": 5444,
      "ĳ¼": 5445,
      "ĠìķĦëĭĻ": 5446,
      "ìĤ¬ê¸°": 5447,
      "Ġëª¨ë¥¸ëĭ¤": 5448,
      "Ġë³ĢíĻĶ": 5449,
      "ĠíĥĢê²©": 5450,
      "Ġìĭľê¸°": 5451,
      "ĠìķĬì§Ģë§Į": 5452,
      "ì¡°ë¥¼": 5453,
      "Ġê´Ģëł¨ëĲľ": 5454,
      "ëĭ¹íķĺê³ł": 5455,
      "Ġë¿ĲìĿ´ëĭ¤": 5456,
      "Ġìŀĺëª»ëĲľ": 5457,
      "ëĸ¨ìĸ´": 5458,
      "Ġëĵ±ìŀ¥ìĿ¸ë¬¼": 5459,
      "éģ": 5460,
      "ĠáĨŀ": 5461,
      "ĠëĤĺìĺ¤ê³ł": 5462,
      "ì¡°ìĿĺ": 5463,
      "ĠíĮĲê²°": 5464,
      "Ġë¹Ħë¡¯íķľ": 5465,
      "ìĹĲìĦľë§Į": 5466,
      "ëĭĪìĬ¤": 5467,
      "ĠìķĦíĤ¤": 5468,
      "íķľë²Ī": 5469,
      "ue": 5470,
      "Ġê¸°ê³Ħ": 5471,
      "----": 5472,
      "ë¡ľëĵľ": 5473,
      "Ġë¶Ħë¦¬": 5474,
      "ĠìķĦë¬´ëıĦ": 5475,
      "ê´ĢìĿĦ": 5476,
      "ell": 5477,
      "ĠìĿ¸ê¸°": 5478,
      "99": 5479,
      "ĠìķĦëĤ´": 5480,
      "ëıħìŀ¬": 5481,
      "ĠìĤ°ìĹħ": 5482,
      "Ġë°ĿíĺĶëĭ¤": 5483,
      "ìĺģìĹħ": 5484,
      "ĠìĽĮëĤĻ": 5485,
      "Ġì¹´ë©Ķ": 5486,
      "Ġìĺ¬ë¦¬": 5487,
      "Ġì§Ģìĥģ": 5488,
      "ì§ĢìļĶ": 5489,
      "ĠëĬĻ": 5490,
      "ê²łëĤĺ": 5491,
      "ĠìĤ´ìķĦëĤ¨": 5492,
      "Ġë§¤ìĿ¼": 5493,
      "ëĭ¨ìĹĲ": 5494,
      "Ġëĭ¤ë¥´ëĭ¤": 5495,
      "ĠëĭĪëĵ¤ìĿĢ": 5496,
      "ìķ½ìĿĦ": 5497,
      "ìĦľê°Ģ": 5498,
      "Ġìĥģì²ĺ": 5499,
      "Ġë§īìķĦ": 5500,
      "ë£©": 5501,
      "The": 5502,
      "ìĬ¤ëŁ½ëĭ¤": 5503,
      "ĠëĶ´": 5504,
      "ìŀ¥íĮĲ": 5505,
      "Ġíķĺìĭľ": 5506,
      "Ġìļ°ëł¤": 5507,
      "ĠíĻĪíİĺìĿ´ì§Ģ": 5508,
      "Ġê·¸ëħĢìĿĺ": 5509,
      "ĠëŀŃ": 5510,
      "ĠìĿ´íĽĦë¡ľ": 5511,
      "ëŁ¬ê°Ģ": 5512,
      "ĠëĶĶìŀĲìĿ¸": 5513,
      "ĠìĤ¬ìĥģ": 5514,
      "Ġç": 5515,
      "Ġê²½ê¸°ëıĦ": 5516,
      "ëŀĺíĶĦíĬ¸": 5517,
      "Ġë¦¬ëįĶ": 5518,
      "ìĭłìĿĢ": 5519,
      "Ġ~~": 5520,
      "ĠíķĦìļĶê°Ģ": 5521,
      "?!": 5522,
      "ĠëĮĢëĭµ": 5523,
      "ìĨĮë¦¬ë¥¼": 5524,
      "ëª¸": 5525,
      "ĠêµŃë°©": 5526,
      "Ġëĭµëĭµ": 5527,
      "Ġìĩ": 5528,
      "Ġì§Ģê¸ĪëıĦ": 5529,
      "ĠëıĦìĽĢ": 5530,
      "ĠìķĶìĤ´": 5531,
      "ìĤ¬ìĹħ": 5532,
      "ĠíħĶëłĪë¹ĦìłĦ": 5533,
      "ĠëĦĪëĦ¤": 5534,
      "ë¹¼": 5535,
      "Ġê³¼ìĹ°": 5536,
      "Ġíı¬ì§Ģìħĺ": 5537,
      "Ġë§Ĳíķľ": 5538,
      "Ġë§ŀëĭ¤": 5539,
      "ëĭĪíĭ°": 5540,
      "íı¼": 5541,
      "Ġë¡¯ëį°": 5542,
      "ĠìłĢíķŃ": 5543,
      "!!!!!": 5544,
      "Ġìŀ¬ë¯¸": 5545,
      "ĠìĹĲìĿ´": 5546,
      "ì¡Įê³ł": 5547,
      "ĠìłľìĻ¸íķĺë©´": 5548,
      "Ġëĭ¤ìĨĮ": 5549,
      "Ġëĵ¯íķĺëĭ¤": 5550,
      "ìĬ¤íĤ¬": 5551,
      "Ġê°ķëĤ¨": 5552,
      "28": 5553,
      "AR": 5554,
      "35": 5555,
      "Ġì¹´ìļ´": 5556,
      "êµ¬ìĹĲ": 5557,
      "Ġ2005": 5558,
      "ìłĦìĿĢ": 5559,
      "ê¹Įë´Ĳ": 5560,
      "ëĨĶ": 5561,
      "Ġë³´ìĿ´ì§Ģ": 5562,
      "ìķĪìĿ´": 5563,
      "ĠëıĦì¤ĳ": 5564,
      "íķ¨ìĿ´": 5565,
      "ĠìłĲëł¹": 5566,
      "Ġìĥģëĭ¹íķľ": 5567,
      "Ġê»": 5568,
      "ë¡ľê·¸": 5569,
      "Ġíķľìĭ¬íķľ": 5570,
      "ĠëĤ¨ìĿĺ": 5571,
      "ìĺĢì§Ģë§Į": 5572,
      "26": 5573,
      "Ġë¶Ģëĭ´": 5574,
      "ĠìĹĨìľ¼ëĭĪ": 5575,
      "ĠìĦŀ": 5576,
      "ìĬ¤ì¼Ģ": 5577,
      "ĠìŀħíķĻ": 5578,
      "ĠìŀĪìĹĪì§Ģë§Į": 5579,
      "Ġìĭ¶ìĸ´": 5580,
      "Ġê·¼ë¬´": 5581,
      "ìĿ¼ë°ĺ": 5582,
      "Ġë°°ìĭł": 5583,
      "Ġìŀ¬ìĤ°": 5584,
      "īĺ": 5585,
      "ì§ľë¦¬": 5586,
      "ìĪłìĿĦ": 5587,
      "ĠëıĦìĽĢìĿ´": 5588,
      "Ġìĺ¹íĺ¸": 5589,
      "ë¶Ħëĵ¤": 5590,
      "ĠìĺĪë¥¼": 5591,
      "Ġì¢ħì¢ħ": 5592,
      "ìĿ¸ëĵ¯": 5593,
      "ë¹ĦëĬĶ": 5594,
      "ìĹĲìļĶ": 5595,
      "Ġê¹¨ëģĹ": 5596,
      "ì¡°ë¦¬": 5597,
      "ĠíĥĢìŀħ": 5598,
      "ìŀĪìĸ´": 5599,
      "Ġì°©ê°ģ": 5600,
      "íķĺìĺĢìľ¼ë©°": 5601,
      "ĠíŀĺìĿ´": 5602,
      "Ġìĸ´ìļ¸": 5603,
      "ìĹĪëĭ¤ëĬĶ": 5604,
      "ĠíĻĶë©´": 5605,
      "ĠëĤĺìĻĢìĦľ": 5606,
      "ìª½ìĿĢ": 5607,
      "ĠíĮĮìķħ": 5608,
      "Ġì§Ģê¸ī": 5609,
      "ë²Ħë¦¬ëĬĶ": 5610,
      "Ġë³Ģìĭł": 5611,
      "íŀĮëĭ¤": 5612,
      "ëĦĪìĬ¤": 5613,
      "ê²ĢìĤ¬": 5614,
      "ĠìĦłìłķ": 5615,
      "ĠëªħìĺĪ": 5616,
      "Ġë°°íĭĢ": 5617,
      "ê·¸ëĦ¤": 5618,
      "ĠìĹ´ë¦°": 5619,
      "Ġëľ¬": 5620,
      "Ġë°Ľì§Ģ": 5621,
      "íķĺì§Ģë§Ĳê³ł": 5622,
      "ĠëĦĪëĬĶ": 5623,
      "ìĭĿìĿĢ": 5624,
      "ìĦ±ìľ¼ë¡ľ": 5625,
      "Ġì§Ģëĵ¤ìĿ´": 5626,
      "Ġë°ĶëŀįëĭĪëĭ¤": 5627,
      "ì²´ìĿĺ": 5628,
      "ĠìĿ´ë¡ľ": 5629,
      ".......": 5630,
      "ĠíĥĪëĿ½": 5631,
      "ĠëĮĢê¸°ìĹħ": 5632,
      "ct": 5633,
      "ë¬´ìĬ¨": 5634,
      "Ġëĵ¤ìĸ´ìĺ¤": 5635,
      "Ġì¯": 5636,
      "Ġê¸°ìĥĿ": 5637,
      "ìĤ¬ì¹´": 5638,
      "ìĿ´ëĿ¼ëĭĪ": 5639,
      "2011": 5640,
      "ëĵľìĹĲ": 5641,
      "ìĬ¹ìĿĦ": 5642,
      "Ġë¶Ģíķĺ": 5643,
      "Ġêµ¬ìĹŃ": 5644,
      "íķ´ë¥¼": 5645,
      "ĠìķĦìī¬": 5646,
      "ĠëĳĶ": 5647,
      "ìĳ": 5648,
      "Ġíĥľìĸĳ": 5649,
      "Ġê°Ħëĭ¨": 5650,
      "ĠíķľêµŃìĿ¸": 5651,
      "ì§ĳëĭ¨": 5652,
      "Ġì¢ĥ": 5653,
      "ĠëŁ°": 5654,
      "Ġê²ĥëĵ¤": 5655,
      "ĠíĮĢìĿĺ": 5656,
      "ä¹": 5657,
      "ë°ĽìĿĦ": 5658,
      "Ġëĸ¨ìĸ´ì§Ħ": 5659,
      "Ġìľłì¹ĺ": 5660,
      "Ġìĥģì§ķ": 5661,
      "ì£¼ëıĦ": 5662,
      "Ġê¸°ëıħêµĲ": 5663,
      "Ġìĸ´ëĬĲìłķëıĦ": 5664,
      "ĠìķĦêµ°": 5665,
      "ist": 5666,
      "ĠíĬ¹ìĿ´": 5667,
      "ĠìķĦíĮĮíĬ¸": 5668,
      "ê²łìĸ´": 5669,
      "Ġìĥģíĥľë¡ľ": 5670,
      "ĠìµľíĽĦ": 5671,
      "ìĺģìĥģ": 5672,
      "ĠíķľêµŃëĭ¹": 5673,
      "Ġíĥľìĸ´": 5674,
      "ĠíħĲ": 5675,
      "íķĻìŀĲ": 5676,
      "åį": 5677,
      "ìĦĿìĿĢ": 5678,
      "å°": 5679,
      "ĠìłĦíĨµ": 5680,
      "íĸĪê¸°": 5681,
      "ĠìĤ½": 5682,
      "Ġë°©ìĤ¬": 5683,
      "Ġëħ¼ë¦¬": 5684,
      "ë§Īë¦¬": 5685,
      "ĠìŀĲê°Ģ": 5686,
      "Ġë¬´íķľ": 5687,
      "ìĤŃ": 5688,
      "Ġê°ĢëĵĿ": 5689,
      "iz": 5690,
      "Ġë§ĪìĿĮìĿĦ": 5691,
      "if": 5692,
      "Ġë§İìĿĢëį°": 5693,
      "ĠëĮĢíķ´ìĦľëĬĶ": 5694,
      "íĺķìĿ´": 5695,
      "Ġìĺ¤ëŀľ": 5696,
      "Ġíķµìĭ¬": 5697,
      "ë¬´ê¸°": 5698,
      "Ġë¶Īíİ¸": 5699,
      "Ġë¬¶": 5700,
      "Ġìĺģìŀħ": 5701,
      "íĺ¸ëĬĶ": 5702,
      "ì©¡": 5703,
      "ì°¨ë¡ľ": 5704,
      "ìłĦìľ¼ë¡ľ": 5705,
      "Ńī": 5706,
      "ĠìµľìĪľìĭ¤": 5707,
      "ĠëĤĺëĪĦ": 5708,
      "ĠìĥĿê²¨": 5709,
      "ĠìĿĺíķľ": 5710,
      "ëĭ¨ê³Ħ": 5711,
      "Ġì¡°ìĦłì¡±": 5712,
      "Ġëĵ¤ìĸ´ìĦľ": 5713,
      "ì´Īëĵ±íķĻêµĲ": 5714,
      "Ġìĸµìļ¸": 5715,
      "Ġì´ī": 5716,
      "ë½": 5717,
      "ê±°ê³ł": 5718,
      "íĤ¤ìĿĺ": 5719,
      "ĠìĻ¸êµŃìĿ¸": 5720,
      "ìĹĲê²ĮëıĦ": 5721,
      "Ġê¶": 5722,
      "Ġíİĺë¯¸": 5723,
      "ĠìĮ": 5724,
      "ĠáĦĭ": 5725,
      "Ġëĭ¤ë¦Ħ": 5726,
      "ë¬´ëĿ¼": 5727,
      "ëĬĶê±°ìķ¼": 5728,
      "Ġë¶ĢëĮĢ": 5729,
      "90": 5730,
      "Ġíı¬ì¼ĵëª¬": 5731,
      "Ġì¢ħì¡±": 5732,
      "ì»´": 5733,
      "ĠCh": 5734,
      "ìĹĨìĸ´": 5735,
      "ĠëĤ¬": 5736,
      "ê¸°ì§Ģ": 5737,
      "ĠìµľìķħìĿĺ": 5738,
      "ê³łëıĦ": 5739,
      "ëĵ¤ìĿ´ëĤĺ": 5740,
      "Ġì¦Ŀëªħ": 5741,
      "ĠìľĦìķĪ": 5742,
      "ĠíĮ©íĬ¸": 5743,
      "up": 5744,
      "ìĿ´ëĿ¼ë©°": 5745,
      "ĠíĻįì½©": 5746,
      "ê²¹ëĭ¤": 5747,
      "Ġì¤ĳëĭ¨": 5748,
      "ë²ķìĿ´": 5749,
      "Ġë§Īë¬´ë¦¬": 5750,
      "ë¥´ìĿĺ": 5751,
      "íĮĲìĹĲ": 5752,
      "!)": 5753,
      "ìĦ¸ìĿĺ": 5754,
      "ĠìłĦìĤ¬": 5755,
      "ëĭ¨ëĭ¤": 5756,
      "ë¡ľìļ°": 5757,
      "ĠíĹĪìļ©": 5758,
      "Ġì°¨ìĿ´": 5759,
      "ĠëıĻìĽĲ": 5760,
      "ë©´ìĦľëıĦ": 5761,
      "ì§ĢìŀĲ": 5762,
      "Ġë¶Īê°Ģ": 5763,
      "Ġë³¸ëŀĺ": 5764,
      "ĠìĭľëĤĺ": 5765,
      "Ġíĳľìĭľ": 5766,
      "ĠíĬ¸ìľĦ": 5767,
      "ìķĦëĬĶ": 5768,
      "Ġ2004": 5769,
      "Ġê·¸ëŁ¬ë©´": 5770,
      "ĠíĻķë³´": 5771,
      "27": 5772,
      "Ġì¤ĳêµŃìĹĲ": 5773,
      "Ġì§ĳê°Ĵ": 5774,
      "ëľ»": 5775,
      "ì§ĢëĿ¼": 5776,
      "ĠëģĿëĤ´": 5777,
      "æĺ": 5778,
      "ìĹĲê²ĮìĦľ": 5779,
      "Ġë§ŀì§Ģ": 5780,
      "Ġêº": 5781,
      "íĮ¡": 5782,
      "Ġì§ĳê¶Į": 5783,
      "íĬ¹íŀĪ": 5784,
      "ìĥģíĻ©": 5785,
      "ë°ĺëıĦ": 5786,
      "Ġë°ķìĤ´": 5787,
      "ĠìħĢ": 5788,
      "Ġìļ°íĮĮ": 5789,
      "ãĤĮ": 5790,
      "ë¥´íĬ¸": 5791,
      "ìļĶì¦ĺ": 5792,
      "Ġë¬¼ê³ł": 5793,
      "ĠìĿĢíĩ´": 5794,
      "ĠìĽ¬": 5795,
      "ë¦ī": 5796,
      "Ġê³µìłķ": 5797,
      "ĠìŀħëĭĪëĭ¤": 5798,
      "Ġë¹µ": 5799,
      "ê³łê°Ģ": 5800,
      "ä½": 5801,
      "Ġë³´ìĥģ": 5802,
      "ĠìłĦíĻĺ": 5803,
      "ê³¼íķĻ": 5804,
      "ë¦¬ëĭ¤": 5805,
      "Ġëĭ¤ëĭĪëĬĶ": 5806,
      "ìłĦìŀĲ": 5807,
      "ĠìĥĿê°ģíķĺê³ł": 5808,
      "ëĤĺë¬´": 5809,
      "ëħĦëıĦ": 5810,
      "Ġê·¸ìĹĲ": 5811,
      "ìĿ¼ë¡ľ": 5812,
      "ĠìķĮëł¤ìł¸": 5813,
      "ĠëĮĢì²ĺ": 5814,
      "ë°Ķëĭ¥": 5815,
      "ĠíĥĵìĹĲ": 5816,
      "ê´Ģë¦¬": 5817,
      "Ġëĵ¤ìĿ´": 5818,
      "Ġì§ľì¦Ŀ": 5819,
      "íķ´ì§Ħëĭ¤": 5820,
      "ìĭľìłĪ": 5821,
      "ĠìĬ¤íı¬ì¸ł": 5822,
      "íķĺëĦ¤ìļĶ": 5823,
      "ãĤĴ": 5824,
      "Ġëį°ë¦¬ê³ł": 5825,
      "ë¡łìĿĦ": 5826,
      "Ġë§ĲìĿ´ëĭ¤": 5827,
      "ĠìķĦì¹¨": 5828,
      "Ġê±¸ìĸ´": 5829,
      "Ġì·¨ìĨĮ": 5830,
      "33": 5831,
      "ëĤĺë¥¼": 5832,
      "Ġë¬µ": 5833,
      "Ġê·¸ìķ¼ë§Ĳë¡ľ": 5834,
      "ãģı": 5835,
      "Ġê°Ģì§ľëī´ìĬ¤": 5836,
      "ĠëĤłëł¤": 5837,
      "Ġëª¨ìķĦ": 5838,
      "ê°¤": 5839,
      "ë©Ģ": 5840,
      "Ġê°ľìĦł": 5841,
      "Ġìĸ´ìĿ´": 5842,
      "ate": 5843,
      "ë¶ģëıĦ": 5844,
      "Ġíı°": 5845,
      "Ġìµľì´Īë¡ľ": 5846,
      "ĠìĿ¸ë¯¼": 5847,
      "ĠìĥģìĭĿ": 5848,
      "Ġë¸Ķë£¨": 5849,
      "oo": 5850,
      "Ġìĺ¤ë¡ľ": 5851,
      "ìĦ¸ëł¥": 5852,
      "ĠíħĮëŁ¬": 5853,
      "Ġë§Įëĵľ": 5854,
      "íķĺê²łëĭ¤": 5855,
      "Ġë¶ĦìĹ´": 5856,
      "ĠëĬĺìĸ´ëĤĺ": 5857,
      "ìĿ´ìĹĪê³ł": 5858,
      "Ġìķ¼ëĭ¹": 5859,
      "ëĵľìĻĢ": 5860,
      "Ġì²ŃëħĦ": 5861,
      "Ġê°Ĳìłķ": 5862,
      "ìĿ´ëĭĿ": 5863,
      "ãģ¾": 5864,
      "ê°ĢìĻĢ": 5865,
      "Ġì¼Ħ": 5866,
      "cm": 5867,
      "Ġì¤ĳìĭ¬ìľ¼ë¡ľ": 5868,
      "ëĤĺê°Ħ": 5869,
      "ĠëĤľìĿ´ëıĦ": 5870,
      "ĠìľĪ": 5871,
      "íĮĲìĿĦ": 5872,
      "ìŀĲëĵ¤ìĿĦ": 5873,
      "Ġë¹ļ": 5874,
      "Ġëĭ¤ë¥¼": 5875,
      "Ġê³łìĨĮ": 5876,
      "Ġ1000": 5877,
      "ĠìĿĺíķĺë©´": 5878,
      "ìĿĺê°Ģ": 5879,
      "ì§Ģë©°": 5880,
      "ĠìĹħê·¸": 5881,
      "íķ©ìĭľëĭ¤": 5882,
      "AN": 5883,
      "ìĿ¸ë¯¼": 5884,
      "Ġìłľìĭľ": 5885,
      "ĠìĹĨì§Ģ": 5886,
      "ëĭ¬ì°½": 5887,
      "êµ°ìĹĲ": 5888,
      "ĠìĻ¸ìĹĲëıĦ": 5889,
      "ĠìłĢì§Ī": 5890,
      "ĠìĸĳìķĦì¹ĺ": 5891,
      "ë²Ħëł¸": 5892,
      "ang": 5893,
      "Ġì§¤": 5894,
      "ìĺ¤ëĬĺ": 5895,
      "ìŁģìĿ´": 5896,
      "ard": 5897,
      "ĠíĽĮë¥Ń": 5898,
      "êµŃë¯¼ìĿ´": 5899,
      "ì²łìĪĺ": 5900,
      "Ġìĺ¤ë²Ħ": 5901,
      "Ġëª°ëŀĲ": 5902,
      "Ġê·¸ë¦°": 5903,
      "íķ´ì£¼ëĬĶ": 5904,
      "ìķĦì§ģëıĦ": 5905,
      "ĠìĹ°ìŀ¥": 5906,
      "ê²½ìĿ´": 5907,
      "ãģĮ": 5908,
      "Ġê°±": 5909,
      "Ġê·¸ëł¤": 5910,
      "Ġìī´": 5911,
      "ĠëĮĢê²°": 5912,
      "ĠìŀĪëıĦë¡Ŀ": 5913,
      "ĠìķĦë¦Ħ": 5914,
      "ëĨ¨": 5915,
      "ëĤĺëĿ¼ê°Ģ": 5916,
      "Ġê²Ģìĥī": 5917,
      "Ġê¹Ĭ": 5918,
      "ĠíĤ¬": 5919,
      ")]": 5920,
      "ĠìĦľë¹ĦìĬ¤": 5921,
      "Ġ{{{#!": 5922,
      "Ġì½©": 5923,
      "íĥĢìŀĦ": 5924,
      "ëĨĪëĵ¤ìĿ´": 5925,
      "íĬ¸ëĿ¼": 5926,
      "Ġëºı": 5927,
      "Ġê¸°ê°Ģ": 5928,
      "Ġë¯¸ëĭĪ": 5929,
      "ë½ĳ": 5930,
      "Ġê³µê°Ĳ": 5931,
      "ĠìĿ¼ë¶ĢëŁ¬": 5932,
      "Ġê³łëĮĢ": 5933,
      "ĠíĶĦë¡ľìłĿ": 5934,
      "íĥĲ": 5935,
      "ìļ©ìĿĦ": 5936,
      "Ġìĭľíĸī": 5937,
      "ì£¼ì§Ģ": 5938,
      "ĠíĶ½": 5939,
      "ìķĦë¦¬": 5940,
      "Ġì¤ĳë°ĺ": 5941,
      "ëĭĺìĿĺ": 5942,
      "Ġì°įìĸ´": 5943,
      "ĠëĮĢê¸°": 5944,
      "Ġì¢ģ": 5945,
      "Ġê·¸ëĵ¤ìĿĺ": 5946,
      "ë¬¼ë¡ľ": 5947,
      "ëłĪìĿ¸": 5948,
      "ì§ĦìĿĺ": 5949,
      "ìŀ¥ê³¼": 5950,
      "Ġê±´ëĭ´": 5951,
      "Ġê¾¸ì¤Ģ": 5952,
      "ĠëģĿëĤľ": 5953,
      "ĠíķĺìĦ¸ìļĶ": 5954,
      "Ġë³´ìĹ¬ì£¼ëĬĶ": 5955,
      "Ġìħĭ": 5956,
      "Ġê±°ëĳĲ": 5957,
      "ìĭľìĦ¤": 5958,
      "Ġë¨¹ìĿĦ": 5959,
      "Ġëĭ¹ìĭłìĿ´": 5960,
      "ĠìĿ´íķĺ": 5961,
      "Ġíķ´ìĦĿ": 5962,
      "ĠìľĮ": 5963,
      "Ġê³ĦìĤ°": 5964,
      "Ġëª©ìĨĮë¦¬": 5965,
      "ĠìłĲìĿ´": 5966,
      "Ġë§ĲíĸĪëĭ¤": 5967,
      "ìĭĿìĿĺ": 5968,
      "Ġì§Ŀ": 5969,
      "ëłĪìĿ´ìħĺ": 5970,
      "íĨ±": 5971,
      "ĠìµľìĨĮíķľ": 5972,
      "ì§ĦêµŃ": 5973,
      "ĠáĦĢ": 5974,
      "ĠìķĦíĶĦë¦¬ì¹´": 5975,
      "Ġìłľìķķ": 5976,
      "29": 5977,
      "ìĺ¹": 5978,
      "Ġëĸ¨ìĸ´ì§ĢëĬĶ": 5979,
      "ì¤ĳìķĻ": 5980,
      "ì¹ľìĿ¼": 5981,
      "Ġê¸°ë¶Ģ": 5982,
      "íĴĪìĿĦ": 5983,
      "ĠìļĶë¦¬": 5984,
      "Ġíŀĺëĵ¤ëĭ¤": 5985,
      "ëłĢëĭ¤": 5986,
      "Ġì¹ĺëªħ": 5987,
      "ĠìĺĽëĤł": 5988,
      "Ġìĭ¤ìĭľ": 5989,
      "ant": 5990,
      "ë¥łìĿ´": 5991,
      "ĠìķĻ": 5992,
      "Ġë¡ľë´ĩ": 5993,
      "ĠìķŀìĦľ": 5994,
      "ìłĪíķľ": 5995,
      "Ġê¸°ìĤ¬ë¥¼": 5996,
      "ì²ŃìĻĢ": 5997,
      "ON": 5998,
      "íĬ¸ìĹĲìĦľ": 5999,
      "å·": 6000,
      "ĠìķĪëĤĺ": 6001,
      "íķ´ê°Ģ": 6002,
      "IN": 6003,
      "ĠëıĦìĽĢìĿĦ": 6004,
      "íĻĪ": 6005,
      "ë¬´ìĭľ": 6006,
      "Ġx": 6007,
      "ëĸ¼": 6008,
      "ê·ľëª¨": 6009,
      "ĠëıĦìłĦ": 6010,
      "ëĸł": 6011,
      "ë¯¸ëĬĶ": 6012,
      "Ġë³¸ê²©": 6013,
      "ìĬ¤ìĹĲìĦľ": 6014,
      "ĠíĿĶëĵ¤": 6015,
      "Ġëĵ¯íķľ": 6016,
      "Ġê·¸ë§Įíģ¼": 6017,
      "ĠìłķìĭĿ": 6018,
      "Ġì§Ħìłķ": 6019,
      "ĠìłĦì°¨": 6020,
      "Ġê³łëĵ±íķĻêµĲ": 6021,
      "one": 6022,
      "Ġíİľ": 6023,
      "íļ¨ê³¼": 6024,
      "ê³µíķŃ": 6025,
      "íķ´ì¡Įëĭ¤": 6026,
      "ĠìĿ´ëĵ¤ìĿĢ": 6027,
      "ĠíķĦìļĶíķĺëĭ¤": 6028,
      "45": 6029,
      "ĠìķĦìĭľìķĦ": 6030,
      "ìĹŃìľ¼ë¡ľ": 6031,
      "å±": 6032,
      "ìķĪìĹĲ": 6033,
      "%,": 6034,
      "ëĵ±ìĿĦ": 6035,
      "Ġê²Ģì°°ê°ľíĺģ": 6036,
      "ĠìŀĲìĦ¸íķľ": 6037,
      "ĠìĥģíĻ©ìĹĲ": 6038,
      "Ġê³³ìĹĲ": 6039,
      "ëĵłê°Ģ": 6040,
      "íĻĶìĹĲ": 6041,
      "Ġíķĺëĭ¤ê°Ģ": 6042,
      "ì¥¬": 6043,
      "Ġvs": 6044,
      "ep": 6045,
      "Ġë¹Ħìĭ¸": 6046,
      "Ġìĺ¤ì§Ģ": 6047,
      "Ġë¯¸êµŃìĿ´": 6048,
      "ĠìľĦìĽĲ": 6049,
      "ìĿ¼ë³¸ìĿĺ": 6050,
      "ĠìķĦëĭĪì§Ģ": 6051,
      "Ġë¶Ħìķ¼": 6052,
      "ĠìĿ´ìĻĢ": 6053,
      "ë§ĮìĿĢ": 6054,
      "ìĪĺìĪĺ": 6055,
      "ìłķìĥģ": 6056,
      "ĠíĬ¹ìľłìĿĺ": 6057,
      "êµ¬ë¦¬": 6058,
      "Ġìłķì¹ĺìłģ": 6059,
      "Ġë¹¡": 6060,
      "ĠíıīìĨĮ": 6061,
      "ëĭŃ": 6062,
      "íĦ°ë¥¼": 6063,
      "Ġìª½ë°Ķë¦¬": 6064,
      "ĠìķĦìĭľ": 6065,
      "ĠëĤ´ìļ©ìĿĢ": 6066,
      "ĠêµŃê°ĢëĮĢíĳľ": 6067,
      "ĠëĳĲëł¤": 6068,
      "ë¯¸ìĿĺ": 6069,
      "ãĢģ": 6070,
      "Ġê°ģìĦ±": 6071,
      "Ġíķĺëĵľ": 6072,
      "ĠìĨĲìĹĲ": 6073,
      "Ġìĺ¤ëĬĶ": 6074,
      "ĠìĿ´ëĵĿ": 6075,
      "ĠìĿ¸ë¥ĺ": 6076,
      "ĠìľĦìĿĺ": 6077,
      "ĠíĻķìŀ¥": 6078,
      "Ġëĵ±ë¡Ŀ": 6079,
      "Ġê°Ģë¦¬": 6080,
      "Ġì´ĪëĮĢ": 6081,
      "ìŀĸìķĦìļĶ": 6082,
      "ĠíķĺëĤĺìĿĺ": 6083,
      "ĠëĴ¤ë¡ľ": 6084,
      "Ġëª¸ìĿĦ": 6085,
      "ĠìķĪëĲľ": 6086,
      "ĠìĿ´ì§Ģ": 6087,
      "ë§ĪìĿĺ": 6088,
      "ëĵľëĿ¼ë§Ī": 6089,
      "Ġê¸°ë³¸ìłģìľ¼ë¡ľ": 6090,
      "ĠìĤ¬ìĭ¤ìĿ´": 6091,
      "ê°ĢëĿ¼": 6092,
      "ì¤ĳíķĻêµĲ": 6093,
      "íĬ¸ë¡¤": 6094,
      "Ġë³¸ìĿ¸ìĿĢ": 6095,
      "Ġìłķë³´ë¥¼": 6096,
      "Ġë¯¸ìķĪ": 6097,
      "ĠëĤľìĿ´": 6098,
      "ê²łì£ł": 6099,
      "ĠìĨįëıĦ": 6100,
      "Ġ2002": 6101,
      "Ġê·Ģì¡±": 6102,
      "ë³¸ëĭ¤": 6103,
      "ìĻķìĿĺ": 6104,
      "ĠìĿ´ë¯¼": 6105,
      "ëıĦìļ°": 6106,
      "ãĤĬ": 6107,
      "ëĮĢì¤ĳ": 6108,
      "ĠëĨĪìĿ´": 6109,
      "ëª©ìĿĦ": 6110,
      "ĠíĥĢìĿ´íĭĢ": 6111,
      "ĠëĤĺê²½ìĽĲ": 6112,
      "Ġë°Ķíĥķ": 6113,
      "Ġë´Ħ": 6114,
      "Ġëĭ¤íģ¬": 6115,
      "Ġìĭ¤ëł¥": 6116,
      "Ġì£½ìĿ´": 6117,
      "ne": 6118,
      "ĠíĹĽìĨĮë¦¬": 6119,
      "ìĭľíĤ¨ëĭ¤": 6120,
      "íĻĶë¬¸": 6121,
      "Ġìŀ¥ë©´ìĿ´": 6122,
      "ë¶Ģëª¨": 6123,
      "ì£¼ìĭľ": 6124,
      "Ġìĭľë¦¬ì¦ĪìĿĺ": 6125,
      "íĶ¼ìķĦ": 6126,
      "ĠìĥĿìĦ±": 6127,
      "Ġê°Ĵ": 6128,
      "íķĺëįĶëĭĪ": 6129,
      "ê´Ģëł¨": 6130,
      "ĠìĿ¼ëŁ¬": 6131,
      "ëł¤ëĤĺ": 6132,
      "Ġë¶Ģë¶ĦìĿ´": 6133,
      "ĠëĲĺë©´ìĦľ": 6134,
      "ëħĦìĿĺ": 6135,
      "ĠíĦ´": 6136,
      "Ġê·¸ëłĩëĭ¤ê³ł": 6137,
      "Ġì§Ħìŀħ": 6138,
      "ĠìĤ¬ê¸°ê¾¼": 6139,
      "ss": 6140,
      "ìĪŃìĿ´": 6141,
      "íĥĢëĬĶ": 6142,
      "Ġë§Īëł¨": 6143,
      "ĠëĦĪëıĦ": 6144,
      "ĠëĶĶìŀĲ": 6145,
      "æŃ": 6146,
      "Ġê¸°íļĮ": 6147,
      "ì§ĵìĿĦ": 6148,
      "ì§ĢëĤĺ": 6149,
      "ĠëĨĪëĵ¤ìĿ´": 6150,
      "ìĤ¬ëŀĮëĵ¤": 6151,
      "ĠìĿĳìĽĲíķ©ëĭĪëĭ¤": 6152,
      "ĠíĸīìĤ¬": 6153,
      "ĠíĻįë³´": 6154,
      "Ġë©Ģë¦¬": 6155,
      "Ġë¡Ŀ": 6156,
      "ĠíĻľëıĻìĿĦ": 6157,
      "Ġíĺ¼ëŀĢ": 6158,
      "Ġë³´ì¡°": 6159,
      "ìĸ´ëĶĶ": 6160,
      "Ġë²Ħê·¸": 6161,
      "íĮ¨ë¥¼": 6162,
      "ëĭ¤ìĿ´": 6163,
      "ìĿ¸ê°ĢìļĶ": 6164,
      "ëĵ¤ìĹ¬": 6165,
      "ĠìĤ´ëł¤": 6166,
      "ìĽłëĭ¤": 6167,
      "Ġë³´ìĺĢëĭ¤": 6168,
      "ĠëĶĶì§Ģ": 6169,
      "ĠìµľëĮĢíķľ": 6170,
      "Ġê±¸ë¡ľ": 6171,
      "íĺ¸ìĿĺ": 6172,
      "ìĿ´ë¯Ģë¡ľ": 6173,
      "ĠìĿ´ê²ĥìĿ´": 6174,
      "Ġì§ĵìĿĦ": 6175,
      "Ġëª¨ìĬµìľ¼ë¡ľ": 6176,
      "Ġë¬´ìĤ¬": 6177,
      "ìĨįëıĦë¡ľ": 6178,
      "Ġë§İê³ł": 6179,
      "ĠìĹ°ìŀ¬": 6180,
      "Ġìľ¤ìĦĿìĹ´": 6181,
      "ĠëģĿëĤĺ": 6182,
      "ĠìĬ¤ìľĦ": 6183,
      "ĠìłĦìŀĲ": 6184,
      "Ġì¡°ìĦłìĿ¼ë³´": 6185,
      "Ġìŀ¥ìķł": 6186,
      "íİł": 6187,
      "ì§Ħíķĳ": 6188,
      "Ġë©ľ": 6189,
      "Ġì£¼ëıĦ": 6190,
      "êµĲíĨµ": 6191,
      "ê²łëĦ¤ìļĶ": 6192,
      "Ġ....": 6193,
      "ĠìĤ¬ìŀ¥": 6194,
      "ĠëĤĺìĺ¤ë©´": 6195,
      "íĨłë¦¬": 6196,
      "ìŀĪê²Į": 6197,
      "ì½ĶìĿĺ": 6198,
      "ĠíļĮíĶ¼": 6199,
      "Ġìĵ°ì§Ģ": 6200,
      "ìĤ°ìĹħ": 6201,
      "Ġëĭ¤ìļ´": 6202,
      "ìĨĮëħĢ": 6203,
      "åĪ": 6204,
      "ĠìĤ¬ëŀĮëĵ¤ìĿĦ": 6205,
      "ĠëĤ´ìĹĲìĦľ": 6206,
      "ë²ĮëłĪ": 6207,
      "íĸĪëĬĶì§Ģ": 6208,
      "Ġëį©": 6209,
      "Ġëħ¸ì¡°": 6210,
      "Ġê°Ģìķ¼": 6211,
      "Ġìĺ¨ëĿ¼ìĿ¸": 6212,
      "Ġê±¸ëł¤": 6213,
      "Ġë²Įìį¨": 6214,
      "ìķĦìĽĥ": 6215,
      "Ġì²¨": 6216,
      "ĠìĿĮìĭĿ": 6217,
      "Ġìłģëĭ¹íŀĪ": 6218,
      "ĠìĪĺë°ĸìĹĲ": 6219,
      "Ġíķ¸": 6220,
      "KBS": 6221,
      "ith": 6222,
      "ìŀĪëĥĲ": 6223,
      "PC": 6224,
      "Ġê´´ë¡Ń": 6225,
      "ëĵľëĿ¼": 6226,
      "íķĺìŀĲë©´": 6227,
      "Ġ35": 6228,
      "ers": 6229,
      "íĬ¸ìĻĢ": 6230,
      "ìĶ¨ëĬĶ": 6231,
      "ĠíĥĢì¹´": 6232,
      "Ġëĸ¨ìĸ´ìł¸": 6233,
      "Ġì§Ģì§ĢíķĺëĬĶ": 6234,
      "ëĮĢìĹĲìĦľ": 6235,
      "Ġíģ¬ëĭ¤": 6236,
      "Ġëĭ¨ìĪľíŀĪ": 6237,
      "ĠìĿ´ëŁ´": 6238,
      "Ġìĭłë¬¸": 6239,
      "Ġê²½ìĺģ": 6240,
      "ë°ĶëĿ¼": 6241,
      "ë¹¨ë¦¬": 6242,
      "Ġë¶Ģë¥´ëĬĶ": 6243,
      "íĹ¨": 6244,
      "og": 6245,
      "ĠíĹĮë²ķ": 6246,
      "ĠìĶ¹": 6247,
      "Ġëª°ëł¤": 6248,
      "ĠíŀĺëĤ´": 6249,
      "ìĦłìĹĲ": 6250,
      "ĠìłĦëĳĲíĻĺ": 6251,
      "êµĲíļĮ": 6252,
      "Ġìĺµìħĺ": 6253,
      "Ġì°¨ë³Ħ": 6254,
      "ëĿ¼ìĿ´ëįĶ": 6255,
      "Ġë¬´ëĬ¥íķľ": 6256,
      "íĮĶìĿ´": 6257,
      "íĥĢìĿ´": 6258,
      "ĠìĬ¤íģ¬": 6259,
      "Ġë¯¼ê°Ħ": 6260,
      "ìłķë¶Ģê°Ģ": 6261,
      "ê³µê°ľ": 6262,
      "íķĺê¸¸": 6263,
      "Ġê±°ëŀĺ": 6264,
      "ìľłê°Ģ": 6265,
      "Ġìµľì´ĪìĿĺ": 6266,
      "math": 6267,
      "ĠëªħìĿĺ": 6268,
      "Ġë¹Ħë¡Ģ": 6269,
      "ĠëĤ´ëĬĶ": 6270,
      "Ġê¼½": 6271,
      "ìĪĺìĹĲ": 6272,
      "íıīê°Ģ": 6273,
      "Ġíı¬íķ¨íķľ": 6274,
      "ĠìķĬëĤĺ": 6275,
      "Ġëĭ¤ê°Ģ": 6276,
      "Ġê³µê¸ī": 6277,
      "ê¹Įì§ĢëıĦ": 6278,
      "ëĮĢíļĮ": 6279,
      "Ġìķķë°ķ": 6280,
      "ê±°ë¦¬ê°Ģ": 6281,
      "ĠìĦľë²Ħ": 6282,
      "ĠìĹ¬ë¦Ħ": 6283,
      "Ġê³łìļ©": 6284,
      "Ġë©¸ë§Ŀ": 6285,
      "ìłĢê¸°": 6286,
      "íĦ°ê°Ģ": 6287,
      "ì¡ĮëĦ¤": 6288,
      "ë°ľìĿĦ": 6289,
      "ĠíĮĮìĿ´": 6290,
      "ĠìķĦë¹ł": 6291,
      "Ġëª¨ë¥¸": 6292,
      "ĠìĿĺìĻ¸ë¡ľ": 6293,
      "íķĺìĿ´": 6294,
      "ì²łëıĦ": 6295,
      "ë°ľìĿ´": 6296,
      "ĠìĪĺì¤ĢìĿĺ": 6297,
      "ìľ¼ë¡ľëıĦ": 6298,
      "ìĹ°íķ©": 6299,
      "Ġê±°ëĭ¤": 6300,
      "ãģł": 6301,
      "ĠëĤĺëĪł": 6302,
      "ì°¸ê³ł": 6303,
      "ĠëĳĺìĿ´": 6304,
      "ĠíĻĪëŁ°": 6305,
      "ì¹´ê°Ģ": 6306,
      "ìĥģìĹĲìĦľ": 6307,
      "Ġë¹Ħë¦¬": 6308,
      "ì§Ģë°©": 6309,
      "Ġê¸°íļį": 6310,
      "ìķĪíĥĢ": 6311,
      "(,": 6312,
      "Ġë³ĳìĽĲ": 6313,
      "Ģëĭ¤": 6314,
      "ĠìĿĺëıĦ": 6315,
      "ì§ĦìĿĢ": 6316,
      "ĠíĮĮìĿ¼": 6317,
      "ĠíĺķìĦ±": 6318,
      "ëĭ¨ìĿĢ": 6319,
      "Ġë§ĪìĤ¬": 6320,
      "~!": 6321,
      "ĠìľłëıĦ": 6322,
      "Ġë¹¨ìķĦ": 6323,
      "ĠìĪĺíĺ¸": 6324,
      "ìĿ´ë¦Ħ": 6325,
      "íķĺìĭł": 6326,
      "ĠíĸīëıĻìĿĦ": 6327,
      "ë§Īë¥¼": 6328,
      "Ġê¸¸ìĿĦ": 6329,
      "ë¯¸ëĶĶ": 6330,
      "ĠìłĪë°ĺ": 6331,
      "ìķ¤": 6332,
      "Ġë§Ĳìķĺëĭ¤": 6333,
      "ìĦ¸ìĿ´": 6334,
      "Ġê·¸ë¦¬ìĬ¤": 6335,
      "Ġê¸°ë¶Ħ": 6336,
      "Ġë²ķìĿĦ": 6337,
      "ì¯§": 6338,
      "ìĹ¬ëĭ´ìľ¼ë¡ľ": 6339,
      "195": 6340,
      "ĠìľĦë¡ľ": 6341,
      "ĠìŀĳìĦ±": 6342,
      "ìŀĲìĭĿ": 6343,
      "ĠíĬ¸ë¦¬": 6344,
      "Ġëª°ëĿ¼": 6345,
      "Ġë¶īìĿĢ": 6346,
      "æĹ": 6347,
      "ground": 6348,
      "Ġê°ĲìķĪ": 6349,
      "ĠëıĦëĳĳ": 6350,
      "Ġìª¼": 6351,
      "ĠìĿ´íĽĦìĹĲ": 6352,
      "ìĦ¸ë¡ľ": 6353,
      "ìĨįìĹĲ": 6354,
      "ìĽ¨ìĸ´": 6355,
      "ĠìĿ¸ì¦Ŀ": 6356,
      "ĠíķľêµŃìĹĲ": 6357,
      "íĸĪëĦ¤": 6358,
      "Ġì±Ļê²¨": 6359,
      "Ġìĸ´ëłµëĭ¤": 6360,
      "Ġìĺ¤íĶĦ": 6361,
      "Ġê±°ì³Ĳ": 6362,
      "03": 6363,
      "Ġì§ĳìĹĲìĦľ": 6364,
      "íģ´ë¡ľ": 6365,
      "ìĹŃìĿ´": 6366,
      "ĠëĥĦìĥĪ": 6367,
      "Ġêµ¬ìŀħ": 6368,
      "ì¤ĺëĿ¼": 6369,
      "Ġì¹´ìĿ´": 6370,
      "Ġì¹Ńì°¬": 6371,
      "ëŁ½ëĭ¤": 6372,
      "Ġ2003": 6373,
      "ìĿ¼ê¹Į": 6374,
      "Ġì»¬": 6375,
      "ĠëĪĪìĿĦ": 6376,
      "ë§ĪëĤĺ": 6377,
      "Ġì¶Ķì§Ħ": 6378,
      "Ġëĭĺ": 6379,
      "ĠíĶ¼íķ´ìŀĲ": 6380,
      "ãģĵ": 6381,
      "íķŃê³µ": 6382,
      "ĠíŀĪìĸ´ë¡ľ": 6383,
      "ê³ĦìĹĲ": 6384,
      "ive": 6385,
      "ë§Īë²ķ": 6386,
      "Ġê²¹": 6387,
      "ĠëĶ°ë¥¸": 6388,
      "ĠìĦ¸ê¸Īìľ¼ë¡ľ": 6389,
      "ast": 6390,
      "ãĢı": 6391,
      "Ġì²´íı¬": 6392,
      "ĠëĲĺê¸°": 6393,
      "ĠíĸĪìĿĦ": 6394,
      "ëĮĢê¹¨ë¬¸": 6395,
      "Ġê¶¤": 6396,
      "ĠìŀĲëıĻì°¨": 6397,
      "ìĦ°": 6398,
      "ë§ŀëĬĶ": 6399,
      "Ġì§Ħìĺģ": 6400,
      "ëĽ°": 6401,
      "ĠíķľêµŃìĿĢ": 6402,
      "ìĭľíĭ°": 6403,
      "ìĤ°ìĿ´": 6404,
      "ëĬĶê±°ëĭ¤": 6405,
      "Ġê°Ķëĭ¤": 6406,
      "ĠìĹł": 6407,
      "ì½Ķë¡ľëĤĺ": 6408,
      "Ġìĭ¤ë§Ŀ": 6409,
      "Ġëĭ¤ëħĢ": 6410,
      "ìķĺìĿĦ": 6411,
      "ĠíĽĦìĨĲ": 6412,
      "Ġê¸°ëıĻ": 6413,
      "ĠëĲľëĭ¤ëĬĶ": 6414,
      "Ġë¬´ìĦľìļ´": 6415,
      "ê³¨ìĿĦ": 6416,
      "êµŃìĿĦ": 6417,
      "ìĭľì¼°ëĭ¤": 6418,
      "ëłĲ": 6419,
      "ë£¨ìĬ¤": 6420,
      "Ġë¶ģíķľìĹĲ": 6421,
      "ĠìŀĪìĹĪìľ¼ëĤĺ": 6422,
      "Ġëħ¼ëŀĢìĿ´": 6423,
      "Ġëĵ±ê¸ī": 6424,
      "Ġê¸°ì¡´ìĿĺ": 6425,
      "ĠìıŁìķĦ": 6426,
      "íķĺìĹĲ": 6427,
      "ë§ĺ": 6428,
      "ë§ĪìĬ¤íģ¬": 6429,
      "íĶĦë¦¬": 6430,
      "Ġë´Ĳìķ¼": 6431,
      "íķľê²ĥ": 6432,
      "ë¯¸ìķł": 6433,
      "ìķĦë¬´": 6434,
      "ìĤ¬íĥľ": 6435,
      "ãĤ¤": 6436,
      "ĠíĮ¨ì¹ĺ": 6437,
      "ìĭľë¸Į": 6438,
      "ë¶ĢìĹĲìĦľ": 6439,
      "ĠíĬ¹ìĦ±ìĥģ": 6440,
      "ëĬĶê±´": 6441,
      "ĠëĤ¨íķľ": 6442,
      "Ġê²½ìĥģ": 6443,
      "2009": 6444,
      "íĻĶëĬĶ": 6445,
      "ì¹ľêµ¬": 6446,
      "ë£¨ê°Ģ": 6447,
      "íĨ¡": 6448,
      "ĠìĺĨìĹĲ": 6449,
      "Ġë°¸": 6450,
      "íĹ¬": 6451,
      "íķłê¹Į": 6452,
      "ìĦłìĿĢ": 6453,
      "Ġì¹´ëĵľë¥¼": 6454,
      "Ġìĺ¤íĽĦ": 6455,
      "ê¸°ëĭ¤": 6456,
      "ĠìĿ´ìļ©íķľ": 6457,
      "Ġë²Ĺìĸ´ëĤĺ": 6458,
      "íħĢ": 6459,
      "ë£¨íĤ¹": 6460,
      "Ġì²ĺìĿĮë¶ĢíĦ°": 6461,
      "ĠëĲĲëĭ¤": 6462,
      "ëŁ¬ìĬ¤": 6463,
      "ĠìķĦë¬´ëŁ°": 6464,
      "ĠëĭµìĿ´": 6465,
      "ĠQ": 6466,
      "ê¸°ë³¸": 6467,
      "ì¤ĳëıĻ": 6468,
      "Ġáħ²": 6469,
      "Ġìŀ¥ìĨĮ": 6470,
      "ĠëĤŃ": 6471,
      "ĠìŀĲìĭłìĿĢ": 6472,
      "ĠìĿ¸ìĥģ": 6473,
      "Ġìŀłê¹Ĳ": 6474,
      "ĠìĨĶì§ģíŀĪ": 6475,
      "ĠìĦ¸ìĽĮ": 6476,
      "ì¶ľìĹ°": 6477,
      "ĠìĭľìľĦ": 6478,
      "ackground": 6479,
      "ë¦¬ìĺ¨": 6480,
      "íĸĩ": 6481,
      "ìķĺëĭ¤ê³ł": 6482,
      "Ġëĭ«": 6483,
      "Ġè": 6484,
      "ĠìŀŃ": 6485,
      "ëĮĢê³ł": 6486,
      "ĠìĹĦì²ŃëĤĺê²Į": 6487,
      "ê³³ìĹĲ": 6488,
      "ê±°ë©´": 6489,
      "ëĵ±ê¸ī": 6490,
      "Ġìŀ¥ê°ĳ": 6491,
      "II": 6492,
      "ì£¼ê¸°": 6493,
      "ìĿ´íģ¬": 6494,
      "ip": 6495,
      "ë©Ķëĭ¬": 6496,
      "ĠìĿ¼ìŀĲë¦¬": 6497,
      "ãĢĭ(": 6498,
      "ìĸ¸ìĿĦ": 6499,
      "36": 6500,
      "0000": 6501,
      "ĠëĮĢíĳľìłģìĿ¸": 6502,
      "ĠìĿ´ìłķëıĦ": 6503,
      "Ġë¶Ģë¥¸ëĭ¤": 6504,
      "éĻ": 6505,
      "Ġìĭ¬ê°ģíķľ": 6506,
      "Ġê¹İ": 6507,
      "ĠëłĪëĵľ": 6508,
      "ĠìĿ´ìłĦìĹĲ": 6509,
      "ĠìĿ¼ëıĦ": 6510,
      "ë³ĳìĿĦ": 6511,
      "ë°©ìĿ´": 6512,
      "ĠìĭĿë¯¼": 6513,
      "ì¹ĺë©´": 6514,
      "ë¥´ê°Ģ": 6515,
      "ĠìķĦëĭĪìķ¼": 6516,
      "Ġë¿Ĳë§Į": 6517,
      "ĠëĤ´ìļ©ìĿĦ": 6518,
      "Ġìĸ´ëĳł": 6519,
      "Ġëĵ¤ìĸ´ê°ĢëĬĶ": 6520,
      "Ġì°¬ìĦ±": 6521,
      "Ġíİ¸ì§ĳ": 6522,
      "ĠíĽĦìĨį": 6523,
      "ĠìĻĢìĿ´": 6524,
      "Ġë§Įíķľ": 6525,
      "Ġê±°ëĮĢíķľ": 6526,
      ".(...)": 6527,
      "ìĺ¤ê³ł": 6528,
      "ĠìĦłë³´": 6529,
      "ĠIn": 6530,
      "ë¯¼ìĿ´": 6531,
      "ĠìĬ¹ë¦¬ë¥¼": 6532,
      "íĨµíķ©": 6533,
      "Ġë¬¸ìłľë¡ľ": 6534,
      "ove": 6535,
      "ĠìĦ¤ëĵĿ": 6536,
      "Ġë§ĲìĶĢ": 6537,
      "Ġìŀ¬ë£Į": 6538,
      "2008": 6539,
      "ìķłëĵ¤": 6540,
      "ìĸĢ": 6541,
      "ĠíķĦìĪĺ": 6542,
      "Ġë§Įì¡±": 6543,
      "Ġë¯¸ëĵľ": 6544,
      "ĠìĿ´ìĬ¹": 6545,
      "Ġì¤¬": 6546,
      "ĠëĪĪìĿ´": 6547,
      "ĠìłĦê°ľ": 6548,
      "ĠìĦ±íĸ¥": 6549,
      "ĠëĿ¼ëĶĶìĺ¤": 6550,
      "ìĿ¼ê¹Įì§Ģ": 6551,
      "****": 6552,
      "Ġì§§ìĿĢ": 6553,
      "ĠìĹĨê²Į": 6554,
      "Ġê³µìŀĳ": 6555,
      "ìķĦëĤĺ": 6556,
      "ĠíĨµìłľ": 6557,
      "Ġì£¼ë¬¸": 6558,
      "ĠëŃĲëĿ¼": 6559,
      "AT": 6560,
      "Ġíķľëªħ": 6561,
      "Ġê°ľë´ī": 6562,
      "ĠìĹ®": 6563,
      "ìĿ´ëŀĺ": 6564,
      "ĠáĦĥ": 6565,
      "ì¼Ħ": 6566,
      "ĠìĤ¬ê±´ìĿ´": 6567,
      "Ġë§Įëĵ¤ìĸ´ì§Ħ": 6568,
      "Ġê°Ģìŀħ": 6569,
      "ĠìĿ´ë¯¸ì§Ģ": 6570,
      "ì©Į": 6571,
      "ì¤ĳíķľ": 6572,
      "PS": 6573,
      "ëĬĶëį°ëıĦ": 6574,
      "Ġìī¬ìļ´": 6575,
      "ìŀĪì§Ģ": 6576,
      "Ġê±´ì¶ķ": 6577,
      "Ġì§ĳìĸ´": 6578,
      "ê³µìĿĦ": 6579,
      "ìłĦëĿ¼ëıĦ": 6580,
      "Ġìłģìĸ´ëıĦ": 6581,
      "ĠíģĲ": 6582,
      "Ġê½¤ëĤĺ": 6583,
      "Ġìļ´ìļ©": 6584,
      "ê³Ħë¡ľ": 6585,
      "Ġê¸°ìĪłìĿĦ": 6586,
      "ì¦Īê°Ģ": 6587,
      "ĠëĶ±íŀĪ": 6588,
      "íķĺëĬĶê²ĥ": 6589,
      "ĠíĻĶê°Ģ": 6590,
      "ĠëĬĶ": 6591,
      "íĪ°": 6592,
      "ë¦¬ì§ĢëĦĲ": 6593,
      "ìľ¼ë¡ł": 6594,
      "ãĢĮ": 6595,
      "ĠìłĲìĿĢ": 6596,
      "ìħĭ": 6597,
      "Ġì§ģìłĦ": 6598,
      "Ġì±Ħìļ©": 6599,
      "ë¹ĦìĹĲ": 6600,
      "ĠìķħíĶĮ": 6601,
      "ĠìĦ±ìłģ": 6602,
      "Ġíıīë²Ķíķľ": 6603,
      "ĠëĤĺëĿ¼ìĿĺ": 6604,
      "tp": 6605,
      "Ġíĺĳëł¥": 6606,
      "ĠìłĦíĺķ": 6607,
      "ë¡¬": 6608,
      "Ġfor": 6609,
      "ëª¨ë¦¬": 6610,
      "íķĺê¸°ë¡ľ": 6611,
      "ĠìĿ¸ê°Ħëĵ¤ìĿ´": 6612,
      "ĠìĻł": 6613,
      "ê³¼ê±°": 6614,
      "our": 6615,
      "Ġëĵ¤ìĸ´ê°Ħ": 6616,
      "íĿ¡": 6617,
      "ĠìłĲìĹĲìĦľ": 6618,
      "ìĺ¤ê°Ģ": 6619,
      "ì§ĢëĭĪ": 6620,
      "Ġëª¨ëĳĲê°Ģ": 6621,
      "ìĤ¬ìļ©": 6622,
      "ĠìľĦìĦł": 6623,
      "ĠíĺľíĥĿ": 6624,
      "ëĨĪìĿĺ": 6625,
      "íķĺë¯Ģë¡ľ": 6626,
      "ĠìļĶìĨĮ": 6627,
      "ĠìĥģëĮĢê°Ģ": 6628,
      "ĠíķĺëĤĺê°Ģ": 6629,
      "Ġê³µíķŃ": 6630,
      "ĠìķĪëĭ¤": 6631,
      "Ġì§ĢëĬ¥": 6632,
      "ìĦľê´Ģ": 6633,
      "Ġìľłìĭľë¯¼": 6634,
      "Ġê·¹ìļ°": 6635,
      "ìĵ°ëĬĶ": 6636,
      "ĠìĻĶëĭ¤": 6637,
      "Ġì§Ģê¸ĪìĿĺ": 6638,
      "Ġíķĺìķ¼": 6639,
      "ĠìĪ²": 6640,
      "37": 6641,
      "ë§ĲìĿĢ": 6642,
      "ìĦ¸ëĬĶ": 6643,
      "ub": 6644,
      "ìłĲìĹĲ": 6645,
      "ë§Įëªħ": 6646,
      "Ġë¬¸ìŀ¬ìĿ¸ìĿĢ": 6647,
      "ìĭ¶ìĿĢ": 6648,
      "ë¬¼ìĿĺ": 6649,
      "ĠìĦľìĪł": 6650,
      "íĶĦëŀĳ": 6651,
      "ì¿łëĿ¼": 6652,
      "ë§ĮëıĦ": 6653,
      "ëŀ©": 6654,
      "ĠíĮ¨ëŁ¬": 6655,
      "Ġë§İìķĦìĦľ": 6656,
      "ìĭłì²ľì§Ģ": 6657,
      "ìľłëŁ½": 6658,
      "ìĽ¨ìĿ´": 6659,
      "Ġë²Ħë¦¬ê³ł": 6660,
      "ĠìŀĲë¦¬ìĹĲ": 6661,
      "Ġëĭ¹íķľ": 6662,
      "ity": 6663,
      "Ġê³łìľł": 6664,
      "ìłĲìĹĲìĦľ": 6665,
      "Ġìĭ«ëĭ¤": 6666,
      "Ġê³µëŀµ": 6667,
      "Ġìĭłì²Ń": 6668,
      "íı¬ë¥¼": 6669,
      "ĠëįĶë¸Ķ": 6670,
      "ëĮĢìĤ¬": 6671,
      "Ġìĵ°ë©´": 6672,
      "ĠìĿ¸ê°ĦìĿĺ": 6673,
      "ĠìĭľëĤĺë¦¬ìĺ¤": 6674,
      ".'": 6675,
      "Ġì°¢": 6676,
      "ë°°ìļ°": 6677,
      "Ġìĭľìŀĳíķľëĭ¤": 6678,
      "Ġì²´ëł¥ìĿ´": 6679,
      "ĠëĤľëĭ¤": 6680,
      "Ġíŀĺëĵ¤ìĸ´": 6681,
      "ìĭľëĤĺ": 6682,
      "ĠíĪ¬ìĪĺ": 6683,
      "ĠSBS": 6684,
      "Ġì¶¤": 6685,
      "íĸĪëĥĲ": 6686,
      "Ġì»¤ë®¤": 6687,
      "07": 6688,
      "ë°¤": 6689,
      "Ġë§Įëĵ¤ìĹĪëĭ¤": 6690,
      "Ġê±¸ë¦°": 6691,
      "Ġìłķë¶ĢìĿĺ": 6692,
      "ìı": 6693,
      "ĠíķľêµŃìĹĲìĦľ": 6694,
      "Ġìº¡": 6695,
      "se": 6696,
      "íĸĪì§Ģ": 6697,
      "ĠíĭĪ": 6698,
      "ĠìĨĮëĵĿ": 6699,
      "Ġê¸°ë¡ĿíĸĪëĭ¤": 6700,
      "ìĿĢíĸī": 6701,
      "Ġìĸ´ì§¸": 6702,
      "Ġíķĺì§Ģë§Ĳê³ł": 6703,
      "ìĭłëıĦ": 6704,
      "ê°Ģë¡ľ": 6705,
      "ì¢ĭìķĦ": 6706,
      "ìŀĪëĤĺ": 6707,
      "ìŀĺëª»": 6708,
      "ĠëĤĺë": 6709,
      "Ġì§Ģíķĺì²ł": 6710,
      "ĠíıŃíĥĦ": 6711,
      "Ġì»¨ìħī": 6712,
      "Ġì£½ëĬĶ": 6713,
      "ìŀĪëįĺ": 6714,
      "ìĺģìĽħ": 6715,
      "ĠìłģìĿĺ": 6716,
      "ê³µíĻĶêµŃ": 6717,
      "ë³´ì§Ģ": 6718,
      "ĠìĿ¼ëŁ¬ìĬ¤íĬ¸": 6719,
      "Ġë§Ĳíķł": 6720,
      "ì¢ĥ": 6721,
      "Ġë¶ķê´´": 6722,
      "Ġë¹¨ê°±": 6723,
      "Ġíĥĳìŀ¬": 6724,
      "ìłĦìĤ¬": 6725,
      "ìŀĲëıĻ": 6726,
      "ĠìĬ¤ì½Ķ": 6727,
      "Ġíĥľê·¹ê¸°": 6728,
      "ĠìĹ°ì£¼": 6729,
      "ìĭ¤ìĿ´": 6730,
      "ĠìĨĶë¡ľ": 6731,
      "ĠìłĢê²©": 6732,
      "ĠìĹ°ëĿ½": 6733,
      "ìĨĮë¦¬ê°Ģ": 6734,
      "ë¯¸ìķ¼": 6735,
      "ĠíĶĦëłĪìŀĦ": 6736,
      "Ġìĭ¤ì§Ī": 6737,
      "ĠíĽĦì¿ł": 6738,
      "Ġëª°ëŀĺ": 6739,
      "ãĤ¹": 6740,
      "ĠíĪ¬ê¸°": 6741,
      "ĠìĹĨìĬµëĭĪëĭ¤": 6742,
      "ĠëĤ´ê³ł": 6743,
      "ĠëĤĺëĿ¼ëĬĶ": 6744,
      "Ġë§ĪìĿĮìĿ´": 6745,
      "ì§ĸ": 6746,
      "Ġë°Ľê²Į": 6747,
      "Ġê±°ìłĪ": 6748,
      "ê·¸ë§Į": 6749,
      "ìĦľë¡ľ": 6750,
      "ĠìĭľìĽĲ": 6751,
      "ãģį": 6752,
      "ì§ģìĿĦ": 6753,
      "Ġë¶Īë§¤ìļ´ëıĻ": 6754,
      "Ġê°ľê°Ģ": 6755,
      "ê¸ĪìĿ´": 6756,
      "ä¸Ń": 6757,
      "ìłĢë¦¬": 6758,
      "ĠíĻĶìŀ¥": 6759,
      "íħĮëĭĪ": 6760,
      "Ġìľ¡êµ°": 6761,
      "êµĲìĪĺ": 6762,
      "ĠíĮĢìĿ´": 6763,
      "ë§ĪìĿĦ": 6764,
      "Ġëĭ¬ê³ł": 6765,
      "ĠìĬ¤íİĻ": 6766,
      "ĠëĮĢëĭ¨íķľ": 6767,
      "Ġìĭľìŀĳíķľ": 6768,
      "est": 6769,
      "ë²Ħëł¤": 6770,
      "ĠìĹĨê¸°": 6771,
      "ĠìłĦëĿ¼": 6772,
      "ry": 6773,
      "ĠìĿ´ìĦ±": 6774,
      "Ġê°Ģíķ´": 6775,
      "Ġì£½ìĸ´": 6776,
      "Ġê°ľìŀħ": 6777,
      "2000": 6778,
      "ìĿ´ìĹĪìľ¼ëĤĺ": 6779,
      "ìŀĦìĹĲëıĦ": 6780,
      "ĠëıĻìĿĺ": 6781,
      "íĪ¬íĳľ": 6782,
      "ĠìĻĢì¤ĳìĹĲ": 6783,
      "http": 6784,
      "Ġíĸ¥íķ´": 6785,
      "ìĭ¤ìĿĦ": 6786,
      "Ġì¢ĭëĭ¤ê³ł": 6787,
      "ìľ¼ëĿ¼ê³ł": 6788,
      "ë¦¬ë©´ìĦľ": 6789,
      "Ġëª¨ì¡°ë¦¬": 6790,
      "ĠìĪĺì¹ĺ": 6791,
      "ĠíĶĦë¡ľëĵĢ": 6792,
      "05": 6793,
      "Ġì°¨ë¡Ģ": 6794,
      "Ġë¹Ħíķĺë©´": 6795,
      "íĨłê°Ģ": 6796,
      "íıŃíĸī": 6797,
      "å¹": 6798,
      "ê¸°ê°Ħ": 6799,
      "Ġê¸Ģë¡ľ": 6800,
      "íķĦìļĶ": 6801,
      "ĠìĿ´ê²ĥìĿĢ": 6802,
      "ong": 6803,
      "ìĬ¤íĥĦ": 6804,
      "ì½Ķê°Ģ": 6805,
      "ëªħíķľ": 6806,
      "ĠíķľíħĮ": 6807,
      "ë°©ìĿĺ": 6808,
      "ëļ±": 6809,
      "ĠëķĮë¶ĢíĦ°": 6810,
      "Ġ2021": 6811,
      "Ġê¸ĢìĿĦ": 6812,
      "ĠíķľêµŃìĿ´": 6813,
      "Ġëĵľë¦½": 6814,
      "Ġì¸¡ë©´": 6815,
      "ì§ĢìĤ¬": 6816,
      "ĠíĥĦìĥĿ": 6817,
      "ĠëĲľëĭ¤ê³ł": 6818,
      "ìłľíĴĪ": 6819,
      "com": 6820,
      "Ġêµ¬ì¶ķ": 6821,
      "ĠëĤ´ìļ©ìĿ´": 6822,
      "ĠíĻ©ìłľ": 6823,
      "Ġê°ĻìķĦ": 6824,
      "Ġê³µìľł": 6825,
      "Ġê³µíĨµ": 6826,
      "Ġê°ķì¡°": 6827,
      "Ġë¹ĦêµĲìłģ": 6828,
      "ĠíĮĲìĤ¬": 6829,
      "ĠìŀĲì¡´": 6830,
      "Ġê²Įìĭľ": 6831,
      "Ġë§Īë¥´": 6832,
      "Ġì°©ìļ©": 6833,
      "Ġìľłëŀĺ": 6834,
      "Ġëĭ¬ëŁ¬": 6835,
      "ĠëĤ¨ë¶ģ": 6836,
      "ĠëĨĶ": 6837,
      "ľìĹĲ": 6838,
      "ĠëĮĢíķľë¯¼êµŃìĿĦ": 6839,
      "ĠìĹħë¬´": 6840,
      "ìĭľì¼ľëĿ¼": 6841,
      "Ġë¯¿ìĿĦ": 6842,
      "ĠìĤ¬ê²©": 6843,
      "ìĹĪìľ¼ë©´": 6844,
      "Ġíķ©ìĿĺ": 6845,
      "Ġë§Įëĭ¤": 6846,
      "ëķĮëıĦ": 6847,
      "Ġë°Ł": 6848,
      "éĥ": 6849,
      "ex": 6850,
      "ĠëĤĺìĿ´íĬ¸": 6851,
      "31": 6852,
      "Ġëĭ¹íķĺê³ł": 6853,
      "ĠëĭĮ": 6854,
      "ĠëĤ´ëħĦ": 6855,
      "Ġê±´ëĦĪ": 6856,
      "ìĿ¼ë²ł": 6857,
      "Ġì¤ĳìĿ´ëĭ¤": 6858,
      "ĠìĿ¼ë°ĺìłģìĿ¸": 6859,
      "ĠìŀĲë³¸": 6860,
      "Ġë¶ĦìĦĿ": 6861,
      "íķĻìĿĺ": 6862,
      "íħį": 6863,
      "ì²´ë¡ľ": 6864,
      "ĠìķĦëĭĻëĭĪëĭ¤": 6865,
      "ĠìĻĦë£Į": 6866,
      "ë¬¼ìĹĲ": 6867,
      "ĠìĤ¬ìĿ´ìĹĲìĦľ": 6868,
      "Ġê²Ģì°°ìĿ´": 6869,
      "ĠìĿĺë¯¸ê°Ģ": 6870,
      "Ġë°ĺìĺģ": 6871,
      "ĠëĤ´ëĨĵ": 6872,
      "ëĮĦ": 6873,
      "å¯": 6874,
      "Ġìĸ´ë¥¸": 6875,
      "ĠíĿ¡ìĪĺ": 6876,
      "play": 6877,
      "ìłķë¶ĢëĬĶ": 6878,
      "ì¦ī": 6879,
      "ë´Ħ": 6880,
      "Ġë§Īì¹¨": 6881,
      "Ġë¶Īë¦¬ëĬĶ": 6882,
      "ëĪĦë¦¬": 6883,
      "Ġëĭ¨ëıħ": 6884,
      "Ġìł¤": 6885,
      "ìĺĢëĭ¤ê³ł": 6886,
      "Ġëĵ¤ìĿĢ": 6887,
      "ĠìŀĪìĸ´ëıĦ": 6888,
      "ìĺĢìľ¼ë©°": 6889,
      "ĠìĿ¸ê¸°ê°Ģ": 6890,
      "Ġìĸ´ëĸ»ê²Įëĵł": 6891,
      "Ġì¹´íİĺ": 6892,
      "ìļ°ë¥¼": 6893,
      "ĠìĨįìĹĲìĦľ": 6894,
      "Ġë½ĳìĿĢ": 6895,
      "ĠëĮĦ": 6896,
      "Ġê¹¡": 6897,
      "Ġë¶ģíķľìĿ´": 6898,
      "ë¡ľìĬ¤": 6899,
      "Ġë³´ì§Ģ": 6900,
      "ìķĦìĭľìķĦ": 6901,
      "ìĺ¤íĶĦ": 6902,
      "Ġë°ĶëŀĢëĭ¤": 6903,
      "Ġë§Īë¦¬": 6904,
      "ĠëģĶ": 6905,
      "ëľ©": 6906,
      "ê¸°ëĤĺ": 6907,
      "ĠìłķëıĦëĬĶ": 6908,
      "Ġì¤ĳêµŃìĿ´": 6909,
      "íĻĶë¡ľ": 6910,
      "ĠìĦ¤ê³Ħ": 6911,
      "ëģĪ": 6912,
      "ĠìŀĲëħĢ": 6913,
      "Ġìłľì¡°": 6914,
      "ìĹĪìľ¼ë©°": 6915,
      "Ġë³ĳìĤ¬": 6916,
      "ain": 6917,
      "ĠìĶĮ": 6918,
      "Ġì¡°ê°ģ": 6919,
      "Ġë¨¸ë¦¬ë¥¼": 6920,
      "Ġê²ĮìĿ´": 6921,
      "ĠíĥĿìĭľ": 6922,
      "Ġë³Ģíĺ¸ìĤ¬": 6923,
      "Ġëĺĳë°Ķë¡ľ": 6924,
      "ĠíĶĮëŀĺ": 6925,
      "ĠëĦ£ìĸ´": 6926,
      "Ġì¡´ê²½": 6927,
      "ĠëĬĲê·¸": 6928,
      "ort": 6929,
      "ê·¸ëłĩ": 6930,
      "ĠëĤĺìķĦ": 6931,
      "Ġê°¤ëŁ¬": 6932,
      "Ġì¶Ķê°Ģë¡ľ": 6933,
      "ìĿ´ëįĺ": 6934,
      "34": 6935,
      "ĠíķĺëĬĶì§Ģ": 6936,
      "Ġ45": 6937,
      "Ġíıīê°Ģë¥¼": 6938,
      "Ġëį°ë¯¸ì§Ģë¥¼": 6939,
      "ìĹ°ìĿ´": 6940,
      "Ġëħ¸ìĿ¸": 6941,
      "ìĥ·": 6942,
      "ĠíĥĢìĿ´ë°į": 6943,
      "íķĺë£¨": 6944,
      "ì¤ĺìĦľ": 6945,
      "Ġêµ°ìĿ¸": 6946,
      "ĠìłĦëĭ¬": 6947,
      "Ġë°ĿíŀĪ": 6948,
      "íĻľëıĻ": 6949,
      "Ġëª°ëĿ¼ëıĦ": 6950,
      "ì°¨ëĬĶ": 6951,
      "Ġëĭ¨ìĸ´": 6952,
      "Ġê²¬ìłľ": 6953,
      "ĠëĤĺìĺ¤ëĬĶëį°": 6954,
      "ê°Ģìķ¼": 6955,
      "Ġì°°": 6956,
      "ĠëĦĺëĬĶ": 6957,
      "Ġme": 6958,
      "Ġë°ĶìĿ´ëŁ¬ìĬ¤": 6959,
      "ĠëłĮ": 6960,
      "Ġì£¼ìĤ¬íĮĮ": 6961,
      "Ġê°ľìĿĺ": 6962,
      "êµŃìłľ": 6963,
      "Ġê¾¸ì¤ĢíŀĪ": 6964,
      "íĶ¼íķ´": 6965,
      "38": 6966,
      "Ġëª¨ë¥¼": 6967,
      "ĠìĿ´íĺ¼": 6968,
      "Ġìłķì²´": 6969,
      "ì£¼ë¯¼": 6970,
      "ĠìĨįìĹĲ": 6971,
      "ĠìŀħìĿĢ": 6972,
      "Ġì²Ńë¬¸íļĮ": 6973,
      "Ġê·¸ê²ĥìĿĦ": 6974,
      "ëłĺ": 6975,
      "Ġë©Ģì©¡": 6976,
      "ë³ĳìĿ´": 6977,
      "ì¤¬ëĭ¤": 6978,
      "ãĥ«": 6979,
      "Ġíı¬ë¥´": 6980,
      "Ġëĭ¹ìĹ°íķľ": 6981,
      "Ġëª©ìłģ": 6982,
      "Ġë¯¸êµ°": 6983,
      "Ġê±°ê¸°ìĦľ": 6984,
      "adi": 6985,
      "ë©ľ": 6986,
      "ĠìļķìĿĦ": 6987,
      "Ġìĸ´ëĸł": 6988,
      "ëĭ¤ëĭĪëĬĶ": 6989,
      "ì¤Įë§Ī": 6990,
      "ĠëģĮê³ł": 6991,
      "ë¶ĢìĤ°": 6992,
      "ĠìłĲíĶĦ": 6993,
      "ĠìŀĪìĿĦê¹Į": 6994,
      "ëł¥ìĹĲ": 6995,
      "íī": 6996,
      "://": 6997,
      "ëħģ": 6998,
      "íķĺëĿ¼ëĬĶ": 6999,
      "Ġë¯¸ì³Ĳ": 7000,
      "ĠëķĮìĿĺ": 7001,
      "Ġíļ¨ìľ¨": 7002,
      "Ġì°¨ëĭ¨": 7003,
      "ì²ĺìĿĮ": 7004,
      "ĠëĲ©ëĭĪëĭ¤": 7005,
      "ìŀ¬íĮĲ": 7006,
      "Ġíĺķíĥľë¡ľ": 7007,
      "ĠìĥĮ": 7008,
      "ìłĦë¬¸": 7009,
      "Ġê³łë§Ī": 7010,
      "íĤ¤ë¥¼": 7011,
      "íķĺíķĺ": 7012,
      "Ġìĺ¤íĨł": 7013,
      "Ġì£½ìĿ¼": 7014,
      "Ġì§ĢëĭĮ": 7015,
      "Ġìķłë§¤": 7016,
      "Ġíķ´êµ°": 7017,
      "Ġëĺĺ": 7018,
      "Ġon": 7019,
      "íİĢ": 7020,
      "ĠìĤ¬ìļ©íķľ": 7021,
      "ìĹĪìľ¼ëĤĺ": 7022,
      "ê¸Ģëŀľëĵľ": 7023,
      "ì¹ĺìĹĲ": 7024,
      "ìĺ¤ì§Ģ": 7025,
      "Ġì£½ìĿ¸": 7026,
      "ë³´ê°Ģ": 7027,
      "íģ¬ëĬĶ": 7028,
      "Ġìĸ¸ìĸ´": 7029,
      "Ġì§ĢëĤ´": 7030,
      "Ġ\\": 7031,
      "íıĲëł´": 7032,
      "ìļ°ë©´": 7033,
      "ê°ĻìĿĢëį°": 7034,
      "íĸĪìĬµëĭĪëĭ¤": 7035,
      "íĥ±": 7036,
      "Ġëį°ìĿ´": 7037,
      "Ġë¼Ī": 7038,
      "Ġìĸ´ì§Ģ": 7039,
      "ëĭĪê¹Ĳ": 7040,
      "Ġ2001": 7041,
      "æĪ": 7042,
      "Ġì£½ìĿ´ê³ł": 7043,
      "ĠëĲ¨": 7044,
      "ì¶Ķê³ł": 7045,
      "ÃĹ": 7046,
      "ĠìłĪëĮĢë¡ľ": 7047,
      "Ġìĭ¤íĸī": 7048,
      "ìĨįëıĦ": 7049,
      "Ġì²ŃìĽĲ": 7050,
      "Ġ1990": 7051,
      "ìķłëĭĪ": 7052,
      "ĠëĤ¼": 7053,
      "Ġre": 7054,
      "ĠíĺĲìĺ¤": 7055,
      "ĠPC": 7056,
      "Ġë³´ëĤ¸": 7057,
      "ĠëģĮëł¤": 7058,
      "è¡": 7059,
      "Ġì¤ĳêµŃìĿĺ": 7060,
      "Ġì°Ķ": 7061,
      "Ġë§ĮìĹĲ": 7062,
      "Ġë°©ìĭĿìľ¼ë¡ľ": 7063,
      "ëľ¯": 7064,
      "Ġê¼¼": 7065,
      "ĠìĤ´ìķĦëĿ¼": 7066,
      "ìĦ¸ìĽĶíĺ¸": 7067,
      "ëĿ¼ìĻĢ": 7068,
      "Ġê°ľíİ¸": 7069,
      "ĠìĿ´ìķ¼ê¸°ê°Ģ": 7070,
      "ìĹĲê²Ĳ": 7071,
      "ìłľíķľ": 7072,
      "02": 7073,
      "ĠìĿĺë¬´": 7074,
      "ìĬ¤íĦ´": 7075,
      "Ġì¢ħíķ©": 7076,
      "ìĺ¤ì¹´": 7077,
      "ĠëĤ´ëĤ´": 7078,
      "ĠìĿĺìĭĿ": 7079,
      "íķľíİ¸": 7080,
      "ëŁīìĿĺ": 7081,
      "Ġê²ī": 7082,
      "ìĦłìĹĲìĦľ": 7083,
      "Ġë¹¨ê°Ħ": 7084,
      "ê¶ĮìĿĺ": 7085,
      "Ġì£¼ìłľìĹĲ": 7086,
      "ëŁīìĿĢ": 7087,
      "ìĹĪëĤĺ": 7088,
      "Ġì¶Ķì¢ħ": 7089,
      "íķĺì§ĢëĬĶ": 7090,
      "ê±°ìļ´": 7091,
      "ê²ĮëıĦ": 7092,
      "ì«": 7093,
      "ì¨Į": 7094,
      "ìĭ¬íķľ": 7095,
      "ĠìŀĳìłĦ": 7096,
      "Ġì§ĢëĭĪ": 7097,
      "Ġì¢ĭìĿĦ": 7098,
      "Ġì»¨íĬ¸ë¡¤": 7099,
      "ë¹ĦìĿĺ": 7100,
      "39": 7101,
      "ĠëģĦ": 7102,
      "ê°Ĳëıħ": 7103,
      "ĠëĮĢíĨµëł¹ìĿĢ": 7104,
      "Ġíĥľìĸ´ëĤĺ": 7105,
      "ĠìĹ¬ìŀĲê°Ģ": 7106,
      "ì¾Į": 7107,
      "Ġëª¨íĹĺ": 7108,
      "Ġê°Ĳìĭ¸": 7109,
      "ĠìĪĺìļ©": 7110,
      "ëį°ë¯¸": 7111,
      "Ġë°©ìĤ¬ëĬ¥": 7112,
      "Ġìłľê¸°": 7113,
      "Ġì±ħìŀĦìĿĦ": 7114,
      "Ġìŀ¥ìĤ¬": 7115,
      "ĠìĹĶì§Ħ": 7116,
      "ìļ°ìĿĺ": 7117,
      "Ġ^^": 7118,
      "Ġìŀ¥ìķħ": 7119,
      "ìĹĨëĦ¤": 7120,
      "2007": 7121,
      "ĠìĿ´ë¡ł": 7122,
      "ë¦¬ëıĦ": 7123,
      "ìŀ¡ìķĦ": 7124,
      "ë³Ħë¡ľ": 7125,
      "Ġê°Ŀ": 7126,
      "Ġë§Īìķ½": 7127,
      "Ġìķ¼ë§Ī": 7128,
      "ĠìĨĮë¦¬ê°Ģ": 7129,
      "Ġë§īìĿĦ": 7130,
      "ì¡°ëĬĶ": 7131,
      "ust": 7132,
      "Ġìķ½íķľ": 7133,
      "ĠìĤ¬íķŃ": 7134,
      "Ġê³łíĸ¥": 7135,
      "Ġì²łìłĢíŀĪ": 7136,
      "Ġì£¼ìĸ´": 7137,
      "Ġìķłëĵ¤ìĿ´": 7138,
      "Ġë°ķìĤ¬": 7139,
      "ìĮ": 7140,
      "Ġê¸°ì´Ī": 7141,
      "íĻĶìĹĲìĦľëĬĶ": 7142,
      "ĠìĨĲê°ĢëĿ½": 7143,
      "íķĺê²ĮëıĦ": 7144,
      "isplay": 7145,
      "ĠíĻĶìĹ¼": 7146,
      "ëĲĺìĹĪëĬĶëį°": 7147,
      "ëł¥ìĿĺ": 7148,
      "Ġê¸°ìĸ´": 7149,
      "ìķĦë²Ħì§Ģ": 7150,
      "ĠìŀĲìĺģìĹħ": 7151,
      "Ġì·¨ìĹħ": 7152,
      "AM": 7153,
      "ĠìĦ±ê³¼": 7154,
      "06": 7155,
      "Ġë¸Įëŀľëĵľ": 7156,
      "Ġit": 7157,
      "ìŀ¥íķľ": 7158,
      "íĸĪëĭ¤ê°Ģ": 7159,
      "IC": 7160,
      "ĠëĲĺë©°": 7161,
      "ĠìĿ¼ìĸ´ëĤľ": 7162,
      "Ġë¬´ë¦": 7163,
      "íķĺëł¤ë©´": 7164,
      "Ġë¹ĦëĶĶìĺ¤": 7165,
      "ê¶ĮìĹĲ": 7166,
      "ìĦľìķ¼": 7167,
      "ĠíıŃë§Ŀ": 7168,
      "ĠìķĮëł¤ì§Ħ": 7169,
      "Ġë°Ķíĥķìľ¼ë¡ľ": 7170,
      "Ġë°ĶëĢĮìĹĪëĭ¤": 7171,
      "Ġê·¸ê²ĥìĿ´": 7172,
      "äºº": 7173,
      "ĠíĮĮíĬ¸": 7174,
      "íĬĢ": 7175,
      "ëĲĺìĹĪëįĺ": 7176,
      "ĠëĮĢë¡ľ": 7177,
      "ë§ĪìĬ¤": 7178,
      "íĳ¼": 7179,
      "Ġë³´ê¸ī": 7180,
      "Ġì²łìĪĺ": 7181,
      "ì¦Īë¥¼": 7182,
      "ê»ĺìĦľ": 7183,
      "ĠìĪ¨ê²¨": 7184,
      "ê¸°ëĵ¤": 7185,
      "ëĮĢìĥģ": 7186,
      "Ġë¬´ë£Į": 7187,
      "ĠíķĻìĤ´": 7188,
      "ĠìķīìķĦ": 7189,
      "Ġìłľìłķìĭł": 7190,
      "ì²¨": 7191,
      "Ġë°ľíľĺ": 7192,
      "ìĥīìĿ´": 7193,
      "Ġëį´": 7194,
      "ìĦľìĿĺ": 7195,
      "ìĤ¬ëŀĮìĿĢ": 7196,
      "Ġì¹ĺë§¤": 7197,
      "íĭ°ìĸ´": 7198,
      "Ġë¯¿ëĬĶ": 7199,
      "ĠìºĲë¦ŃíĦ°ê°Ģ": 7200,
      "Ġëª¨ìĹ¬": 7201,
      "ĠìĿ´ìĭľ": 7202,
      "09": 7203,
      "Ġê°ĸëĭ¤": 7204,
      "Ġìĵ´ëĭ¤": 7205,
      "Ġê³µê³µ": 7206,
      "Ġê³łë§Ļ": 7207,
      "ĠìĦ¸ìĥģìĿĦ": 7208,
      "ëĭĺìĿĢ": 7209,
      "ĠëĪĪë¬¼": 7210,
      "ëĭ¹íķĺëĬĶ": 7211,
      "ê²łìĸ´ìļĶ": 7212,
      "ĠìĽĲìłķ": 7213,
      "ĠìĤ¬ê±´ìĿĦ": 7214,
      "Ġì¶ĶëĿ½": 7215,
      "Ġëıķ": 7216,
      "êµĲíĻľ": 7217,
      "íģ¬ëŀĺíĶĦíĬ¸": 7218,
      "ëĭ¨ìľ¼ë¡ľ": 7219,
      "ì§Ģì»¬": 7220,
      "ìŀĲìĹ°": 7221,
      "ìĬ¤ëŁ°": 7222,
      "ĠìŀĪê¸´": 7223,
      "Ġìĸ»ìĿĢ": 7224,
      "ĠìĬ¤ì¹´": 7225,
      "ind": 7226,
      "ìĻ¸êµĲ": 7227,
      "ìĿĺë¡ľ": 7228,
      "ly": 7229,
      "Ġê²¨ìļ¸": 7230,
      "Ġê¸°íļĮë¥¼": 7231,
      "íĽĦìĹĲ": 7232,
      "íķĺìĺĢìľ¼ëĤĺ": 7233,
      "ĠëłĪìłĦ": 7234,
      "íĥĢê¸°": 7235,
      "íķĺê¸°ìĹĲ": 7236,
      "Ġëĭ¹íĻ©": 7237,
      "Ġì¡°ìłķ": 7238,
      "Ġì£¼ìĭĿ": 7239,
      "ëł¥ëıĦ": 7240,
      "ëĲĺìŀĲ": 7241,
      "íĶĦìĿĺ": 7242,
      "ĠìĥģëĮĢë¥¼": 7243,
      "ì©į": 7244,
      "ĠìľĦíķĺìĹ¬": 7245,
      "Ġë§Įëĵ¤ìĸ´ìĦľ": 7246,
      "ìĿ´ìĹĪëĬĶëį°": 7247,
      "Ġëª©ìĪ¨ìĿĦ": 7248,
      "Ġë°ĺëŀĢ": 7249,
      "line": 7250,
      "ê¶ĮìĿĢ": 7251,
      "Ġìĺ¤ë¦¬ì§ĢëĦĲ": 7252,
      "AC": 7253,
      "Ġë¹łì§Ħ": 7254,
      "arg": 7255,
      "ĠíĮĢìĿĦ": 7256,
      "Ġì¦īìĭľ": 7257,
      "Ġë¯¼ì£¼íĻĶ": 7258,
      "ĠìĨĲíķ´": 7259,
      "Ġë¨¸ë¦¬ê°Ģ": 7260,
      "ëĤ´ìĦľ": 7261,
      "ê°Ĳìłķ": 7262,
      "ìŀ¬ê°Ģ": 7263,
      "Ġê³łìľĦ": 7264,
      "ìĺµ": 7265,
      "ì§Ģë§Ĳ": 7266,
      "ìĨĮëĵĿ": 7267,
      "íķĻìĿĦ": 7268,
      "ĠëĳĺëŁ¬": 7269,
      "ĠìĤ¬ëł¹": 7270,
      "2006": 7271,
      "Ġë¶ĻìĹ¬": 7272,
      "ĠìĹ¬ê²¨": 7273,
      "Ġìłķê¶ĮìĿ´": 7274,
      "ìľ¼ë¡ľë§Į": 7275,
      "ìŀ¬ë¥¼": 7276,
      "Ġì·¨ìŀĦ": 7277,
      "ë¦¬ëĦ¤": 7278,
      "ĠëĤ´ìĦ¸": 7279,
      "íĨłë¥¼": 7280,
      "ìĪĺìĻĢ": 7281,
      "ĠìĿ´ë¤Ħ": 7282,
      "ìĹ¬ëŁ¬": 7283,
      "ë¦¬ëĿ¼": 7284,
      "ëĵ±íķĻìĥĿ": 7285,
      "08": 7286,
      "ì¤ĳìĿ¸": 7287,
      "Ġëĭ¹ìĭłìĿĢ": 7288,
      "ìĹĲëĭ¤": 7289,
      "Ġì¶ľë°ľ": 7290,
      "Ġê·ł": 7291,
      "Ġíķľìĭ¬íķĺëĭ¤": 7292,
      "ãĤĪ": 7293,
      "ê³łëĬĶ": 7294,
      "Ġë°ĺëıĦ": 7295,
      "ë¿Ķ": 7296,
      "íķĺì§Ģë§ĪëĿ¼": 7297,
      "Ġì´Īë°ĺìĹĲ": 7298,
      "ĠìĨĮëħĦ": 7299,
      "out": 7300,
      "ĠìĹ¬ëĭ¹": 7301,
      "ĠëĤ«ëĭ¤": 7302,
      "ë±ħ": 7303,
      "ì²«": 7304,
      "ob": 7305,
      "ĠìłľìķĪ": 7306,
      "Ġê°ľì¡°": 7307,
      "ì§ĢëĬĶëį°": 7308,
      "ìĬ¤íİĺ": 7309,
      "ĠìĹĺë¦¬": 7310,
      "Ġë¬´ìĭľíķĺê³ł": 7311,
      "Ġíĥģ": 7312,
      "ĠìĿ´ìĬĪ": 7313,
      "Ġì§Ħìĭ¤ìĿĦ": 7314,
      "Ġë°©ë²ķìĿ´": 7315,
      "ì¹´ìĿĺ": 7316,
      "Ġë§ĪëħĢ": 7317,
      "IA": 7318,
      "ĠìĺģìĽĲíŀĪ": 7319,
      "32": 7320,
      "Ġì°¸ìĦĿ": 7321,
      "ĠìĥģëĮĢìłģìľ¼ë¡ľ": 7322,
      "ĠìĹĨìľ¼ë©°": 7323,
      "Ġìĺ¤ì§ģ": 7324,
      "ĠíĹĲ": 7325,
      "Ġëħ¸ì¶ľ": 7326,
      "Ġìĺ¬ëĿ¼ê°Ģ": 7327,
      "Ġë½": 7328,
      "ë£°": 7329,
      "ìĭľíĹĺ": 7330,
      "Ġë§ĪìĿĮìĹĲ": 7331,
      "FC": 7332,
      "Ġì§ĦíĻĶ": 7333,
      "Ġì½ĶëĦĪ": 7334,
      "íĮĲìĿ´": 7335,
      "ë¯¸ëĦĲ": 7336,
      "ëĶĶìħĺ": 7337,
      "ìķĦíĶĦ": 7338,
      "ëĿ¼ëĿ¼": 7339,
      "ĠìĬµê²©": 7340,
      "Ġìļ°ë¦¬ìĿĺ": 7341,
      "ĠìĥĿê°ģìĿĢ": 7342,
      "ĠìļĶìĭľ": 7343,
      "Ġê´ľíŀĪ": 7344,
      "ĠìĿ´ëĭ¤": 7345,
      "ld": 7346,
      "Ġìĺ¬ë¦°": 7347,
      "Ġìłķë§Ĳë¡ľ": 7348,
      "SS": 7349,
      "ĠìĿ´ëŀĢ": 7350,
      "Ġìĺ¤íĶĪ": 7351,
      "ë¦¬ìķĦìĿĺ": 7352,
      "ĠìĬ¤ë§ĪíĬ¸": 7353,
      "Ġ!!": 7354,
      "ĠëŀĢ": 7355,
      "ĠíĺĦìŀ¬ìĿĺ": 7356,
      "ìĭľê°ĦìĿ´": 7357,
      "Ġíĳľì°½": 7358,
      "íĨµìĿĦ": 7359,
      "ê²°ê³¼": 7360,
      "Ġê²ĥìĿ´ê³ł": 7361,
      "Ġë°Ķë¥¸": 7362,
      "íĺĦìĿĺ": 7363,
      "ë¹Ħë¡ľ": 7364,
      "ĠëĮĢíķľë¯¼êµŃìĿ´": 7365,
      "êµŃìľ¼ë¡ľ": 7366,
      "ĠìŀĲìĭłìĹĲê²Į": 7367,
      "Ġë¥¼": 7368,
      "Ġê°Ģê¹ĮìĿ´": 7369,
      "ë³ĳìĽĲ": 7370,
      "ìłľëıĦ": 7371,
      "ìĭľë¦¬ì¦Ī": 7372,
      "Ġë¬´ì§Ģ": 7373,
      "ëĲĺê¸°ëıĦ": 7374,
      "Ġê°Ĳìĭľ": 7375,
      "Ġê´ĳíĻĶë¬¸": 7376,
      "íķĺì§ĢìķĬ": 7377,
      "ìĿ¼ëĭ¨": 7378,
      "Ġê·¸ëŀĺìķ¼": 7379,
      "Ġëŀĺ": 7380,
      "ìĬ¤íĤ¤": 7381,
      "ĠìĿ¼ë³¸ìĿĦ": 7382,
      "ë¥ĺê°Ģ": 7383,
      "ë©´ìĹĲ": 7384,
      "ĠëįķìĹĲ": 7385,
      "Ġíķľëį°": 7386,
      "ĠíĽĶ": 7387,
      "ĠìĨįëıĦê°Ģ": 7388,
      "Ġë³´ìŀ¥": 7389,
      "íĦ°ë¦¬": 7390,
      "ìŀĪìľ¼ë©´": 7391,
      "ëĵŃ": 7392,
      "Ġìĭłê¸°": 7393,
      "ëĵ±ìŀ¥": 7394,
      "ĠëķĮê°Ģ": 7395,
      "íķ´ìł¸": 7396,
      "ĠìķĬìķĦìĦľ": 7397,
      "ĠìŀĲêµŃë¯¼": 7398,
      "Ġìļ©ìĦľ": 7399,
      "ĠíĿĺëŁ¬": 7400,
      "ĠìŀĦë¬´": 7401,
      "íķľíħĮëĬĶ": 7402,
      "ë¥´ì§Ģ": 7403,
      "ĠëĤĺëĿ¼ìĹĲìĦľ": 7404,
      "Ġ32": 7405,
      "ë¬¼ê³ł": 7406,
      "Ġë©°": 7407,
      "Ġê·¸ëłĪìĿ´": 7408,
      "ëĵ¤ìĹĲê²ĮëĬĶ": 7409,
      "ê°ĢìĹĲ": 7410,
      "ãĥ©": 7411,
      "Ġê°ĵ": 7412,
      "ĠêµŃê°Ģê°Ģ": 7413,
      "ĠìĿ¸ê¸°ë¥¼": 7414,
      "ë£¸": 7415,
      "ĠìľĦë°ĺ": 7416,
      "ĠìĽĲì¹Ļ": 7417,
      "ĠìĿĢê·¼": 7418,
      "Ġë§Ĳíķĺë©´": 7419,
      "Ġê°Ģë¡ľ": 7420,
      "ĠëĤ©ì¹ĺ": 7421,
      "ë¸ĮëĿ¼": 7422,
      "ĠìľĦìķĪë¶Ģ": 7423,
      "ĠìķĪëı¼": 7424,
      "Ġì¤ĳíĻĶ": 7425,
      "ĠìķĬìķĺê³ł": 7426,
      "êµŃìĿĢ": 7427,
      "ìºł": 7428,
      "ĠëĵľëĿ¼ìĿ´": 7429,
      "Ġë°©ë²ķìĿĦ": 7430,
      "ĠìĪĺë°±": 7431,
      "Ġì£ł": 7432,
      "Ġë¸ĮëłĪìĿ´": 7433,
      "ĠìĤ´ì§Ŀ": 7434,
      "ì¢ħìĿ´": 7435,
      "Ġë²ķë¬´ë¶Ģìŀ¥ê´Ģ": 7436,
      "Ġëª¨íĭ°ë¸Į": 7437,
      "ë²łë¥´": 7438,
      "ĠìĦľë¸Į": 7439,
      "ìĭľì¼ľìķ¼": 7440,
      "ëĬĶê±°ëĥĲ": 7441,
      "ĠëĤĺëĿ¼ëĥĲ": 7442,
      "ìĦłìľ¼ë¡ľ": 7443,
      "Ġëį°ë¯¸ì§Ģ": 7444,
      "Ġë§ĮëĤľ": 7445,
      "Ġê³µìŀ¥": 7446,
      "ĠìĤ´ê¸°": 7447,
      "ëħĦìłĦ": 7448,
      "Ġì´Ŀìŀ¥": 7449,
      "íķ´ì§ĢëĬĶ": 7450,
      "ĠìµľìłĢìŀĦê¸Ī": 7451,
      "Ġíķľê¸Ģ": 7452,
      "ë³´ìĿ´": 7453,
      "ìľ¼ëŁ¬": 7454,
      "ĠíĨµíķ´ìĦľ": 7455,
      "ĠìĨįìĦ±": 7456,
      "ĠíķĺëĬĶì§ĵ": 7457,
      "ĠìĿ´ëĵ¤ìĿ´": 7458,
      "ë²ķìĿĢ": 7459,
      "ĠìĦ¸ìĥģìĿ´": 7460,
      "ĠìĿ´ê¸¸": 7461,
      "ĠìĦ¹": 7462,
      "Ġìª½íĮĶ": 7463,
      "ãģĤ": 7464,
      "ĠìĬ¤íĤ¬ìĿĦ": 7465,
      "Ġê±°ëĮĢ": 7466,
      "ëĭĺëĵ¤": 7467,
      "Ġì¤ĳìĹĲìĦľëıĦ": 7468,
      "ìķĦëıĦ": 7469,
      "Ġë¬¸ìłľëĭ¤": 7470,
      "ìĸ´ìł¸": 7471,
      "Ġê¸į": 7472,
      "ĠìĿ´íĽĦìĹĲëĬĶ": 7473,
      "ì¤Ģíĳľ": 7474,
      "Ġìı´": 7475,
      "ĠìĿ´ëĶ´": 7476,
      "ëĶĶìĸ¸": 7477,
      "ê¶ĮìĹĲìĦľ": 7478,
      "ĠìĿ´ê²¨": 7479,
      "Ġíķ¨ë¶Ģë¡ľ": 7480,
      "ĠíķĺëĤĺë¥¼": 7481,
      "Ġìľłìļ©": 7482,
      "Ġìĭľê°ģ": 7483,
      "ìŀ¥ëĤľ": 7484,
      "ë°°ë¥¼": 7485,
      "êµ¬ìĹŃ": 7486,
      "Ġë²ĶìľĦ": 7487,
      "ĠìĥĿê²¼ëĭ¤": 7488,
      "ìĿ´ìĸ¸": 7489,
      "Ġê³³ìĿ´": 7490,
      "Ġê°ķìļĶ": 7491,
      "Ġê¸°ìĥĿì¶©": 7492,
      "ëĵ±ìĿ´": 7493,
      "Ġë¹Ħìĭ¼": 7494,
      "ìĿ´ìĹĪì§Ģë§Į": 7495,
      "ĠìĹĲìĦľ": 7496,
      "ì°¨ìłĦ": 7497,
      "ĠìłķíĻķíŀĪ": 7498,
      "ê²ĥëĵ¤ìĿĢ": 7499,
      "ëĨĪìĿĢ": 7500,
      "Ġê¹¨ìĸ´": 7501,
      "Ġë¬¸ì£ĦìĿ¸": 7502,
      "Ġê¸°ìĹ¬": 7503,
      "ĠìĤ¬ìĿ´ë¹Ħ": 7504,
      "ĠìķĪëĤ´": 7505,
      "ĠìĪĺì¤Ģìľ¼ë¡ľ": 7506,
      "Ġë²ĮëłĪ": 7507,
      "Ġìĸ´ë¦¬": 7508,
      "Ġëī´ìļķ": 7509,
      "Ġê³³ìĹĲìĦľ": 7510,
      "Ġë³´ì»¬": 7511,
      "Ġì§Ģëªħ": 7512,
      "ìĦ¸íĬ¸": 7513,
      "Ġì¶©ëıĮ": 7514,
      "ìĤ¬ìĹĲìĦľ": 7515,
      "ĠëıĦëįķ": 7516,
      "ì¹ĺëıĦ": 7517,
      "ë¨¼íĬ¸": 7518,
      "ìŀĪìĿĦ": 7519,
      "ìĸ´ì¤Ģ": 7520,
      "ĠìķĦëĵ¤ìĿ´": 7521,
      "íĥĢìĿĺ": 7522,
      "ĠìŀĲì²´ë¥¼": 7523,
      "ĠìłĦìĪł": 7524,
      "Ġì»¤ë²Ħ": 7525,
      "ê´ĢìĿĢ": 7526,
      "ĠìŀĲìľłíķľêµŃëĭ¹": 7527,
      "Ġìĥģíĥľê°Ģ": 7528,
      "ê±°ìŀĦ": 7529,
      "Ġë°ĺë°ķ": 7530,
      "Ġê·¸ëĵ¤ìĿĢ": 7531,
      "íķ´ì£¼ìĦ¸ìļĶ": 7532,
      "ĠìķĬìľ¼ë©°": 7533,
      "Ġìĺ¤ë¡ľì§Ģ": 7534,
      "ĠìķĦìļ°": 7535,
      "04": 7536,
      "ĠëıĻìĿ¼íķľ": 7537,
      "ĠáĦįáĦįáĦį": 7538,
      "ĠíĨµê³Ħ": 7539,
      "Ġë³´ìĹ¬ì¤Ģ": 7540,
      "Ġê¹Ģìłķ": 7541,
      "ĠìĪĺìļĶ": 7542,
      "ĠíķĢ": 7543,
      "Ġë¥´": 7544,
      "Ġë¬´ê¸°ë¥¼": 7545,
      "ë¦¬ìĸ¼": 7546,
      "Ġê¿Ģ": 7547,
      "çİ": 7548,
      "ĠìĦ±ìĿ¸": 7549,
      "ì£¼íĥĿ": 7550,
      "Ġë¯¸ê°ľ": 7551,
      "êµ¬ë¨¼": 7552,
      "ĠâĢĵ": 7553,
      "ĠìĦľìĦľ": 7554,
      "ĠìĦ¸ìĥģìĹĲ": 7555,
      "ĠìľĦíķ´ìĦľëĬĶ": 7556,
      "å¾": 7557,
      "Ġë¬´ì£Ħ": 7558,
      "ĠëĤ¨ëħĢ": 7559,
      "Ġìĺ®ê²¨": 7560,
      "ĠìķĮëłī": 7561,
      "ìŀħëĭĪê¹Į": 7562,
      "éĽ": 7563,
      "ì°¨ë³Ħ": 7564,
      "ĠëĦ¤ê°Ģ": 7565,
      "Ġë°ľìķħ": 7566,
      "Ġìĭłì²´": 7567,
      "ë¦¬ëĬĶëį°": 7568,
      "ìĺ¤ìĿĺ": 7569,
      "Ġì¡´ìŀ¬íķĺëĬĶ": 7570,
      "Ġê²©ë¦¬": 7571,
      "Ġê´Ģìĭ¬ìĿĦ": 7572,
      "Ġë³´ìĿ´ê³ł": 7573,
      "Ġì§ĸ": 7574,
      "ëĤ¨ìŀĲ": 7575,
      "íĨłìĿĺ": 7576,
      "ëĮĢìĻĢ": 7577,
      "Ġis": 7578,
      "ĠëĦĺê²¨": 7579,
      "ë¬¸ì£Ħ": 7580,
      "ĠìĻľêµ¬": 7581,
      "ew": 7582,
      "Ġì£¼ìĹ°": 7583,
      "Ġë¹Ħìĥģ": 7584,
      "Ġë©įì²Ńíķľ": 7585,
      "ëĭ¬ëĿ¼": 7586,
      "ĠíĥĢìŀĦ": 7587,
      "Ġë§ĪìĿ¸": 7588,
      "ëĤĺë¯¸": 7589,
      "Ġë´īìĿ¸": 7590,
      "Ġëĭ¹íķ´": 7591,
      "ĠíŀĪíĬ¸": 7592,
      "Ġê²½ìłľê°Ģ": 7593,
      "Ġì°įìĿĢ": 7594,
      "ëĮĵ": 7595,
      "ĠìĻľê³¡": 7596,
      "Ġë§ĲìŀĲ": 7597,
      "ì£¼ìĹĲ": 7598,
      "Ġê´ľì°®ìĿĢ": 7599,
      "ĠìºĲëĤĺëĭ¤": 7600,
      "ĠìĹĲëĦĪì§Ģ": 7601,
      "ë²ĪìĹĲ": 7602,
      "ĠìĿ´ë²ĪìĹĲ": 7603,
      "Ġíı¼": 7604,
      "ë¿Į": 7605,
      "ìĭľê¸°": 7606,
      "ìĺ´": 7607,
      "ìĤ¬ì§Ħ": 7608,
      "íİ´": 7609,
      "ĠìĤ¬ìĿ´íĬ¸": 7610,
      "ĠëĪĮ": 7611,
      "ĠìĿĢíĸī": 7612,
      "Ġë¬´ëł¥": 7613,
      "Ġê°ķê°Ħ": 7614,
      "ëŀı": 7615,
      "Ġìŀ¡ëĬĶ": 7616,
      "ëħĦìĿĢ": 7617,
      "ĠìĦ¼íĦ°": 7618,
      "Ġë°ĽìķĦìķ¼": 7619,
      "Ġì£¼ë³ĢìĹĲ": 7620,
      "ĠìĤ¬ìĭ¤ìĿĢ": 7621,
      "ìĸ¼êµ´": 7622,
      "Ġê·¸ëłĩê³ł": 7623,
      "ĠìĦľìļ¸ëĮĢ": 7624,
      "Ġìĸ¼êµ´ìĿĦ": 7625,
      "Ġì£Ħë¥¼": 7626,
      "ĠìłĦë¬¸ê°Ģ": 7627,
      "Ġëĳĺëĭ¤": 7628,
      "ìĥĿìĿ´": 7629,
      "Ġê³ĦìĨįíķ´ìĦľ": 7630,
      "ĠìĻ¸ìĹĲ": 7631,
      "Ġìķ¡ìħĺ": 7632,
      "ê³µìĤ°ëĭ¹": 7633,
      "Ġìĸ¸ìłľëĤĺ": 7634,
      "Ġìļ´ìļ´": 7635,
      "Ġìĩł": 7636,
      "Ġr": 7637,
      "ìħĪ": 7638,
      "Ġëĭ¨ì§Ģ": 7639,
      "Ġì¶ľë§Ī": 7640,
      "ĠíķĺìĪĺ": 7641,
      "íĺķìĿĺ": 7642,
      "ëķĮê¹Įì§Ģ": 7643,
      "ë©´ìĿĦ": 7644,
      "OR": 7645,
      "ĠìĬ¤íİĺìĿ¸": 7646,
      "ĠíķľëĳĲ": 7647,
      "ì¦Ĳ": 7648,
      "Ġìĺ¬ë¦¬ëĬĶ": 7649,
      "ë²Ļ": 7650,
      "Ġë¶Ģì¡±íķľ": 7651,
      "ëĦĪëĬĶ": 7652,
      "ĠëĴ¤ìĹĲìĦľ": 7653,
      "Ġíĺķìłľ": 7654,
      "ìĺ¤ë©´": 7655,
      "ĠìĹŃìľ¼ë¡ľ": 7656,
      "ĠíĻ©ê¸Ī": 7657,
      "ëĭ¹íķł": 7658,
      "ĠìĨĮë©¸": 7659,
      "500": 7660,
      "Ġìķµ": 7661,
      "ĠëıĪìľ¼ë¡ľ": 7662,
      "ëĿ¼ìĭľ": 7663,
      "ìĤ¬íĤ¤": 7664,
      "Ġì§Īë¬¸": 7665,
      "Ġì£¼ì§Ģ": 7666,
      "ìĭłë¬¸": 7667,
      "ê±°ëĿ¼ê³ł": 7668,
      "ìķĺì§Ģë§Į": 7669,
      "ë¶ĦìĿĺ": 7670,
      "ëĦ¤ìĿ´ë²Ħ": 7671,
      "ìĤ¬ë¬´": 7672,
      "ĠìĦ¸ëĩĮ": 7673,
      "ĠìļĶìĥĪ": 7674,
      "Ġëĺĳëĺĳ": 7675,
      "ê±°ëĬĶ": 7676,
      "ud": 7677,
      "ĠëŃĶì§Ģ": 7678,
      "ĠìķĬê¸°": 7679,
      "ëħĦëıĻìķĪ": 7680,
      "å¸": 7681,
      "Ġíı¬ìĿ¸íĬ¸": 7682,
      "Ġë¬¸íĨµ": 7683,
      "ĠìľĦìĹĲìĦľ": 7684,
      "ìĿ¼ë¿Ĳ": 7685,
      "å¥": 7686,
      "Ġê³łìŀĳ": 7687,
      "Ġì»¤ë®¤ëĭĪíĭ°": 7688,
      "ĠëıĮíĮĮ": 7689,
      "ëħĶ": 7690,
      "ĠìĤ¬ëŀĮëĵ¤ìĿĺ": 7691,
      "Ġë¬´ìĭĿíķľ": 7692,
      "Ġ36": 7693,
      "Ġì§ĢìĹŃìĿĺ": 7694,
      "ĠìķĦëĭĮê°ĢìļĶ": 7695,
      "Ġbe": 7696,
      "Ġê°ķìłľë¡ľ": 7697,
      "Ġì¡°ë¡±": 7698,
      "ê¸°ìĹĲëĬĶ": 7699,
      "ĠëĨĢëĿ¼": 7700,
      "Ġëĭ¨ìĭĿ": 7701,
      "ĠìĭľìłĲìĹĲìĦľ": 7702,
      "ìĦ¸ìĹĲ": 7703,
      "Ġë®¤ì§ģ": 7704,
      "ĠíĪ": 7705,
      "ĠìĹ°ìķł": 7706,
      "ëĭ¤ëĬĶê²Į": 7707,
      "ĠìĹĨëĤĺ": 7708,
      "ì¶¤": 7709,
      "éĩĳ": 7710,
      "Ġë°©ìĨ¡ìĿĦ": 7711,
      "Ġê²ĮìŀĦìĿ´": 7712,
      "ë©Ķë¦¬ì¹´": 7713,
      "ìĻķìĿ´": 7714,
      "Ġë§Īì£¼": 7715,
      "ĠëĤĺë²ł": 7716,
      "Ġë¶Ģìĥģ": 7717,
      "ĠëħĢìĦĿ": 7718,
      "ë°Ķë¥¸": 7719,
      "iv": 7720,
      "ĠëĴ¤ì§ĳìĸ´": 7721,
      "Ġê°ĪìķĦ": 7722,
      "ìĺ¤ë¥¼": 7723,
      "ëıĻìĹĲ": 7724,
      "Ġê°ľíĨµ": 7725,
      "ìĦ¸ìĥģ": 7726,
      "Ġë§Įëĵłëĭ¤": 7727,
      "Ġìĺ¤ë¦¬": 7728,
      "ëĨĴ": 7729,
      "ëĮĢìŀ¥": 7730,
      "ĠìĻ¸ëª¨": 7731,
      "ĠìĤ¬ëŀĮëĵ¤ëıĦ": 7732,
      "íķĺì§ĢëıĦ": 7733,
      "ì§ĢëŀĦ": 7734,
      "ìĨĮìĹĲìĦľ": 7735,
      "ìĺ¤ìĬ¤": 7736,
      "Ġíĳľì¤Ģ": 7737,
      "ĠëĤļ": 7738,
      "Ġê´´ë¬¼": 7739,
      "ìĥīìĿĦ": 7740,
      "ĠìĿ´ê²ĥëıĦ": 7741,
      "Ġì§ĢìĭĿ": 7742,
      "ĠìĬ¹ê°ķ": 7743,
      "ĠìŀĲìĽĲ": 7744,
      "ĠìĿ´ëħĲ": 7745,
      "Ġìĸ´ëĶĶê¹Įì§Ģ": 7746,
      "Ġë¶ĢìĿ¸": 7747,
      "75": 7748,
      "ĠìĽĲê±°ë¦¬": 7749,
      "Ġê³łë°ľ": 7750,
      "ĠíĨµíķľ": 7751,
      "ì¶ľìĭł": 7752,
      "ore": 7753,
      "êµ¬ìĦĿ": 7754,
      "ĠìĦłë°°": 7755,
      "ĠíķĦìĤ´": 7756,
      "ëĤ´ê¸°": 7757,
      "ww": 7758,
      "Ġê·¸ëłĩëĭ¤": 7759,
      "Ġì½Ķë¯¸ëĶĶ": 7760,
      "íļĮìĹĲìĦľ": 7761,
      "ĠíĿ°": 7762,
      "''": 7763,
      "Ġíİĺë¥´": 7764,
      "Ġê²ĮìŀĦìĿĺ": 7765,
      "ĠìĦŃ": 7766,
      "ìħĶìĦľ": 7767,
      "Ġìĺ¤ìĬ¤íĬ¸": 7768,
      "AL": 7769,
      "Ġê·¸ëĵ¤ìĿ´": 7770,
      "íĮĮìĿ´ìĸ´": 7771,
      "ë»Ĳ": 7772,
      "ì¹ĺìĻĢ": 7773,
      "ìłķëĭ¹": 7774,
      "Ġíķ©ê²©": 7775,
      "Ġê·¸ëħĢëĬĶ": 7776,
      "ĠíĤ¤ìĽĮ": 7777,
      "ĠìĥĿê°ģíķľëĭ¤": 7778,
      "ĠìķĮì§Ģ": 7779,
      "ìĭ¤ìĹĲ": 7780,
      "Ġë©Ģíĭ°": 7781,
      "ĠìĿ´ëĵ¤": 7782,
      "ëĭ¹ìĭł": 7783,
      "Ġíĺ¹ìĭľ": 7784,
      "ĠìĻ¸ì¹ĺ": 7785,
      "ìķĦë¬´ë¦¬": 7786,
      "ĠìĺĪìĪł": 7787,
      "ì±ħìŀĦ": 7788,
      "194": 7789,
      "ĠíĻķë¥łìĿ´": 7790,
      "Ġìŀ¡ìĿĦ": 7791,
      "ë°´": 7792,
      "Ġ1999": 7793,
      "bs": 7794,
      "ĠìĪľìĭĿ": 7795,
      "ìłģìĿĺ": 7796,
      "Ġëįĺìł¸": 7797,
      "Ġê·¸ëħĢë¥¼": 7798,
      "ĠìĶ¨ë¶Ģ": 7799,
      "ĠìķĪíĥĢê¹Ŀ": 7800,
      "íĸĪëĤĺ": 7801,
      "ë£Įë¥¼": 7802,
      "Ġì§Ģê»Ħ": 7803,
      "Ġíķ´ë°©": 7804,
      "Ġì¹ĺëĬĶ": 7805,
      "av": 7806,
      "íķĺìħ¨": 7807,
      "Ġê°ĪìĪĺë¡Ŀ": 7808,
      "ëĦ¬": 7809,
      "ĠìĹĨìĹĪëįĺ": 7810,
      "Ġì¶Ķê°ĢëĲľ": 7811,
      "ê³µë¬´ìĽĲ": 7812,
      "íĨ°": 7813,
      "ë³´ìĬ¤": 7814,
      "Ġë¦´": 7815,
      "ìĺĪìļĶ": 7816,
      "Ġì¶©ì²Ń": 7817,
      "Ġìłľë¡ľ": 7818,
      "Ġê·ľëª¨": 7819,
      "Ġëª©ìłģìľ¼ë¡ľ": 7820,
      "ìķĦëĵ¤": 7821,
      "ëħ¸ì¡°": 7822,
      "ĠíķĺìľĦ": 7823,
      "ĠìľĹ": 7824,
      "ĠìłķìĥģìłģìĿ¸": 7825,
      "ĠìķĦìī½": 7826,
      "ding": 7827,
      "ìĹŃëĮĢ": 7828,
      "ìĿ¸ì§ĢëĿ¼": 7829,
      "ë¶ĢìĻĢ": 7830,
      "ĠëĤĺëĿ¼ìĹĲ": 7831,
      "íķ¨ìĹĲ": 7832,
      "Ġìĸ¸ìłł": 7833,
      "Ġë§ĪìĦ¸ìļĶ": 7834,
      "íĥĦíķµ": 7835,
      "ìĤ¬ëıĦ": 7836,
      "íĻ©êµĲìķĪ": 7837,
      "ĠìŀĦëĮĢ": 7838,
      "Ġíİ¸ìĿĺ": 7839,
      "Ġì©Ŀ": 7840,
      "ĠìŀĲìĭłëĵ¤ìĿĺ": 7841,
      "íķłëĵ¯": 7842,
      "Ġ1998": 7843,
      "Ġê¼¬ëĿ¼ì§Ģ": 7844,
      "Ġì§±ê°ľ": 7845,
      "Ġìļ°ìĬµ": 7846,
      "Ġê¹ĢìĦ±": 7847,
      "ĠíĬ¸ëłĪìĿ´": 7848,
      "ë§ĪëĬĶ": 7849,
      "ëª¨ëĳĲ": 7850,
      "Ġì§Ģìĭľ": 7851,
      "ç¾": 7852,
      "ãģĻ": 7853,
      "ĠëĲĺìŀĲ": 7854,
      "ĠíķĺëĤĺëĬĶ": 7855,
      "Ġëħ¼ë¬¸": 7856,
      "Ġìĸĳë°ĺ": 7857,
      "ìĺģìĿ´": 7858,
      "ĠìĹ°ë°©": 7859,
      "Ġì¤ĳê°ĦìĹĲ": 7860,
      "ìķĦë¥¼": 7861,
      "Ġíķľì°¸": 7862,
      "ĠìĦłìłĦ": 7863,
      "ĠëģĿëĤĺê³ł": 7864,
      "ëħ¸ëıĻ": 7865,
      "ĠëĮĢì¶©": 7866,
      "Ġê²½ìľł": 7867,
      "Ġíķľë²ĪëıĦ": 7868,
      "ĠëŃĲëĿ¼ê³ł": 7869,
      "Ġê¹ĢìĿ¼": 7870,
      "ĠíĥĳìĬ¹": 7871,
      "Ġìŀĺíķĺê³ł": 7872,
      "ign": 7873,
      "Ġë²Ķì£ĦìŀĲ": 7874,
      "Ġíļ¡": 7875,
      "ĠìķĦëĭĪëĿ¼ëĬĶ": 7876,
      "ĠìĥĪëģ¼ëĵ¤": 7877,
      "ëıĦëĮĢì²´": 7878,
      "íķ´ì¤Ģ": 7879,
      "ë¦¬ìķĪ": 7880,
      "ê°Ģë©°": 7881,
      "ê¹ĢìłķìĿĢ": 7882,
      "ĠáĦĴáĦĴáĦĴ": 7883,
      "ìķĮë°Ķ": 7884,
      "ĠáĦĤ": 7885,
      "ë¹¡": 7886,
      "íķ´ì£¼ê³ł": 7887,
      "ìĨĮìĦ¤": 7888,
      "ìĽĲìĪľ": 7889,
      "Ġê·¸ëŁ°ì§Ģ": 7890,
      "Ġìļ¸ìĤ°": 7891,
      "Ġê²ĥìĿ´ëĿ¼ëĬĶ": 7892,
      "Ġìłł": 7893,
      "Ġë§¡ìķĺëĭ¤": 7894,
      "Ġìĸ´ë§Ī": 7895,
      "ìļ´ëĭ¤": 7896,
      "ë³´ë¡ľ": 7897,
      "íĶĶ": 7898,
      "Ġë°Ģëł¤": 7899,
      "ĠìĹ¬ëŁ¬ê°Ģì§Ģ": 7900,
      "Ġì¥¬": 7901,
      "Ġê²ģëĭĪëĭ¤": 7902,
      "ìĥĪëģ¼ëĵ¤": 7903,
      "ĠíĻľìķ½ìĿĦ": 7904,
      "ëĸ¡": 7905,
      "Ġëĭ¤ìĪĺ": 7906,
      "Ġíķĺê¸°ëıĦ": 7907,
      "ë´¤ìŀĲ": 7908,
      "Ġëªħëĭ¨": 7909,
      "Ġë³µìŀ¡": 7910,
      "Ġìĭ¸ìļ°ëĬĶ": 7911,
      "ķìĭľ": 7912,
      "ìĿĮìķħ": 7913,
      "ëĭ¹íķ´": 7914,
      "Ġíķĺëł¤ê³ł": 7915,
      "ëķĮë¬¸": 7916,
      "Ġìĭľê¸°ìĹĲ": 7917,
      "ll": 7918,
      "ĠìĨĮíĶĦíĬ¸": 7919,
      "2005": 7920,
      "íĺľìĽĲ": 7921,
      "ìĿ¸ìĹĲ": 7922,
      "ĠìĿ¼ìĿ´ëĭ¤": 7923,
      "Ġê¸°ì²´": 7924,
      "Ġì¶ĶìłķëĲľëĭ¤": 7925,
      "Ġíķ©ë¦¬": 7926,
      "Ġë¦¬ìĸ¼": 7927,
      "Ġë°°ê²½ìľ¼ë¡ľ": 7928,
      "Ġë²łëĦ¤": 7929,
      "ëĮĢëıĦ": 7930,
      "Ġê´Ģê³Ħë¥¼": 7931,
      "Ġë²ĦíĬ¼": 7932,
      "ĠíĮĮê²¬": 7933,
      "Ġë³´ë³ĳ": 7934,
      "ĠìĹ¿": 7935,
      "Ġìĺ¬íķ´": 7936,
      "Ġì£½ê³ł": 7937,
      "ĠìĤ¬íļĮìłģ": 7938,
      "Ġë§īë§Ĳ": 7939,
      "ëł¹ìĿĦ": 7940,
      "ĠìĦłëıĻì§Ī": 7941,
      "Ġë°°ëĭ¬": 7942,
      "ĠÂ·": 7943,
      "Ġìŀ¬ìķĻìĿ´": 7944,
      "ĠíĨµìĭł": 7945,
      "ĠìĿ´ë¥´": 7946,
      "Ġê²½ê³Ħ": 7947,
      "Ġë§ŀê²Į": 7948,
      "ìĭľìĻĢ": 7949,
      "ìĦ±ìķł": 7950,
      "ĠìĿ´ìĬ¤": 7951,
      "ĠëĮĢìŀ¥": 7952,
      "Ġíķľëĭ¤ë©´": 7953,
      "Ġê´ĳìĹŃ": 7954,
      "ãģĳ": 7955,
      "ëĭ¤ì§Ģ": 7956,
      "Ġê³łê¸ī": 7957,
      "ëį°ìĬ¤": 7958,
      "ĠìķĦë¬´ëŀĺëıĦ": 7959,
      "ĠíķľìĿ¼": 7960,
      "ĠëĦ¥": 7961,
      "ë¯¸ëŀĺ": 7962,
      "ock": 7963,
      "EC": 7964,
      "ìĨĶì§ģíŀĪ": 7965,
      "ìłķëıĦë¡ľ": 7966,
      "Ġë¶Ģë¶ĦìĿĢ": 7967,
      "ìĹī": 7968,
      "ĠìķĦìĬ¤": 7969,
      "ë°Ľìķĺëĭ¤": 7970,
      "ìĭ¤íķľ": 7971,
      "ìĬ¤íĬ¸ë¡ľ": 7972,
      "Ġê°ĲìĦ±": 7973,
      "ëĸ¨": 7974,
      "ê³łìĿĺ": 7975,
      "Ġë¶ĦìľĦê¸°": 7976,
      "ëıĻìĿĺ": 7977,
      "Ġíİ¸ìĦ±": 7978,
      "ëł¸ê³ł": 7979,
      "Ġê´ĢíĨµ": 7980,
      "ìĬ¤íĮħ": 7981,
      "íĶĦëĬĶ": 7982,
      "Ġë°¸ëŁ°": 7983,
      "ë²łìĿ´": 7984,
      "Ġë§Īì§Ģë§īìľ¼ë¡ľ": 7985,
      "Ġë§Ĳíķĺê³ł": 7986,
      "ĠëĮĢë¥Ļ": 7987,
      "ì§ĳìĹĲ": 7988,
      "ë¡łìĿ´": 7989,
      "ĠìĿ¼ë³¸ìĹĲìĦľ": 7990,
      "OS": 7991,
      "Ġìĸ¸ìłľê¹Įì§Ģ": 7992,
      "ĠìŀĪìľ¼ë¯Ģë¡ľ": 7993,
      "īį": 7994,
      "Ġì§ĲìĬ¹": 7995,
      "åº": 7996,
      "íĿĶ": 7997,
      "ìĹĨìĿĮ": 7998,
      "Ġì§ĳíĸī": 7999,
      "ìĭ¤ìĹĲìĦľ": 8000,
      "ëłĻ": 8001,
      "ĠìľĦíĹĺíķľ": 8002,
      "ìĭ¤ìłľë¡ľ": 8003,
      "ĠìĬ¤íĥł": 8004,
      "Ġê·¼ë³¸": 8005,
      "êµ¬ëł¤": 8006,
      "ê³µìĭĿ": 8007,
      "ĠâĨ": 8008,
      "Ġê¸°ìĨĮ": 8009,
      "Ġê³łìĸĳ": 8010,
      "ãĢĤ": 8011,
      "idth": 8012,
      "ãģķ": 8013,
      "ĠëĮĢë¶Ģë¶ĦìĿ´": 8014,
      "éĢ": 8015,
      "Ġê±°ëĿ¼ê³ł": 8016,
      "ĠëĮĢê³µ": 8017,
      "íķ´ì¤Ħ": 8018,
      "Ġê³µìĿĦ": 8019,
      "ëįĶë¶Īìĸ´": 8020,
      "íķĺê²łëĭ¤ê³ł": 8021,
      "Ġëıħë¦½ìļ´ëıĻ": 8022,
      "ĠêµŃë¯¼ëĵ¤ìĿĦ": 8023,
      "ëį°ìĿ´": 8024,
      "Ġëĸłìĺ¬": 8025,
      "ìķĦëĭĮê°Ģ": 8026,
      "ĠìłĦìĽĲ": 8027,
      "Ġê°ķíķĺê²Į": 8028,
      "Ġì§ĳíļĮ": 8029,
      "Ġì¶©ìĦ±": 8030,
      "ë¥ĺë¥¼": 8031,
      "ëĵľìĹĲìĦľ": 8032,
      "ĠëĽ°ìĸ´ëĤĺ": 8033,
      "Ġì°¬ìĸĳ": 8034,
      "ë³´íĹĺ": 8035,
      "????????": 8036,
      "Ġê¸°ìĤ¬ê°Ģ": 8037,
      "ìĿ´ëķĮ": 8038,
      "ĠëıĪë²Į": 8039,
      "íĤ¨ëĭ¤": 8040,
      "age": 8041,
      "ëª¨ìĸĳ": 8042,
      "Ġìłķê¶ĮìĿĦ": 8043,
      "Ġë¯¼ì£¼ëĭ¹ìĿ´": 8044,
      "Ġìį©ìĿĢ": 8045,
      "ìĭľìĬ¤": 8046,
      "Ġë¬´ë¦İ": 8047,
      "ê¸¸ëŀĺ": 8048,
      "ìĿ¼ìĹĲëĬĶ": 8049,
      "order": 8050,
      "íĸĪëĭ¤ë©´": 8051,
      "ĠëĿ¼ìĿ´íĬ¸": 8052,
      "ĠìłģëıĦ": 8053,
      "ure": 8054,
      "ĠìķĦìĤ¬": 8055,
      "Ġë¯¸íĨµ": 8056,
      "íİ¸ìĿĺ": 8057,
      "Ġë¬¸ìĿĦ": 8058,
      "ìĤ¬ìĿ´íĬ¸": 8059,
      "Ġë¬´ìĹŃ": 8060,
      "ĠìłĦìĹ¼": 8061,
      "Ġê²ĥìĿ´ìĹĪëĭ¤": 8062,
      "ìĿ¼ëŀľëĵľ": 8063,
      "ê´ĢìĿĺ": 8064,
      "ĠìĥĿë¬¼": 8065,
      "íĨ¨ë¦Ń": 8066,
      "Ġì°¸ìłĦ": 8067,
      "ê¹Įì§Ģë§Į": 8068,
      "ê¼Ń": 8069,
      "ect": 8070,
      "ĠíķĺëįĶëĿ¼ëıĦ": 8071,
      "ass": 8072,
      "end": 8073,
      "Ġìľłìļ°": 8074,
      "ĠêµŃê°ĢëĮĢíĳľíĮĢ": 8075,
      "ĠìķĪê°Ģ": 8076,
      "|-": 8077,
      "ë¿Ĳë§Į": 8078,
      "Ġìĭ¬íķľ": 8079,
      "ĠëĤ´ìĹĲ": 8080,
      "Ġê¶Įíķľ": 8081,
      "ĠìĺģìĥģìĿĦ": 8082,
      "ĠëĭµìĿ´ëĭ¤": 8083,
      "ëħĦë§ĮìĹĲ": 8084,
      "ìĸ¸ìłľ": 8085,
      "ĠìĮĢ": 8086,
      "ĠFI": 8087,
      "ëĭĺìĿĦ": 8088,
      "ĠìķĪìĹĲìĦľ": 8089,
      "ãģªãģĦ": 8090,
      "ë§Īë£¨": 8091,
      "Ġê¹Ģìĺģ": 8092,
      "Ġíķĺê¸´": 8093,
      "Ġìłķì¹ĺë¥¼": 8094,
      "ĠìĿ¼ì¢ħìĿĺ": 8095,
      "íģ¬ëĿ¼": 8096,
      "Ġê±°ê¸°ëĭ¤": 8097,
      "ĠáĦĮáĦħ": 8098,
      "ĠëįĶëįĶ": 8099,
      "ome": 8100,
      "ĠìºĶ": 8101,
      "ëĭĪëĵ¤": 8102,
      "Ġë§Īêµ¬": 8103,
      "íķĺê¸°ëĬĶ": 8104,
      "95": 8105,
      "åĽ": 8106,
      "êµ°ê³¼": 8107,
      "ĠìŀĲê·¹": 8108,
      "Ġì»¨íħĲì¸ł": 8109,
      "Ġëħ¸ëŀĺë¥¼": 8110,
      "ĠëĮĢìĥģìľ¼ë¡ľ": 8111,
      "Ġëª¸ìĹĲ": 8112,
      "Ġì¤Ħìĸ´ëĵ¤": 8113,
      "ìĿ¸ìĹĲê²Į": 8114,
      "ĠíĸĪëĭ¤ëĬĶ": 8115,
      "ĠìĿĺê²¬ìĿ´": 8116,
      "Ġë±Ģ": 8117,
      "ere": 8118,
      "ìĭľíĶ¼": 8119,
      "ê·¸ëĿ¼": 8120,
      "ĠìķĬìĿĦê¹Į": 8121,
      "ĠìĪĺìĿµ": 8122,
      "ĠìĹŃìłĦ": 8123,
      "ĠìŀħìĿĦ": 8124,
      "Ġë³µìĪĺ": 8125,
      "ç¥": 8126,
      "ĠëĵľëĶĶìĸ´": 8127,
      "çĽ": 8128,
      "ë¬´ëĬ¥": 8129,
      "ëĲĺê²Į": 8130,
      "Ġê¸°ëĵĿ": 8131,
      "Ġìļ°ìĬ¹ìĿĦ": 8132,
      "ê°Ħì²©": 8133,
      "Ġë§İìķĺëĭ¤": 8134,
      "ĠìĭľëĤ´": 8135,
      "ëĦ¨": 8136,
      "íķ´ìĦľëĬĶ": 8137,
      "ĠìĻ¼ìª½": 8138,
      "ìĤ¼ìĦ±": 8139,
      "ĠìĹħê·¸ëłĪìĿ´ëĵľ": 8140,
      "Ġìŀ¬ëĬ¥": 8141,
      "ĠìŀĪëĭ¤ê°Ģ": 8142,
      "Ġìŀ¡íĺĢ": 8143,
      "ê´Ģê´ĳ": 8144,
      "ìļķìĿĦ": 8145,
      "ãĥĪ": 8146,
      "na": 8147,
      "ĠêµŃë¦½": 8148,
      "Ġíķ´ìłľ": 8149,
      "Ġë¹Ħë¡Ŀ": 8150,
      "Ġj": 8151,
      "ìĿ´ìłł": 8152,
      "Ġì²ĺìĿĮìĹĲëĬĶ": 8153,
      "ĠìĤĲ": 8154,
      "ĠìĥģíĴĪ": 8155,
      "íķĺê²ł": 8156,
      "ĠìĪľìĭĿê°ĦìĹĲ": 8157,
      "ĠìĬ¤íĮĮ": 8158,
      "ê¸°íĥĢ": 8159,
      "ìĨįìĿ´": 8160,
      "Ġìĸ´ë¦°ìĿ´": 8161,
      "Ġìħ°": 8162,
      "Ġíĺ¸êµ¬": 8163,
      "ĠëĤ¨ìŀĲê°Ģ": 8164,
      "Ġìĵ°ëłĪê¸°ëĵ¤": 8165,
      "ĠíĻĺìĺģ": 8166,
      "Ġë¶Īëªħ": 8167,
      "íĺķìľ¼ë¡ľ": 8168,
      "Ġë§ĪëĪĦ": 8169,
      "Ġêº¼ëĤ´": 8170,
      ",#": 8171,
      "Ġê´Ģìĭ¬ìĿ´": 8172,
      "Ġì¶ķíķĺ": 8173,
      "êµŃìĹĲìĦľ": 8174,
      "BO": 8175,
      "ft": 8176,
      "íĦ°ìĿĺ": 8177,
      "ìĸ´ëĸ»ê²Į": 8178,
      "Ġëĭ¹ìĭľìĹĲëĬĶ": 8179,
      "Ġê¸¸ìĿ´": 8180,
      "Ġë³´ë©´ìĦľ": 8181,
      "ê±±": 8182,
      "ĠìĤ°ëĭ¤": 8183,
      "ìĹ¬ê¸°ìĦľ": 8184,
      "ĠìŀĦìĭľ": 8185,
      "Ġë°ĽìķĦëĵ¤ìĿ´": 8186,
      "Ġê¸°ëıĦ": 8187,
      "Ġìľµ": 8188,
      "Ġë³¸ìĿ¸ëıĦ": 8189,
      "2004": 8190,
      "Ġ1997": 8191,
      "Ġê±¸ê³ł": 8192,
      "Ġë¹Ħìļ©": 8193,
      "ĠíĮ¨ëŁ¬ëĶĶ": 8194,
      "ĠëĦĪìĿĺ": 8195,
      "ëª¨ëį¸": 8196,
      "Ġê³µì§ľ": 8197,
      "Ġë°©íĸ¥ìľ¼ë¡ľ": 8198,
      "ì¡Įëĭ¤ê³ł": 8199,
      "ĠëĤĺìĿĺ": 8200,
      "ëĤĻìĹ°": 8201,
      "ìį¬": 8202,
      "ĠëĶĶìĬ¤": 8203,
      "ĠìłķëıĦê°Ģ": 8204,
      "ìŀ¥ëıĦ": 8205,
      "íĤ¥": 8206,
      "ìŀ¥ìĿ¸": 8207,
      "Ġë§ŀìĿ´": 8208,
      "LC": 8209,
      "ê³ĦìĹĲìĦľ": 8210,
      "Ġì²łìłĢ": 8211,
      "Ġë¡ľì¼ĵ": 8212,
      "Ġë§İëĦ¤": 8213,
      "Ġ99": 8214,
      "ë®": 8215,
      "íĨµìĿ¼": 8216,
      "ê±°ì§ĵ": 8217,
      "ìĤ¬íķŃ": 8218,
      "ìķŀìĹĲ": 8219,
      "ìŀĪìĿĮ": 8220,
      "Ġê·¹ëĭ¨": 8221,
      "ìĺ¤ë¦¬": 8222,
      "Ġë³´ê²Į": 8223,
      "ëł¹ìĿ´": 8224,
      "display": 8225,
      "Ġë¯¸ì³¤": 8226,
      "ĠíĿĶíŀĪ": 8227,
      "Ġì§Ģìĸ´": 8228,
      "ë³´ëĵľ": 8229,
      "ĠìłķìĿĢìĿ´": 8230,
      "ëĭ¤ë¦¬": 8231,
      "Ġë°Ķë¥´": 8232,
      "ê¸°ìĿ¸": 8233,
      "Ġê·¹ë³µ": 8234,
      "Ġêµ¶": 8235,
      "ëĶĶìķĦ": 8236,
      "ê°Ģì§ľ": 8237,
      "Ġì½Ķë¯¹": 8238,
      "ĠìłĦìŁģìĿĦ": 8239,
      "íķĺê²łì§Ģ": 8240,
      "ëĵ¤ìĿ¸": 8241,
      "ĠìĳĪ": 8242,
      "Ġì§ķìĹŃ": 8243,
      "ìŀ¡ìĿ´": 8244,
      "ĠHP": 8245,
      "Ġêµ¬ë©į": 8246,
      "Ġìĭ¸ìĽĮ": 8247,
      "íĺķìĿĢ": 8248,
      "Ġë§Ŀê°Ģ": 8249,
      "ëł¸ìĿĦ": 8250,
      "å±±": 8251,
      "ëĬĲëĭĪ": 8252,
      "ìĻĦìłĦ": 8253,
      "ìĿ´ê¸´": 8254,
      "íĳľë¥¼": 8255,
      "VE": 8256,
      "ĠìķĦìĺ¤": 8257,
      "Ġìļ°ë¦°": 8258,
      "ĠìĿ¼ìĥģ": 8259,
      "ëıĻëĦ¤": 8260,
      "íĮ¨ìĬ¤": 8261,
      "ĠëĴ¤ë¥¼": 8262,
      "ìĭľë©´": 8263,
      "ìŀĲëĵ¤ìĹĲê²Į": 8264,
      "ĠëĤĺê°ĢëĬĶ": 8265,
      "ìĽĲëĵ¤ìĿ´": 8266,
      "Ġëªħì¤ĳ": 8267,
      "Ġê¹ĬìĿĢ": 8268,
      "Ġë¬¸ìłľìĿ¸": 8269,
      "ìłĢìĶ¨": 8270,
      "ĠìłĦíĺķìłģìĿ¸": 8271,
      "ìĬ¤ëŁ¬": 8272,
      "ĠìķĦíĮĮ": 8273,
      "Ġì¹´ì¦Ī": 8274,
      "Ġìĭľì§Ħíķĳ": 8275,
      "ë§İìĿ´": 8276,
      "Ġ1996": 8277,
      "Ġê¶Įëł¥ìĿĦ": 8278,
      "ĠëłĪìĿ´ìłĢ": 8279,
      "ĠìĹĲìĸ´": 8280,
      "ĠíĻĶìĤ´": 8281,
      "ĠSh": 8282,
      "ĠìłģìĹĲê²Į": 8283,
      "ìĦľìĹĲ": 8284,
      "Ġë³´ìĹ¬ì£¼ê³ł": 8285,
      "ĠìĦ±ìļ°ëĬĶ": 8286,
      "ë°ĺëĮĢ": 8287,
      "êµŃëĤ´": 8288,
      "ĠìĿ¸ì§Ģ": 8289,
      "ĠíĮĲíĥĢ": 8290,
      "AS": 8291,
      "Ġì¢Įì¢Ģ": 8292,
      "ĠëĮĢíıŃ": 8293,
      "Ġ38": 8294,
      "Ġì§ĢìĹŃìĹĲ": 8295,
      "ĠíĸĪìľ¼ë©´": 8296,
      "ìłģíıĲ": 8297,
      "Ġëĭ¨ìĿ¼": 8298,
      "ðŁĲķ": 8299,
      "ëĵ¤ìĸ´ê°Ģ": 8300,
      "ĠìĹĨëĥĲ": 8301,
      "Ġê·¸ëŁ¬ëĭĪê¹Į": 8302,
      "are": 8303,
      "ì¡°ì§ģ": 8304,
      "éĸ": 8305,
      "ëĲĺìĦľ": 8306,
      "ìķĮê³ł": 8307,
      "ìĸ´ë¦°": 8308,
      "ëĤŃ": 8309,
      "ĠìĿ¼ìľ¼íĤ¤": 8310,
      "ĠëıĻëĤ¨": 8311,
      "ĠìĿ¼íķĺëĬĶ": 8312,
      "ng": 8313,
      "Ġìŀ¬ìĥĿ": 8314,
      "ê¿Ī": 8315,
      "Ġáħµ": 8316,
      "Ġê³ĦìĬ¹": 8317,
      "Ġíķĺì§Ģë§ĪëĿ¼": 8318,
      "Ġìľłíĸī": 8319,
      "Ġê°Ħìĭł": 8320,
      "Ġê³µì£¼": 8321,
      "Ġìª½ìľ¼ë¡ľ": 8322,
      "ĠìĦłë¬¼": 8323,
      "Ġì²ĺì¹ĺ": 8324,
      "ĠìĺĪì¸¡": 8325,
      "ĠêµĲíĻĺ": 8326,
      "Ġëļľ": 8327,
      "Ġíĺ¼ìŀĲìĦľ": 8328,
      "Ġìī´ëĵľ": 8329,
      "ëĤ´ëł¤": 8330,
      "ħìĭľëĭ¤": 8331,
      "ess": 8332,
      "íĿī": 8333,
      "ĠìłľëıĦ": 8334,
      "ìĨĮìĿĺ": 8335,
      "íķ´ë´ĲëĿ¼": 8336,
      "ĠìĹĨëįĺ": 8337,
      "İĦ": 8338,
      "ĠTh": 8339,
      "ĠëĵĢìĸ¼": 8340,
      "Ġì¡´ëĤĺ": 8341,
      "Ġë§Ĳë§Į": 8342,
      "ìĤ´ìĿ¸": 8343,
      "Ġì¤ĳìĨĮ": 8344,
      "ĠìŀĲìľłë¯¼ì£¼ì£¼ìĿĺ": 8345,
      "ĠíĽĦíļĮ": 8346,
      "Ġë¯¸ì¹ĺ": 8347,
      "ĠíĻķë¥łë¡ľ": 8348,
      "Ġê°Ģë¬¸": 8349,
      "ĠìĿ¸ê³µ": 8350,
      "Ġì£½ìĿ´ëĬĶ": 8351,
      "Ġìį¨ìĦľ": 8352,
      "ĠëĩĮê°Ģ": 8353,
      "éĿ": 8354,
      "ĠëĺĲëĿ¼ìĿ´": 8355,
      "Ġëĵ¤ìĹ¬": 8356,
      "ìľĦíķľ": 8357,
      "ìĸ´ëĬĲ": 8358,
      "Ġêµ¬ëĭ¨": 8359,
      "Ġì¡°ì§Ģ": 8360,
      "Ġíķ´ìĤ°": 8361,
      "íĨłì°©ìĻľêµ¬": 8362,
      "ìĨĮíķľ": 8363,
      "Ġëĭ¿": 8364,
      "ĠìĥģëĮĢìĿĺ": 8365,
      "Ġì«Ħ": 8366,
      "íĺ¸ìĤ¬": 8367,
      "Ġíī": 8368,
      "ìķĦíĮĮíĬ¸": 8369,
      "ĠíĤ¤ìļ°": 8370,
      "ëĤĺë²ł": 8371,
      "ëĲĺìĹĪìľ¼ëĤĺ": 8372,
      "ì£¼ìŀĲ": 8373,
      "íĺĦìĿ´": 8374,
      "ĠëĮĢë¦½": 8375,
      "Ġë§¡ìĿĢ": 8376,
      "ë²ħ": 8377,
      "ĠìķĦê°Ģ": 8378,
      "ĠíķľêµŃìĿĦ": 8379,
      "Ġ;": 8380,
      "ëŁ½ê²Į": 8381,
      "ĠìĿ´ëĿ¼ê³ł": 8382,
      "ì¶ķêµ¬": 8383,
      "ìĹĪì§Ģ": 8384,
      "Ġìĵ°ëłĪ": 8385,
      "Ġíķ´ìĦ¤": 8386,
      "ĠìłķìĭłìĿĦ": 8387,
      "ĠíĬ¸ìľĦíĦ°": 8388,
      "Ġì£¼ìĦ¸ìļĶ": 8389,
      "Ġê¹ĥ": 8390,
      "ĠìĭłìĿĺ": 8391,
      "ìļ°ìĬ¹": 8392,
      "ì¤ĳê¶Į": 8393,
      "Ġìļ©ë³ĳ": 8394,
      "ĠìĦľíı¬": 8395,
      "íĥĢëł¹": 8396,
      "ĠìĹ°ê¸Ī": 8397,
      "ëĨĪëĵ¤ìĿĢ": 8398,
      "Ġë°ľìĿĮ": 8399,
      "ĠíĮĢìĿĢ": 8400,
      "ë¦ĦìĿĦ": 8401,
      "Ġì²´ìľ¡": 8402,
      "ED": 8403,
      "ëŀŃíģ¬": 8404,
      "ĠìĦłíĺ¸": 8405,
      "ĠìłķíĻķíķľ": 8406,
      "ĠìķĪëĲł": 8407,
      "Ġì£¼ëª©": 8408,
      "Ġìłģê·¹ìłģìľ¼ë¡ľ": 8409,
      "ì¹´ë¥¼": 8410,
      "Ġì¶Ķê°ĢëĲĺìĹĪëĭ¤": 8411,
      "Ġìĺ¬ëŀĲ": 8412,
      "Ġë¬¼ëł¤": 8413,
      "ĠìŀĪëĬĶê²Į": 8414,
      "Ġê³¨ëĵľ": 8415,
      "Ġ1995": 8416,
      "Ġê±´ëĵľ": 8417,
      "ë§ĪìłĢëıĦ": 8418,
      "ìĿ¸ìĿ¸": 8419,
      "Ġêº¾": 8420,
      "Ġë°´ëĵľ": 8421,
      "ĠìĽĲìłĦ": 8422,
      "ĠëĪĦêµ´": 8423,
      "ìħ°": 8424,
      "Ġíıīëĵ±": 8425,
      "ìĹ¬ìĦ±": 8426,
      "ëĤĺëĿ¼ìĿĺ": 8427,
      "ĠìĿ´ìļ©íķ´ìĦľ": 8428,
      "Ġíķľëĭ¬": 8429,
      "Ġë¸ĮëĿ¼ì§Ī": 8430,
      "ĠíķĺëĿ¼ê³ł": 8431,
      "ì¡ĮëĬĶëį°": 8432,
      "Ġë³´ë³µ": 8433,
      "Ġ150": 8434,
      "Ġ!!!": 8435,
      "ë°ĶëŀĮ": 8436,
      "Ġê²½ê³ł": 8437,
      "íĮĮê°Ģ": 8438,
      "ëĮķ": 8439,
      "Ġê²½ê¸°ê°Ģ": 8440,
      "ĠíĸīìľĦ": 8441,
      "ìĻĢëĿ¼": 8442,
      "ĠìĥĪë²½": 8443,
      "Ġì²ľìķĪ": 8444,
      "íĬ¹ë³Ħìĭľ": 8445,
      "Ġëĭ¤ë¦¬": 8446,
      "ĠìĿĺì¡´": 8447,
      "ê¸°ëĦ¤": 8448,
      "ìĿ¸ìĤ¬": 8449,
      "ì²ĺë¦¬": 8450,
      "ĠìĦ¸íĬ¸": 8451,
      "Ġê·¸ê³³": 8452,
      "Ġë£°": 8453,
      "ìĿ¸ìĿ´ëĭ¤": 8454,
      "Ġë¯¸êµŃìĹĲìĦľ": 8455,
      "ĠRe": 8456,
      "Ġì¡°ê¸ĪìĶ©": 8457,
      "ê¸°ìĹĲìĦľ": 8458,
      "ĠêµŃê°ĢìĿĺ": 8459,
      "ëıĪìľ¼ë¡ľ": 8460,
      "ìĭŃëĭĪëĭ¤": 8461,
      "ĠëĲĺì°¾": 8462,
      "ĠìľłíĤ¤": 8463,
      "ìķĪíķĺê³ł": 8464,
      "Ġê°ĢìŀĲ": 8465,
      "ê¸īìľ¼ë¡ľ": 8466,
      "ĠëĤ¨ìĿĦ": 8467,
      "ĠìĿ¼ë°ĺìłģìľ¼ë¡ľ": 8468,
      "NS": 8469,
      "ĠìłľêµŃìĿĺ": 8470,
      "Ġìłķê¸Ģ": 8471,
      "ĠíıŃëł¥": 8472,
      "ĠêµĲìĤ¬": 8473,
      "ĠìŀĲê¸°ëĵ¤": 8474,
      "ĠìĪĺë¦¬": 8475,
      "ĠìłĢëħģ": 8476,
      "Ġìĭ¤ìĪĺ": 8477,
      "Ġê´Ģê³Ħê°Ģ": 8478,
      "Ġì¢ĭê²Į": 8479,
      "ood": 8480,
      "Ġë©Ķë¥´": 8481,
      "ĠëıĮìķĦê°ĢëĬĶ": 8482,
      "Ġë¡ľëĵľ": 8483,
      "ìķī": 8484,
      "Ġì£Ħê°Ģ": 8485,
      "ĠìĪľìľĦ": 8486,
      "ë¡łìĿĢ": 8487,
      "Ġë³´ìĹ¬ì£¼ìĹĪëĭ¤": 8488,
      "Ġë²ķë¥ł": 8489,
      "Ġë²ĦíĶĦ": 8490,
      "Ġëĵ±íĮĲ": 8491,
      "ĠëĳĲë²Īì§¸": 8492,
      "ë§Īëĥ¥": 8493,
      "Ġëª¨ìħĺ": 8494,
      "Ġë°©íĮ¨": 8495,
      "Ġê²ĥìĿ´ëĿ¼": 8496,
      "ìĽĲëĵ¤": 8497,
      "ìķ¼êµ¬": 8498,
      "ĠìŀĪìĸ´ìļĶ": 8499,
      "ĠìĤ¬ì§ĦìĿĦ": 8500,
      "ë°ĽëĬĶëĭ¤": 8501,
      "ì¦ĪëĬĶ": 8502,
      "sp": 8503,
      "ĠëĲĺìĸ´ìĦľ": 8504,
      "ĠìĬ¤íĤ¨": 8505,
      "ìķ¼ê°Ģ": 8506,
      "ëĭĪëĬĶ": 8507,
      "Ġì¡°ìĦ±": 8508,
      "ĠìĨĮìĪĺ": 8509,
      "ĠìĺģìĹħ": 8510,
      "ĠíĬ¹ê²Ģ": 8511,
      "ëĶ°ëĿ¼": 8512,
      "ìĨįìľ¼ë¡ľ": 8513,
      "Ġíĥľìĸ´ëĤľ": 8514,
      "Ġì«ĵìķĦ": 8515,
      "ĠìłĦë©´": 8516,
      "Ġìĭłì²ľ": 8517,
      "ee": 8518,
      "ĠìĦľë¹Ħ": 8519,
      "ĠíĽĦìĹĲëĬĶ": 8520,
      "Ġì£¼ëĳ¥": 8521,
      "ĠíĽĮë¥Ńíķľ": 8522,
      "ĠìĬ¤íĬľ": 8523,
      "Ġëª¸ìĿ´": 8524,
      "Ġìĵ°ìĿ´ëĬĶ": 8525,
      "Ġìĸ´ê¹¨": 8526,
      "Ġì´Īëĵ±íķĻêµĲ": 8527,
      "ðŁĩ": 8528,
      "ê¹Įì§ĢìĿĺ": 8529,
      "ĠìĿ¼ë°©": 8530,
      "ìĭ¸ìĽĢ": 8531,
      "Ġê¼´íĨµ": 8532,
      "ë§Įëĵ¤": 8533,
      "ëĮĢíĨµëł¹ìĿ´": 8534,
      "ĠëĤ¨íĥĵ": 8535,
      ")\"": 8536,
      "ìĭľì§Ģ": 8537,
      "Ġì±Ħë¡ľ": 8538,
      "ä¸Ģ": 8539,
      "Ġëª¨ë¥´ê²łëĭ¤": 8540,
      "ëĤĺê²½ìĽĲ": 8541,
      "Ġëĵ¤ìĸ´ê°Ī": 8542,
      "ĠìĺĪìĤ°": 8543,
      "uc": 8544,
      "ìĹĪëĦ¤": 8545,
      "Ġì£¼ëł¥": 8546,
      "ìľłìĭľë¯¼": 8547,
      "ìŀĳìĿĺ": 8548,
      "Ġë¶ģê´´": 8549,
      "ê¸īìĿĺ": 8550,
      "Ġìĭľíĭ°": 8551,
      "Ġìľłê³µìŀĲ": 8552,
      "ĠìķĦìĿ´ê°Ģ": 8553,
      "íķ¨ê³¼": 8554,
      "Ġëª¹": 8555,
      "Ġë¨¹ìĿĢ": 8556,
      "Ġëĭ¹íķĺëĬĶ": 8557,
      "Ġì²łëıĦìĹŃ": 8558,
      "íĸĪìľ¼ëĭĪ": 8559,
      "ĠìĬ¤íĮĮìĿ´": 8560,
      "íģ´ëŁ½": 8561,
      "ĠãĢİ": 8562,
      "ë¹łì§Ħ": 8563,
      "ì§Ģë¦¬": 8564,
      "ê²ĥê°Ļ": 8565,
      "ĠìĸĳìĤ°": 8566,
      "ë§ĿìĿ´": 8567,
      "Ġê¹¨ëĭ«": 8568,
      "Ġíķ©ì³Ĳ": 8569,
      "ãĥª": 8570,
      "ĠíļĮìĿĺ": 8571,
      "áĦİ": 8572,
      "ĠìĿ´ëĵ¤ìĿĺ": 8573,
      "ĠìīĲ": 8574,
      "Ġë¬´ëĮĢ": 8575,
      "ë²ķìĽĲ": 8576,
      "ìłĦìĹĲìĦľëĬĶ": 8577,
      "ì§Ģêµ¬": 8578,
      "ĠìĿ´ìļ©íķĺìĹ¬": 8579,
      "Ġi": 8580,
      "Ġë¬´ê²Į": 8581,
      "Ġìĸ´ê·¸": 8582,
      "Ġë¶ĢíĮ¨": 8583,
      "ìĬ¤íĬ¸ë¥¼": 8584,
      "Ġëį¸": 8585,
      "ĠëĬĲëĤĮìĿ´": 8586,
      "ĠëĮĢì¶ľ": 8587,
      "ì²´ìĹĲ": 8588,
      "ĠìĹ°ìĺĪìĿ¸": 8589,
      "Ġìŀħìŀ¥ìĹĲìĦľëĬĶ": 8590,
      "Ġë²¼": 8591,
      "æ³": 8592,
      "ìłķê¶ĮìĿ´": 8593,
      "ë°©ìĹĲìĦľ": 8594,
      "Ġê³°": 8595,
      "Ġë°ĶëĿ¼ëĬĶ": 8596,
      "ìŀĳìĿĦ": 8597,
      "Ġìłľì¶ľ": 8598,
      "ìĤ¬ëŀĮëĵ¤ìĿ´": 8599,
      ")(": 8600,
      "Ġë¬¸ìŀ¬ìķĻìĿ´": 8601,
      "ĠêµŃë¯¼ëĵ¤ìĿĺ": 8602,
      "ê³µìĿĺ": 8603,
      "Ġë¯¼ëħ¸ì´Ŀ": 8604,
      "ĠíķĺëĤĺìĿ¸": 8605,
      "ìĿ´ì¹ĺ": 8606,
      "ian": 8607,
      "ëŀ´": 8608,
      "Ġì¤ĳìĿ¸": 8609,
      "Ġê·¸ëĭ¤ì§Ģ": 8610,
      "ìŀĪëĭ¤ê³ł": 8611,
      "ëª¨ìĬµ": 8612,
      "Ġë¶ĢíĴĪ": 8613,
      "ĠìłĢë¦¬": 8614,
      "åŃĲ": 8615,
      "ê°Ģëĭ¤": 8616,
      "Ġëĳ¥": 8617,
      "Ġê°ĲëıħìĿĺ": 8618,
      "ìĹ°ê¸Ī": 8619,
      "ë³´íĨµ": 8620,
      "ëŁ¬ìĭľìķĦ": 8621,
      "ìĦ¸íķľ": 8622,
      "ë¸Įë¦¬": 8623,
      "ìķĦë§Ī": 8624,
      "è¦": 8625,
      "Ġì¿Ħ": 8626,
      "Ġëª¨ìĬµìĿĢ": 8627,
      "ìĽĶë¶ĢíĦ°": 8628,
      "ĠëĮĢë°ķ": 8629,
      "ëĭ¹ê³¼": 8630,
      "Ġê²°ê³¼ê°Ģ": 8631,
      "ĠíİĢ": 8632,
      "ì§Īë¡ľ": 8633,
      "íĸīìłķ": 8634,
      "ĠëĤ¨ê²¨": 8635,
      "Ġë¹ĦìĬ·íķĺê²Į": 8636,
      "ìķĦëŀĺ": 8637,
      "íĸ¥ìĿĦ": 8638,
      "Ġë©Ķëĭ¬": 8639,
      "ì¢ħêµĲ": 8640,
      "ĠëĮĵ": 8641,
      "Ġìĸ´ì¨Į": 8642,
      "ĠëĿ¼ìĿ´ë²Į": 8643,
      "ë°Į": 8644,
      "Ġê¸įìłķ": 8645,
      "ìĸ´ëĸ¤": 8646,
      "Ġì»¤ëħķ": 8647,
      "?????": 8648,
      "ĠíĦ¸ìĸ´": 8649,
      "Ġë³´ë©°": 8650,
      "ĠëķĮë¬¸ìĿ¸ì§Ģ": 8651,
      "Ġìĺ¤ë¥¸ìª½": 8652,
      "ĠìŀĺíķĺëĬĶ": 8653,
      "Ġì¦Ī": 8654,
      "ĠëĵĿìłĲ": 8655,
      "ĠíķĺëĿ½": 8656,
      "Ġìµľìĥģ": 8657,
      "ìĬ¤ìĹĲê²Į": 8658,
      "Ġê²°ê³¼ë¥¼": 8659,
      "Ġì¢Įìļ°": 8660,
      "Ġêµ¬ëĿ¼": 8661,
      "ìķĦì§Ģ": 8662,
      "íķĺë©´ìĦľëıĦ": 8663,
      "¼ìĨĲ": 8664,
      "Ġë²Ħëł¤": 8665,
      "ìĸ´ë§Ī": 8666,
      "íĮĲìĿĢ": 8667,
      "GM": 8668,
      "Ġì´Ŀë¦¬": 8669,
      "ĠìĿ´ìĬ¬ëŀĮ": 8670,
      "ìķĦëĭĪëĿ¼": 8671,
      "ide": 8672,
      "ĠìķĦë²Ħì§Ģê°Ģ": 8673,
      "ĠëĦĵìĿĢ": 8674,
      "ĠíĿł": 8675,
      "ê³łìĥĿ": 8676,
      "ìĹŃìĹĲìĦľ": 8677,
      "ĠëıĻìĸĳ": 8678,
      "Ġë¯¸êµŃìĿĢ": 8679,
      "ĠìĦłìĪĺê°Ģ": 8680,
      "Ġê½Ĥ": 8681,
      "Ġìļ°ë¦¬ëıĦ": 8682,
      "ge": 8683,
      "ĠíĻĶìĿ´íĬ¸": 8684,
      "ĠìĤ¬ìĿ´ìĿĺ": 8685,
      "ë£¨ë¥¼": 8686,
      "%)": 8687,
      "ĠìŀĦê¸Ī": 8688,
      "Ġì¶Ķìłģ": 8689,
      "ĠìĬ¤íĥ¯": 8690,
      "ĠíıŃíĸī": 8691,
      "ìĦ±íĻĶ": 8692,
      "St": 8693,
      "ë²ķìľ¼ë¡ľ": 8694,
      "ĠíİĺìĿ´": 8695,
      "Ġì¡°êµŃìĿĦ": 8696,
      "Ġê³µíĻĶêµŃ": 8697,
      "ĠíıĲìĩĦ": 8698,
      "ĠìŀĲë¹łì¡ĮëĦ¤": 8699,
      "Ġëª©ìĤ¬": 8700,
      "ëĲľëĭ¤ê³ł": 8701,
      "Ġë¬´ëĤľ": 8702,
      "Ġê²Ĳ": 8703,
      "Ġì§Ħìĭ¬ìľ¼ë¡ľ": 8704,
      "ë¶ĦìĿĢ": 8705,
      "ĠìķĪíķĺëĬĶ": 8706,
      "Ġëª»íķĺë©´": 8707,
      "Ġ1980": 8708,
      "ì§ĳìĿĦ": 8709,
      "Ġì¹¨ëŀµ": 8710,
      "Ġìľ¼ë¡ľ": 8711,
      "ĠìĹĲëĿ¼ìĿ´": 8712,
      "ĠëĮĢíķĺìĹ¬": 8713,
      "Ġê±´ì§Ģ": 8714,
      "ĠìĤ¬ìļ©íķĺë©´": 8715,
      "Ġì£¼ë§Ĳ": 8716,
      "ĠìĪľìĪĺ": 8717,
      "ĠìľĦê¸°ìĹĲ": 8718,
      "ĠìĹ°ê·¹": 8719,
      "ê³¼ëıĦ": 8720,
      "Ġìĭľê°ĦìĹĲ": 8721,
      "íĬ¸ëŁ¼íĶĦ": 8722,
      "ìĹ¬ìķ¼": 8723,
      "Ġë§ĪëĤĺ": 8724,
      "íİ¸ìĹĲìĦľ": 8725,
      "ĠSp": 8726,
      "Ġìĭ¤ìĹħ": 8727,
      "ĠíĬ¸ëŀĻ": 8728,
      "ĠìķĦìĿ´íħľìĿĦ": 8729,
      "Ġì¢ĭê³ł": 8730,
      "Ġëŀľëį¤": 8731,
      "ĠíĨłì°©": 8732,
      "ĠìŀĲìľĦ": 8733,
      "íķłê±°": 8734,
      "Ġde": 8735,
      "Ġë¶Ģì§Ħ": 8736,
      "ãģ£ãģ¦": 8737,
      "ìį©": 8738,
      "ìľ¨ìĿĦ": 8739,
      "Ġìĸ»ëĬĶ": 8740,
      "ĠìŀĪìĹĪëĭ¤ê³ł": 8741,
      "Ġë³¸ê²©ìłģìľ¼ë¡ľ": 8742,
      "ĠëĤ´ë¦¬": 8743,
      "ìķ¨": 8744,
      "ìĸ´ì°¨íĶ¼": 8745,
      "ê²¸": 8746,
      "Ġê°ĩ": 8747,
      "Ġìłľì£¼": 8748,
      "Ġê°ĪëĿ¼": 8749,
      "ë¯¸ìĤ¬": 8750,
      "ĠNo": 8751,
      "Ġì§ĳìĿĦ": 8752,
      "ĠíĶĮëłĪìĿ´ìĸ´ê°Ģ": 8753,
      "æ´": 8754,
      "ĠìłĦì§ģ": 8755,
      "Ġì¤ĳêµŃìĿĢ": 8756,
      "ĠíĻĶëł¤": 8757,
      "ë¡ľìĦľìĿĺ": 8758,
      "ĠëĮĢë§Į": 8759,
      "ë¦¬ìĸ¸": 8760,
      "ĠëķĲ": 8761,
      "Ġìĭłê·ľ": 8762,
      "47": 8763,
      "Ġë§¤ëħĦ": 8764,
      "íĶ¼ìĬ¤": 8765,
      "Ġë¬´ëį¤": 8766,
      "ĠìķĬìķĦëıĦ": 8767,
      "ìºĶ": 8768,
      "ê´ĳì£¼": 8769,
      "Ġë§ĲëĿ¼ê³ł": 8770,
      "ë³´ìĦ¸ìļĶ": 8771,
      "ìĨĮëĬĶ": 8772,
      "Ġì¹´ë¥´": 8773,
      "ĠìĤ¬ëŀĮëĵ¤ìĹĲê²Į": 8774,
      "ìļ´ìłĦ": 8775,
      "ë³į": 8776,
      "ê³µìĤ¬": 8777,
      "Ġìŀ¥êµ°": 8778,
      "ĠáĦĬ": 8779,
      "ĠíļĮìŀ¥": 8780,
      "Ġëĵ¤ìĿĦ": 8781,
      "ĠìķĦê°Ģë¦¬": 8782,
      "ìķĦëĭĪëĥĲ": 8783,
      "ĠìĹ¬ëıĻìĥĿ": 8784,
      "Ġor": 8785,
      "Ġê²ĥìĿ¸ì§Ģ": 8786,
      "ë½ķ": 8787,
      "íķĺê²łëĭ¤ëĬĶ": 8788,
      "Ġì´ĪìĽĶ": 8789,
      "ìĭĿìĹĲ": 8790,
      "55": 8791,
      "ëĭ´ìĿĦ": 8792,
      "ìĪĺìĪĺìĥī": 8793,
      "íķĻìłģ": 8794,
      "ì£¼ìĿĺìŀĲ": 8795,
      "Ġìĵ¸ëį°": 8796,
      "ĠìĿ¸ê·¼": 8797,
      "íĹĲ": 8798,
      "ĠìĿ´ëĿ¼": 8799,
      "ĠìŃī": 8800,
      "ë¡ľë¡ľ": 8801,
      "íĸĪìĸ´": 8802,
      "íĮ½": 8803,
      "ê±°ë¦¬ë¥¼": 8804,
      "ëĮĢìĭł": 8805,
      "ê°ģìĿĦ": 8806,
      "êµŃíļĮìĿĺ": 8807,
      "ìĭľìŀĳ": 8808,
      "Ġìłľê°Ģ": 8809,
      "ĠëĬĳ": 8810,
      "ìķĦëĭĺ": 8811,
      "íĮĮë¥¼": 8812,
      "Ġë£Į": 8813,
      "Ġìĺ¤ë¹ł": 8814,
      "Ġê·ľìłķ": 8815,
      "Ġë¶Ģë¶ĦìĿĦ": 8816,
      "ĠëĮĢê·ľëª¨": 8817,
      "ëĭ·": 8818,
      "ĠìłĢê²Į": 8819,
      "ĠìłĢê±°": 8820,
      "ì¦ĿìĿĦ": 8821,
      "Ġìĥĺ": 8822,
      "ĠìŀĦê¸°": 8823,
      "ìŀĲë§ĪìŀĲ": 8824,
      "ìłķíĻķ": 8825,
      "ĠìĭłìĦ¤": 8826,
      "ìĭ¬ìĿĢ": 8827,
      "ë°Ń": 8828,
      "ĠìŀĥìĿĢ": 8829,
      "Ġìĭ¤ìłľë¡ľëĬĶ": 8830,
      "ĠìĿ´ìľłë¥¼": 8831,
      "ëĭĪìĿĺ": 8832,
      "ë¬¸ìŀ¬ìĿ¸ìĿ´": 8833,
      "Ġë°ĶëĢĲ": 8834,
      "ran": 8835,
      "ãĥĥ": 8836,
      "ĠìĹ°ë´ī": 8837,
      "ĠíıĲê¸°": 8838,
      "ĠëĵľëĬĶ": 8839,
      "Ġëħ¹ìĿĮ": 8840,
      "ĠëıĦëĭ¬": 8841,
      "ĠìĨĮìļ¸": 8842,
      "ê°ľìĿ¸": 8843,
      "ë¶ĢìĿ¸": 8844,
      "ĠìĪ¨ìĸ´": 8845,
      "ĠíķĻìĽĲ": 8846,
      "Ġê²ĥìŀħëĭĪëĭ¤": 8847,
      "Ġê¸°ìłĪ": 8848,
      "ëĿ¼ìĹĺ": 8849,
      "ĠëĤĺë¥¼": 8850,
      "Ġë°ĺìĿĳìĿĦ": 8851,
      "ĠëĤĺì¹´": 8852,
      "Ġë³´ìĿ´ë©°": 8853,
      "å¼": 8854,
      "ìĿ¼ëıĦ": 8855,
      "ĠíĬĢìĸ´ëĤĺ": 8856,
      "ĠìķĪìĬµ": 8857,
      "íĮĲìĹĲìĦľëĬĶ": 8858,
      "ire": 8859,
      "æĹ¥": 8860,
      "ëŃĺ": 8861,
      "Ġë¡±": 8862,
      "Ġì¶ľíĮĲ": 8863,
      "Ġìĵ°ëŁ¬ëľ¨": 8864,
      "Ġborder": 8865,
      "ë³´íĺ¸": 8866,
      "Ġê±¸ì³Ĳ": 8867,
      "ĠíķĺëĿ¼": 8868,
      "ĠìĭłìĿ¸": 8869,
      "íı¬ë¥´": 8870,
      "Ġì¶Ķë°©": 8871,
      "íıŃíĥĦ": 8872,
      "ìĽĮëĵľ": 8873,
      "Ġê°Ģëł¤": 8874,
      "ì²ŃìĻĢëĮĢ": 8875,
      "Ġíķ«": 8876,
      "ê´ĢìĹĲ": 8877,
      "íıīìĸĳ": 8878,
      "ãģ¡": 8879,
      "ìķĦëĥĲ": 8880,
      "\",": 8881,
      "Ġëĭ¤ìĭľëĬĶ": 8882,
      "Ġì¤ĳíķĻêµĲ": 8883,
      "ë§¤êµŃ": 8884,
      "ĠìĿ¼ë³¸ìľ¼ë¡ľ": 8885,
      "ĠìŀĲëĬĶ": 8886,
      "ĠìĹ°ê´Ģ": 8887,
      "ì±ħìĿĦ": 8888,
      "ê¸°ë©´": 8889,
      "Ġbackground": 8890,
      "ëĤ´ë©°": 8891,
      "..?": 8892,
      "Ġìĸ´ìĿ´ê°Ģ": 8893,
      "Ġíĺ¸íħĶ": 8894,
      "ĠëģĶì°į": 8895,
      "ĠìŀħìĹĲ": 8896,
      "Ġë¶ģë¯¸": 8897,
      "ì¡±ìĿĺ": 8898,
      "Ġìĭ¼": 8899,
      "Ġíģ´ë¦¬": 8900,
      "Ġëľ»ìĿĦ": 8901,
      "ĠíĥĢëł¹": 8902,
      "ìľłë¥¼": 8903,
      "Ġëĭ¹ìĭľìĿĺ": 8904,
      "ĠìĿ´ìª½": 8905,
      "ëį±": 8906,
      "ëĭ¤ë³´ëĭĪ": 8907,
      "Ġ518": 8908,
      "Ġíķ©ìĭľëĭ¤": 8909,
      "qu": 8910,
      "ê´Ħ": 8911,
      "ĠìļķíķĺëĬĶ": 8912,
      "Ġëĵ±ìĹĲìĦľ": 8913,
      "ë°ľìłĦ": 8914,
      "ĠìĦ¸ìĿ´": 8915,
      "Ġëľ¯ìĸ´": 8916,
      "Ġíķĺê±°ëĤĺ": 8917,
      "ëĦĲíĭ°": 8918,
      "Ġê·¹ìŀ¥íĮĲ": 8919,
      "ĠìĹĲíľ´": 8920,
      "ĠìŀħêµŃê¸Īì§Ģ": 8921,
      "Ġë³´ìĿ¼": 8922,
      "Ġê°ĢëĤľ": 8923,
      "Ġê¸°ëĬ¥ìĿĦ": 8924,
      "Ġíķ´ëªħ": 8925,
      "Ġê³µê²©ìĿ´": 8926,
      "ëŁŃìĭľ": 8927,
      "Ġê³³ìľ¼ë¡ľ": 8928,
      "ëķĮë§Īëĭ¤": 8929,
      "Ġêµ¬ì¶ľ": 8930,
      "Ġì°¸ìľ¼ë¡ľ": 8931,
      "ê¼´íĨµ": 8932,
      "Ġë§ĲëĿ¼": 8933,
      "íİ¸ìĿ´": 8934,
      "Ġëį§": 8935,
      "Ġë°ĸìľ¼ë¡ľ": 8936,
      "Ġíģ¬ë¦¬": 8937,
      "ë§Įíģ¼ìĿĢ": 8938,
      "ìĻĢëıĦ": 8939,
      "Ġë§¡ê³ł": 8940,
      "ĠëģĿëĤ¬": 8941,
      "ĠìĿ´ëŁ°ê±°": 8942,
      "Ġìĭ¸ìļ¸": 8943,
      "íĥĢê³ł": 8944,
      "ĹëĤł": 8945,
      "íķ´ì§Ģ": 8946,
      "ĠìĿ¼ì°į": 8947,
      "ìĹŃìĹĲ": 8948,
      "Ġìĺ¤ìĺ¤": 8949,
      "ì°¨ë¡Ģ": 8950,
      "Ġë¶ĦëªħíŀĪ": 8951,
      "ĠëĤĺìĿĢ": 8952,
      "ize": 8953,
      "ìĨĮë¡ľ": 8954,
      "ë°ĶìĿ¼": 8955,
      "ë²ĦíĬ¸": 8956,
      "ĠìĺĪëĬ¥": 8957,
      "Ġì¹´ë©ĶëĿ¼": 8958,
      "Ġì¡°ì¤Ģ": 8959,
      "Ġê°ĲëıħìĿ´": 8960,
      "argin": 8961,
      "ëĵľë¦½ëĭĪëĭ¤": 8962,
      "íķĻê¸ī": 8963,
      "ëĦ¤ëĵ¤": 8964,
      "Ġíķ¸ëĵľ": 8965,
      "ì¡°ìĦłìĿ¼ë³´": 8966,
      "ĠìĹŃìĤ¬ë¥¼": 8967,
      "íķĺê³łìŀĲ": 8968,
      "ĠìĿ¸ìĪĺ": 8969,
      "ì¤ĳìĹĲëıĦ": 8970,
      "ake": 8971,
      "ĠëįĶëįĶìļ±": 8972,
      "Ġíŀĺìľ¼ë¡ľ": 8973,
      "ãģĪ": 8974,
      "ĠìĪĺìĹħ": 8975,
      "Ġìĵ°ìĿ¸ëĭ¤": 8976,
      "ĠëķĮìĹĲëĬĶ": 8977,
      "ëĵłëĭ¤": 8978,
      "Ġê·¸ëħĢê°Ģ": 8979,
      "ĠëĤĺê°Ħ": 8980,
      "Ġëĭ¬ë¦°": 8981,
      "ê´Ģìľ¼ë¡ľ": 8982,
      "ĠëĮĢìĥģìĿ´": 8983,
      "ëĮĢê¸°": 8984,
      "íķĺìĭľëĬĶ": 8985,
      "íĻĺê²½": 8986,
      "ìľ¼ìĭł": 8987,
      "ĠëĤľìĿ´ëıĦê°Ģ": 8988,
      "ì½ĶëĬĶ": 8989,
      "Ġíģ¬ê³ł": 8990,
      "Ġê¹Ģê²½": 8991,
      "ĠìĹ°ê³Ħ": 8992,
      "ok": 8993,
      "æĻ": 8994,
      "ë§¤ë§¤": 8995,
      "ĠíķĦë¦¬": 8996,
      "ë³ĢìĿ´": 8997,
      "ĠìĬ¤íĶĦ": 8998,
      "íļĮëĬĶ": 8999,
      "Ġáħ®áħ®": 9000,
      "ĠíĻķì§ĦìŀĲ": 9001,
      "ëĲĺìĸ´ìĦľ": 9002,
      "Ġê¸°ë¡ĿìĿĦ": 9003,
      "Ġìĸ´ëł¤ìĽĮ": 9004,
      "ĠìŀĪëĬĶê±°": 9005,
      "ìķĦëĭĪê³ł": 9006,
      "ĠìŀĳëıĻ": 9007,
      "ì¦ĪíĤ¤": 9008,
      "ĠíĹ¤ìĸ´": 9009,
      "ĠìĿ´ìĽĥ": 9010,
      "Ġíİ¸ìŀħ": 9011,
      "ì°¨ìĹĲ": 9012,
      "2002": 9013,
      "ĠëªħìĿ´": 9014,
      "MBC": 9015,
      "ìĹĪëĥĲ": 9016,
      "ì¸Ħ": 9017,
      "Ġì¤ĳêµŃìĹĲìĦľ": 9018,
      "Ġëĸ¡ë°¥": 9019,
      "Ġê°ĦìĿĺ": 9020,
      "ê¸īìĿ´": 9021,
      "ĠíĹĺ": 9022,
      "ĠíĺĦìĥģ": 9023,
      "Ġëħ¸íĬ¸": 9024,
      "ìĬ¤íĬ¸ëĿ¼": 9025,
      "íĻĺìĿ´": 9026,
      "ID": 9027,
      "íķ´ì¤Ģëĭ¤": 9028,
      "NA": 9029,
      "Ġëª¨ìľ¼": 9030,
      "ê¸°ê¸°": 9031,
      "íķ´ì§Ģê³ł": 9032,
      "ìľĻ": 9033,
      "ĠëłĪìłĦëĵľ": 9034,
      "ĠìĿ¸ë¬¼ìĿ´": 9035,
      "ìĸ´ë²Ħë¦°": 9036,
      "ëĭĪëĵ¤ìĿ´": 9037,
      "ĠìĤ¬ìĿ´ê°Ģ": 9038,
      "ĠíħĮë§Ī": 9039,
      "Ġë§ŀìĿĢ": 9040,
      "Ġë°ľë§¤ëĲľ": 9041,
      "ĠíĨłë¡ł": 9042,
      "ë£¨ìĿĺ": 9043,
      "Ġê·¸ìĻĢ": 9044,
      "ì°¸ìĹĲ": 9045,
      "Ġê²°ì½Ķ": 9046,
      "ĠìĿ´ìłľìĻĢìĦľ": 9047,
      "Ġëĭ¤íĸīíŀĪ": 9048,
      "Ġíħľ": 9049,
      "Ġìĺ¬ë¦¬ê³ł": 9050,
      "ìĺĢëĭ¤ëĬĶ": 9051,
      "Ġëĵ¤ìĸ´ê°Ķ": 9052,
      "ĠìĹ´ìĸ´": 9053,
      "Ġê°ļ": 9054,
      "Ġì£½ì°½": 9055,
      "íķ´ëĨĵê³ł": 9056,
      "Ġì´ĿìĦłìĹĲìĦľ": 9057,
      "Ġíķ´ëĭ¹íķĺëĬĶ": 9058,
      "íĸīìľĦ": 9059,
      "ê²ĮìĿ´": 9060,
      "ê·¸ëĬĶ": 9061,
      "Ġmy": 9062,
      "ìĽ¨ëį´": 9063,
      "Ġë©Ķê°Ģ": 9064,
      "ĠìłķìĭłìĿ´": 9065,
      "íĺĦëĮĢ": 9066,
      "ĠëĤĺëīĺ": 9067,
      "Ġë©ĶìĿ´ìłĢ": 9068,
      "Ġíİ¸ìĿ´": 9069,
      "ĠáĦħ": 9070,
      "ëĦĺëĵ¤": 9071,
      "ĠëĶľëŁ¬": 9072,
      "ĠìĦ¸ëĮĢ": 9073,
      "ĠëªħíĻķ": 9074,
      "Ġê°Ģë³į": 9075,
      "íĭĢëĶ±": 9076,
      "íĮ©íĬ¸": 9077,
      "Ġì¡°ìłĪ": 9078,
      "Ġêµ¬íĺĦ": 9079,
      "Ġì¶ĺ": 9080,
      "Ġê³µíĻĶ": 9081,
      "íĺ¸ë¡ľ": 9082,
      "ëıĻìľ¼ë¡ľ": 9083,
      "Ġìłķê¶ĮìĿĺ": 9084,
      "ðŁĴĻ": 9085,
      "ìŀĲë£Į": 9086,
      "Ġëį°ìĬ¤": 9087,
      "ëŀĳìĿ´": 9088,
      "Ġëŀ©": 9089,
      "ĠìĦ±ëĬ¥ìĿ´": 9090,
      "Ġì±ĦìĽĮ": 9091,
      "íĺĢìĦľ": 9092,
      "æµ": 9093,
      "íĿ¬ê°Ģ": 9094,
      "Ġìĺ¤íķ´": 9095,
      "ìĿ¸ëĵ¤ìĿĺ": 9096,
      "ĠìķĦì¤Įë§Ī": 9097,
      "Ġì¡°êµŃìĿĢ": 9098,
      "Ġìłķì°©": 9099,
      "íĮĮìĿĺ": 9100,
      "ĠìŀĲìĭłê³¼": 9101,
      "ĠìĿ´ëĿ¼ëĬĶ": 9102,
      "ê¹Įìļ´": 9103,
      "Ġëĵ±ê³¼": 9104,
      "Ġê²½ì°°ìĿ´": 9105,
      "Ġê³ĦíļįìĿĦ": 9106,
      "Ġì§ĢìĨįìłģìľ¼ë¡ľ": 9107,
      "ĠëŃĲíķĺëĬĶ": 9108,
      "ĠìłĢì§Ģë¥¸": 9109,
[...]
