{
  "version": "1.0",
  "truncation": null,
  "padding": null,
  "added_tokens": [
    {
      "id": 0,
      "content": "<unk>",
      "single_word": false,
      "lstrip": false,
      "rstrip": false,
      "normalized": false,
      "special": true
    },
    {
      "id": 1,
      "content": "<s>",
      "single_word": false,
      "lstrip": false,
      "rstrip": false,
      "normalized": false,
      "special": true
    },
    {
      "id": 2,
      "content": "</s>",
      "single_word": false,
      "lstrip": false,
      "rstrip": false,
      "normalized": false,
      "special": true
    }
  ],
  "normalizer": {
    "type": "NFKC"
  },
  "pre_tokenizer": {
    "type": "Metaspace",
    "replacement": "▁",
    "add_prefix_space": true
  },
  "post_processor": null,
  "decoder": {
    "type": "Metaspace",
    "replacement": "▁",
    "add_prefix_space": true
  },
  "model": {
    "type": "BPE",
    "dropout": null,
    "unk_token": "<unk>",
    "continuing_subword_prefix": null,
    "end_of_word_suffix": null,
    "fuse_unk": true,
    "byte_fallback": false,
    "vocab": {
      "<unk>": 0,
      "<s>": 1,
      "</s>": 2,
      "\n": 3,
      "!": 4,
      "\"": 5,
      "#": 6,
      "%": 7,
      "&": 8,
      "'": 9,
      "(": 10,
      ")": 11,
      "*": 12,
      "+": 13,
      ",": 14,
      "-": 15,
      ".": 16,
      "/": 17,
      "0": 18,
      "1": 19,
      "2": 20,
      "3": 21,
      "4": 22,
      "5": 23,
      "6": 24,
      "7": 25,
      "8": 26,
      "9": 27,
      ":": 28,
      ";": 29,
      "<": 30,
      "=": 31,
      ">": 32,
      "?": 33,
      "A": 34,
      "B": 35,
      "C": 36,
      "D": 37,
      "E": 38,
      "F": 39,
      "G": 40,
      "H": 41,
      "I": 42,
      "J": 43,
      "K": 44,
      "L": 45,
      "M": 46,
      "N": 47,
      "O": 48,
      "P": 49,
      "Q": 50,
      "R": 51,
      "S": 52,
      "T": 53,
      "U": 54,
      "V": 55,
      "W": 56,
      "X": 57,
      "Y": 58,
      "Z": 59,
      "[": 60,
      "\\": 61,
      "]": 62,
      "^": 63,
      "_": 64,
      "a": 65,
      "b": 66,
      "c": 67,
      "d": 68,
      "e": 69,
      "f": 70,
      "g": 71,
      "h": 72,
      "i": 73,
      "j": 74,
      "k": 75,
      "l": 76,
      "m": 77,
      "n": 78,
      "o": 79,
      "p": 80,
      "r": 81,
      "s": 82,
      "t": 83,
      "u": 84,
      "v": 85,
      "w": 86,
      "x": 87,
      "y": 88,
      "z": 89,
      "{": 90,
      "|": 91,
      "}": 92,
      "~": 93,
      "·": 94,
      "ᄀ": 95,
      "ᄁ": 96,
      "ᄂ": 97,
      "ᄃ": 98,
      "ᄅ": 99,
      "ᄇ": 100,
      "ᄉ": 101,
      "ᄋ": 102,
      "ᄌ": 103,
      "ᄍ": 104,
      "ᄏ": 105,
      "ᄒ": 106,
      "ᅮ": 107,
      "ᅲ": 108,
      "ᅳ": 109,
      "ᆞ": 110,
      "‘": 111,
      "’": 112,
      "“": 113,
      "”": 114,
      "→": 115,
      "▁": 116,
      "《": 117,
      "》": 118,
      "「": 119,
      "」": 120,
      "い": 121,
      "し": 122,
      "た": 123,
      "て": 124,
      "な": 125,
      "に": 126,
      "の": 127,
      "る": 128,
      "ー": 129,
      "가": 130,
      "각": 131,
      "간": 132,
      "갈": 133,
      "감": 134,
      "갑": 135,
      "값": 136,
      "갔": 137,
      "강": 138,
      "갖": 139,
      "같": 140,
      "개": 141,
      "객": 142,
      "갤": 143,
      "갱": 144,
      "거": 145,
      "걱": 146,
      "건": 147,
      "걸": 148,
      "검": 149,
      "겁": 150,
      "것": 151,
      "게": 152,
      "겐": 153,
      "겟": 154,
      "겠": 155,
      "겨": 156,
      "격": 157,
      "겪": 158,
      "견": 159,
      "결": 160,
      "겸": 161,
      "겹": 162,
      "겼": 163,
      "경": 164,
      "계": 165,
      "고": 166,
      "곡": 167,
      "곤": 168,
      "곧": 169,
      "골": 170,
      "곳": 171,
      "공": 172,
      "과": 173,
      "관": 174,
      "광": 175,
      "괜": 176,
      "괴": 177,
      "굉": 178,
      "교": 179,
      "구": 180,
      "국": 181,
      "군": 182,
      "굳": 183,
      "굴": 184,
      "궁": 185,
      "권": 186,
      "귀": 187,
      "규": 188,
      "균": 189,
      "그": 190,
      "극": 191,
      "근": 192,
      "글": 193,
      "금": 194,
      "급": 195,
      "기": 196,
      "긴": 197,
      "길": 198,
      "김": 199,
      "깊": 200,
      "까": 201,
      "깐": 202,
      "깔": 203,
      "깜": 204,
      "깝": 205,
      "깨": 206,
      "꺼": 207,
      "껏": 208,
      "께": 209,
      "껴": 210,
      "꼬": 211,
      "꼭": 212,
      "꼴": 213,
      "꽃": 214,
      "꽤": 215,
      "꾸": 216,
      "꾼": 217,
      "꿀": 218,
      "꿈": 219,
      "꿔": 220,
      "뀌": 221,
      "끄": 222,
      "끊": 223,
      "끌": 224,
      "끔": 225,
      "끝": 226,
      "끼": 227,
      "낌": 228,
      "나": 229,
      "낙": 230,
      "난": 231,
      "날": 232,
      "남": 233,
      "납": 234,
      "낫": 235,
      "났": 236,
      "낮": 237,
      "낳": 238,
      "내": 239,
      "낸": 240,
      "낼": 241,
      "냄": 242,
      "냈": 243,
      "냉": 244,
      "냐": 245,
      "냥": 246,
      "너": 247,
      "넌": 248,
      "널": 249,
      "넓": 250,
      "넘": 251,
      "넣": 252,
      "네": 253,
      "넷": 254,
      "녀": 255,
      "년": 256,
      "념": 257,
      "녕": 258,
      "노": 259,
      "녹": 260,
      "논": 261,
      "놀": 262,
      "놈": 263,
      "농": 264,
      "높": 265,
      "놓": 266,
      "놔": 267,
      "뇌": 268,
      "누": 269,
      "눈": 270,
      "뉴": 271,
      "느": 272,
      "는": 273,
      "늘": 274,
      "능": 275,
      "늦": 276,
      "니": 277,
      "닉": 278,
      "닌": 279,
      "닐": 280,
      "님": 281,
      "닛": 282,
      "닝": 283,
      "다": 284,
      "닥": 285,
      "단": 286,
      "닫": 287,
      "달": 288,
      "닭": 289,
      "담": 290,
      "답": 291,
      "당": 292,
      "대": 293,
      "댄": 294,
      "댓": 295,
      "더": 296,
      "덕": 297,
      "던": 298,
      "덜": 299,
      "덤": 300,
      "덩": 301,
      "덮": 302,
      "데": 303,
      "덱": 304,
      "덴": 305,
      "델": 306,
      "도": 307,
      "독": 308,
      "돈": 309,
      "돌": 310,
      "동": 311,
      "돼": 312,
      "됐": 313,
      "되": 314,
      "된": 315,
      "될": 316,
      "됨": 317,
      "됩": 318,
      "두": 319,
      "둑": 320,
      "둔": 321,
      "둘": 322,
      "둥": 323,
      "뒤": 324,
      "뒷": 325,
      "듀": 326,
      "드": 327,
      "득": 328,
      "든": 329,
      "듣": 330,
      "들": 331,
      "듬": 332,
      "듯": 333,
      "등": 334,
      "디": 335,
      "딘": 336,
      "딜": 337,
      "딩": 338,
      "따": 339,
      "딱": 340,
      "딴": 341,
      "딸": 342,
      "땅": 343,
      "때": 344,
      "땐": 345,
      "떠": 346,
      "떡": 347,
      "떤": 348,
      "떨": 349,
      "떻": 350,
      "떼": 351,
      "또": 352,
      "똑": 353,
      "똥": 354,
      "뛰": 355,
      "뜨": 356,
      "뜯": 357,
      "뜻": 358,
      "라": 359,
      "락": 360,
      "란": 361,
      "랄": 362,
      "람": 363,
      "랍": 364,
      "랐": 365,
      "랑": 366,
      "래": 367,
      "랙": 368,
      "랜": 369,
      "램": 370,
      "랫": 371,
      "랬": 372,
      "랭": 373,
      "략": 374,
      "량": 375,
      "러": 376,
      "럭": 377,
      "런": 378,
      "럴": 379,
      "럼": 380,
      "럽": 381,
      "렀": 382,
      "렇": 383,
      "레": 384,
      "렉": 385,
      "렌": 386,
      "려": 387,
      "력": 388,
      "련": 389,
      "렬": 390,
      "렴": 391,
      "렵": 392,
      "렸": 393,
      "령": 394,
      "례": 395,
      "로": 396,
      "록": 397,
      "론": 398,
      "롤": 399,
      "롭": 400,
      "롯": 401,
      "롱": 402,
      "뢰": 403,
      "료": 404,
      "룡": 405,
      "루": 406,
      "룬": 407,
      "룹": 408,
      "류": 409,
      "륙": 410,
      "률": 411,
      "르": 412,
      "른": 413,
      "를": 414,
      "름": 415,
      "릇": 416,
      "리": 417,
      "릭": 418,
      "린": 419,
      "릴": 420,
      "림": 421,
      "립": 422,
      "릿": 423,
      "링": 424,
      "마": 425,
      "막": 426,
      "만": 427,
      "많": 428,
      "말": 429,
      "맘": 430,
      "맙": 431,
      "맛": 432,
      "망": 433,
      "맞": 434,
      "맡": 435,
      "매": 436,
      "맥": 437,
      "맨": 438,
      "맵": 439,
      "맹": 440,
      "머": 441,
      "먹": 442,
      "먼": 443,
      "멀": 444,
      "멋": 445,
      "멍": 446,
      "메": 447,
      "멘": 448,
      "멜": 449,
      "멤": 450,
      "며": 451,
      "면": 452,
      "멸": 453,
      "명": 454,
      "몇": 455,
      "모": 456,
      "목": 457,
      "몬": 458,
      "몰": 459,
      "몸": 460,
      "못": 461,
      "몽": 462,
      "묘": 463,
      "무": 464,
      "묵": 465,
      "문": 466,
      "묻": 467,
      "물": 468,
      "뭉": 469,
      "뭐": 470,
      "뭔": 471,
      "뭘": 472,
      "뮤": 473,
      "므": 474,
      "미": 475,
      "믹": 476,
      "민": 477,
      "믿": 478,
      "밀": 479,
      "밍": 480,
      "및": 481,
      "밑": 482,
      "바": 483,
      "박": 484,
      "밖": 485,
      "반": 486,
      "받": 487,
      "발": 488,
      "밝": 489,
      "밤": 490,
      "밥": 491,
      "방": 492,
      "배": 493,
      "백": 494,
      "밴": 495,
      "버": 496,
      "번": 497,
      "벌": 498,
      "범": 499,
      "법": 500,
      "벗": 501,
      "베": 502,
      "벤": 503,
      "벨": 504,
      "벼": 505,
      "벽": 506,
      "변": 507,
      "별": 508,
      "병": 509,
      "보": 510,
      "복": 511,
      "본": 512,
      "볼": 513,
      "봄": 514,
      "봇": 515,
      "봉": 516,
      "봐": 517,
      "봤": 518,
      "부": 519,
      "북": 520,
      "분": 521,
      "불": 522,
      "붕": 523,
      "붙": 524,
      "뷔": 525,
      "뷰": 526,
      "브": 527,
      "븐": 528,
      "블": 529,
      "비": 530,
      "빅": 531,
      "빈": 532,
      "빌": 533,
      "빙": 534,
      "빛": 535,
      "빠": 536,
      "빡": 537,
      "빨": 538,
      "빵": 539,
      "빼": 540,
      "뻔": 541,
      "뽑": 542,
      "뿌": 543,
      "뿐": 544,
      "쁘": 545,
      "쁜": 546,
      "사": 547,
      "삭": 548,
      "산": 549,
      "살": 550,
      "삶": 551,
      "삼": 552,
      "상": 553,
      "새": 554,
      "색": 555,
      "생": 556,
      "샤": 557,
      "서": 558,
      "석": 559,
      "선": 560,
      "설": 561,
      "섬": 562,
      "섭": 563,
      "성": 564,
      "세": 565,
      "센": 566,
      "셀": 567,
      "셈": 568,
      "셋": 569,
      "셔": 570,
      "션": 571,
      "셜": 572,
      "셨": 573,
      "소": 574,
      "속": 575,
      "손": 576,
      "솔": 577,
      "송": 578,
      "쇄": 579,
      "쇠": 580,
      "쇼": 581,
      "수": 582,
      "숙": 583,
      "순": 584,
      "술": 585,
      "숨": 586,
      "숫": 587,
      "숭": 588,
      "쉬": 589,
      "쉽": 590,
      "슈": 591,
      "스": 592,
      "슨": 593,
      "슬": 594,
      "슴": 595,
      "습": 596,
      "슷": 597,
      "승": 598,
      "시": 599,
      "식": 600,
      "신": 601,
      "실": 602,
      "싫": 603,
      "심": 604,
      "십": 605,
      "싱": 606,
      "싶": 607,
      "싸": 608,
      "싹": 609,
      "싼": 610,
      "쌍": 611,
      "쌓": 612,
      "써": 613,
      "썩": 614,
      "썼": 615,
      "쏘": 616,
      "쓰": 617,
      "쓴": 618,
      "쓸": 619,
      "씨": 620,
      "씩": 621,
      "씬": 622,
      "아": 623,
      "악": 624,
      "안": 625,
      "앉": 626,
      "않": 627,
      "알": 628,
      "암": 629,
      "압": 630,
      "앗": 631,
      "았": 632,
      "앙": 633,
      "앞": 634,
      "애": 635,
      "액": 636,
      "앤": 637,
      "앨": 638,
      "야": 639,
      "약": 640,
      "양": 641,
      "얘": 642,
      "어": 643,
      "억": 644,
      "언": 645,
      "얻": 646,
      "얼": 647,
      "엄": 648,
      "업": 649,
      "없": 650,
      "엇": 651,
      "었": 652,
      "엉": 653,
      "에": 654,
      "엑": 655,
      "엔": 656,
      "엘": 657,
      "여": 658,
      "역": 659,
      "연": 660,
      "열": 661,
      "염": 662,
      "였": 663,
      "영": 664,
      "옆": 665,
      "예": 666,
      "옛": 667,
      "오": 668,
      "옥": 669,
      "온": 670,
      "올": 671,
      "옮": 672,
      "옵": 673,
      "옷": 674,
      "옹": 675,
      "와": 676,
      "완": 677,
      "왔": 678,
      "왕": 679,
      "왜": 680,
      "외": 681,
      "요": 682,
      "욕": 683,
      "용": 684,
      "우": 685,
      "욱": 686,
      "운": 687,
      "울": 688,
      "움": 689,
      "웃": 690,
      "웅": 691,
      "워": 692,
      "원": 693,
      "월": 694,
      "웠": 695,
      "웨": 696,
      "웹": 697,
      "위": 698,
      "윈": 699,
      "유": 700,
      "육": 701,
      "윤": 702,
      "율": 703,
      "융": 704,
      "으": 705,
      "은": 706,
      "을": 707,
      "음": 708,
      "읍": 709,
      "응": 710,
      "의": 711,
      "이": 712,
      "익": 713,
      "인": 714,
      "일": 715,
      "읽": 716,
      "잃": 717,
      "임": 718,
      "입": 719,
      "잇": 720,
      "있": 721,
      "잉": 722,
      "잊": 723,
      "자": 724,
      "작": 725,
      "잔": 726,
      "잖": 727,
      "잘": 728,
      "잠": 729,
      "잡": 730,
      "장": 731,
      "재": 732,
      "쟁": 733,
      "저": 734,
      "적": 735,
      "전": 736,
      "절": 737,
      "젊": 738,
      "점": 739,
      "접": 740,
      "정": 741,
      "제": 742,
      "젠": 743,
      "젤": 744,
      "져": 745,
      "졌": 746,
      "조": 747,
      "족": 748,
      "존": 749,
      "졸": 750,
      "좀": 751,
      "좃": 752,
      "종": 753,
      "좋": 754,
      "좌": 755,
      "죄": 756,
      "죠": 757,
      "주": 758,
      "죽": 759,
      "준": 760,
      "줄": 761,
      "줌": 762,
      "중": 763,
      "줘": 764,
      "줬": 765,
      "쥐": 766,
      "쥬": 767,
      "즈": 768,
      "즉": 769,
      "즌": 770,
      "즐": 771,
      "즘": 772,
      "증": 773,
      "지": 774,
      "직": 775,
      "진": 776,
      "질": 777,
      "짐": 778,
      "집": 779,
      "짓": 780,
      "징": 781,
      "짖": 782,
      "짜": 783,
      "짝": 784,
      "짧": 785,
      "짱": 786,
      "째": 787,
      "쩌": 788,
      "쩔": 789,
      "쩝": 790,
      "쪽": 791,
      "쫓": 792,
      "쯤": 793,
      "찌": 794,
      "찍": 795,
      "차": 796,
      "착": 797,
      "찬": 798,
      "찮": 799,
      "찰": 800,
      "참": 801,
      "창": 802,
      "찾": 803,
      "채": 804,
      "책": 805,
      "챔": 806,
      "챙": 807,
      "처": 808,
      "척": 809,
      "천": 810,
      "철": 811,
      "첨": 812,
      "첩": 813,
      "첫": 814,
      "청": 815,
      "체": 816,
      "쳐": 817,
      "쳤": 818,
      "초": 819,
      "촉": 820,
      "촌": 821,
      "촛": 822,
      "총": 823,
      "촬": 824,
      "최": 825,
      "추": 826,
      "축": 827,
      "춘": 828,
      "출": 829,
      "춤": 830,
      "충": 831,
      "춰": 832,
      "취": 833,
      "츠": 834,
      "측": 835,
      "층": 836,
      "치": 837,
      "칙": 838,
      "친": 839,
      "칠": 840,
      "침": 841,
      "칭": 842,
      "카": 843,
      "칸": 844,
      "칼": 845,
      "캐": 846,
      "캠": 847,
      "커": 848,
      "컨": 849,
      "컬": 850,
      "컴": 851,
      "컵": 852,
      "컷": 853,
      "케": 854,
      "켄": 855,
      "켓": 856,
      "켜": 857,
      "켰": 858,
      "코": 859,
      "콘": 860,
      "콜": 861,
      "콤": 862,
      "콩": 863,
      "쿄": 864,
      "쿠": 865,
      "쿨": 866,
      "퀘": 867,
      "퀴": 868,
      "큐": 869,
      "크": 870,
      "큰": 871,
      "클": 872,
      "큼": 873,
      "키": 874,
      "킨": 875,
      "킬": 876,
      "킹": 877,
      "타": 878,
      "탁": 879,
      "탄": 880,
      "탈": 881,
      "탐": 882,
      "탑": 883,
      "탓": 884,
      "탕": 885,
      "태": 886,
      "택": 887,
      "탱": 888,
      "터": 889,
      "턴": 890,
      "털": 891,
      "테": 892,
      "텐": 893,
      "텔": 894,
      "템": 895,
      "토": 896,
      "톤": 897,
      "통": 898,
      "퇴": 899,
      "투": 900,
      "튀": 901,
      "튜": 902,
      "트": 903,
      "특": 904,
      "튼": 905,
      "틀": 906,
      "티": 907,
      "틱": 908,
      "틴": 909,
      "팀": 910,
      "팅": 911,
      "파": 912,
      "판": 913,
      "팔": 914,
      "패": 915,
      "팩": 916,
      "팬": 917,
      "퍼": 918,
      "페": 919,
      "펙": 920,
      "펜": 921,
      "편": 922,
      "펼": 923,
      "평": 924,
      "폐": 925,
      "포": 926,
      "폭": 927,
      "폰": 928,
      "폴": 929,
      "폼": 930,
      "표": 931,
      "푸": 932,
      "풀": 933,
      "품": 934,
      "풍": 935,
      "퓨": 936,
      "프": 937,
      "픈": 938,
      "플": 939,
      "피": 940,
      "픽": 941,
      "핀": 942,
      "필": 943,
      "핑": 944,
      "하": 945,
      "학": 946,
      "한": 947,
      "할": 948,
      "함": 949,
      "합": 950,
      "항": 951,
      "해": 952,
      "핵": 953,
      "했": 954,
      "행": 955,
      "향": 956,
      "허": 957,
      "헌": 958,
      "험": 959,
      "헛": 960,
      "헤": 961,
      "헬": 962,
      "혀": 963,
      "혁": 964,
      "현": 965,
      "혈": 966,
      "혐": 967,
      "협": 968,
      "혔": 969,
      "형": 970,
      "혜": 971,
      "호": 972,
      "혹": 973,
      "혼": 974,
      "홀": 975,
      "홈": 976,
      "홍": 977,
      "화": 978,
      "확": 979,
      "환": 980,
      "활": 981,
      "황": 982,
      "회": 983,
      "획": 984,
      "효": 985,
      "후": 986,
      "훈": 987,
      "훨": 988,
      "휘": 989,
      "휴": 990,
      "흉": 991,
      "흐": 992,
      "흑": 993,
      "흔": 994,
      "흘": 995,
      "흡": 996,
      "흥": 997,
      "희": 998,
      "히": 999,
      "힌": 1000,
      "힐": 1001,
      "힘": 1002,
      "다.": 1003,
      "▁이": 1004,
      "..": 1005,
      "▁그": 1006,
      "▁있": 1007,
      "다.\n": 1008,
      "▁아": 1009,
      "으로": 1010,
      "▁사": 1011,
      "에서": 1012,
      "▁하": 1013,
      "▁대": 1014,
      "▁1": 1015,
      "▁한": 1016,
      "▁가": 1017,
      "▁수": 1018,
      "▁2": 1019,
      "▁정": 1020,
      "▁지": 1021,
      "▁나": 1022,
      "▁다": 1023,
      "▁자": 1024,
      "▁보": 1025,
      "▁기": 1026,
      "▁시": 1027,
      "하는": 1028,
      "▁일": 1029,
      "▁전": 1030,
      ".\n": 1031,
      "▁것": 1032,
      "▁어": 1033,
      "▁모": 1034,
      "하고": 1035,
      "▁없": 1036,
      "▁\n": 1037,
      "▁인": 1038,
      "▁안": 1039,
      "▁공": 1040,
      "▁마": 1041,
      "▁조": 1042,
      "▁제": 1043,
      "▁중": 1044,
      "들이": 1045,
      "▁무": 1046,
      "▁주": 1047,
      "▁문": 1048,
      "▁부": 1049,
      "지만": 1050,
      "▁경": 1051,
      "▁국": 1052,
      "▁해": 1053,
      "▁유": 1054,
      "▁상": 1055,
      "▁미": 1056,
      "▁20": 1057,
      "▁말": 1058,
      "▁때": 1059,
      "▁여": 1060,
      "는데": 1061,
      "ᄏᄏ": 1062,
      "▁오": 1063,
      "▁스": 1064,
      "▁개": 1065,
      "▁않": 1066,
      "▁비": 1067,
      "▁소": 1068,
      "...": 1069,
      "▁되": 1070,
      "▁위": 1071,
      "다고": 1072,
      "▁내": 1073,
      "▁고": 1074,
      "▁우": 1075,
      "이라": 1076,
      "에게": 1077,
      "▁만": 1078,
      "▁바": 1079,
      "▁3": 1080,
      "▁거": 1081,
      "▁진": 1082,
      "▁생": 1083,
      "!!": 1084,
      "▁선": 1085,
      "▁세": 1086,
      "▁등": 1087,
      "▁더": 1088,
      "▁아니": 1089,
      "다는": 1090,
      "▁저": 1091,
      "▁도": 1092,
      "▁신": 1093,
      "▁동": 1094,
      "▁의": 1095,
      "▁당": 1096,
      "이다.": 1097,
      "▁못": 1098,
      "까지": 1099,
      "▁같": 1100,
      "▁사람": 1101,
      "▁영": 1102,
      "▁(": 1103,
      "▁구": 1104,
      "▁-": 1105,
      "?\n": 1106,
      ")\n": 1107,
      "면서": 1108,
      "▁성": 1109,
      "▁알": 1110,
      "▁불": 1111,
      "들은": 1112,
      "▁방": 1113,
      "다\n": 1114,
      "▁연": 1115,
      "▁장": 1116,
      "▁많": 1117,
      "▁있는": 1118,
      "▁발": 1119,
      "하게": 1120,
      "00": 1121,
      "고,": 1122,
      "▁남": 1123,
      "▁잘": 1124,
      "▁반": 1125,
      "▁서": 1126,
      "▁역": 1127,
      "▁최": 1128,
      "▁후": 1129,
      "라고": 1130,
      "▁적": 1131,
      "해서": 1132,
      "▁노": 1133,
      "▁19": 1134,
      "들어": 1135,
      "~~": 1136,
      "▁강": 1137,
      "▁ᄏᄏ": 1138,
      "▁4": 1139,
      "▁201": 1140,
      "▁실": 1141,
      "▁원": 1142,
      "▁받": 1143,
      "▁5": 1144,
      "▁결": 1145,
      "▁좋": 1146,
      "▁있다.": 1147,
      "▁때문": 1148,
      "??": 1149,
      "에는": 1150,
      "리고": 1151,
      "▁일본": 1152,
      "▁'": 1153,
      "었다.": 1154,
      "▁살": 1155,
      "▁했": 1156,
      "▁관": 1157,
      "▁게": 1158,
      "....": 1159,
      "▁국민": 1160,
      "적으로": 1161,
      "▁파": 1162,
      "▁너": 1163,
      "▁하는": 1164,
      "부터": 1165,
      "▁대한": 1166,
      "대로": 1167,
      "하면": 1168,
      "▁할": 1169,
      "▁또": 1170,
      "이나": 1171,
      "▁차": 1172,
      "▁현": 1173,
      "▁입": 1174,
      "▁배": 1175,
      "▁참": 1176,
      "▁재": 1177,
      "이다.\n": 1178,
      "▁감": 1179,
      "▁타": 1180,
      "라는": 1181,
      "▁카": 1182,
      "▁단": 1183,
      "▁김": 1184,
      "▁추": 1185,
      "하지": 1186,
      "▁니": 1187,
      "▁쓰": 1188,
      "▁특": 1189,
      "적인": 1190,
      "▁출": 1191,
      "▁죽": 1192,
      "▁물": 1193,
      "▁리": 1194,
      "▁작": 1195,
      "▁한국": 1196,
      "▁된": 1197,
      "▁생각": 1198,
      "▁포": 1199,
      "▁본": 1200,
      "레이": 1201,
      "▁교": 1202,
      "▁피": 1203,
      "며,": 1204,
      "▁외": 1205,
      "▁프": 1206,
      "▁민": 1207,
      "으면": 1208,
      "▁왜": 1209,
      "에서는": 1210,
      "▁통": 1211,
      "▁따": 1212,
      "▁분": 1213,
      "▁계": 1214,
      "▁드": 1215,
      "▁\"": 1216,
      "한다.": 1217,
      "▁달": 1218,
      "▁매": 1219,
      "▁:": 1220,
      "▁애": 1221,
      "▁때문에": 1222,
      "▁에": 1223,
      "▁건": 1224,
      "▁맞": 1225,
      "▁박": 1226,
      "▁있다.\n": 1227,
      "▁두": 1228,
      "▁우리": 1229,
      "▁처": 1230,
      "▁올": 1231,
      "▁나라": 1232,
      "▁문재": 1233,
      "하여": 1234,
      "▁버": 1235,
      "▁코": 1236,
      "▁예": 1237,
      "▁집": 1238,
      "하기": 1239,
      "▁경우": 1240,
      "다가": 1241,
      "들을": 1242,
      "▁이런": 1243,
      "▁자신": 1244,
      "▁북": 1245,
      "▁요": 1246,
      "!\n": 1247,
      "▁돌": 1248,
      "▁6": 1249,
      "▁언": 1250,
      "▁초": 1251,
      "▁같은": 1252,
      "리는": 1253,
      "▁데": 1254,
      "▁다른": 1255,
      "▁이후": 1256,
      "했다.": 1257,
      "▁S": 1258,
      "들의": 1259,
      "냐?": 1260,
      "▁설": 1261,
      "()": 1262,
      "▁뭐": 1263,
      "▁사용": 1264,
      "▁중국": 1265,
      "▁평": 1266,
      "▁명": 1267,
      "▁함": 1268,
      "▁치": 1269,
      "었다.\n": 1270,
      "▁라": 1271,
      "▁누": 1272,
      "▁화": 1273,
      "보다": 1274,
      "▁하나": 1275,
      "▁문제": 1276,
      "렇게": 1277,
      "▁걸": 1278,
      "니다.": 1279,
      "▁그러": 1280,
      "▁과": 1281,
      "▁검": 1282,
      "▁편": 1283,
      "지는": 1284,
      "▁확": 1285,
      "▁들어": 1286,
      "민국": 1287,
      "▁심": 1288,
      "in": 1289,
      "er": 1290,
      "스트": 1291,
      "▁10": 1292,
      "▁그리고": 1293,
      "▁7": 1294,
      "▁크": 1295,
      "에도": 1296,
      "통령": 1297,
      "하였": 1298,
      "학교": 1299,
      "▁친": 1300,
      "▁지금": 1301,
      "▁종": 1302,
      "▁정도": 1303,
      "인데": 1304,
      "▁직": 1305,
      "▁속": 1306,
      "▁행": 1307,
      "▁양": 1308,
      "▁새": 1309,
      "▁진짜": 1310,
      "▁8": 1311,
      "▁미국": 1312,
      "▁패": 1313,
      "▁독": 1314,
      "▁변": 1315,
      "▁힘": 1316,
      "▁손": 1317,
      "▁간": 1318,
      "▁총": 1319,
      "▁아이": 1320,
      "▁호": 1321,
      "▁대한민국": 1322,
      "...\n": 1323,
      "▁것이": 1324,
      "기를": 1325,
      "▁얼": 1326,
      "▁뒤": 1327,
      "▁로": 1328,
      "기에": 1329,
      "나라": 1330,
      "이라고": 1331,
      "▁목": 1332,
      "▁필": 1333,
      "▁점": 1334,
      "니까": 1335,
      "지만,": 1336,
      "기도": 1337,
      "▁돈": 1338,
      "▁좀": 1339,
      "해야": 1340,
      "이지": 1341,
      "▁사실": 1342,
      "▁공격": 1343,
      "되는": 1344,
      "▁없는": 1345,
      "▁운": 1346,
      "▁한다.": 1347,
      "▁200": 1348,
      "어서": 1349,
      "▁메": 1350,
      "▁토": 1351,
      "▁잡": 1352,
      "▁9": 1353,
      "처럼": 1354,
      "▁근": 1355,
      "▁회": 1356,
      "▁문재인": 1357,
      "는데,": 1358,
      "▁청": 1359,
      "▁A": 1360,
      "▁M": 1361,
      "▁그냥": 1362,
      "▁하고": 1363,
      "▁군": 1364,
      "▁그래": 1365,
      "▁먹": 1366,
      "▁각": 1367,
      "▁레": 1368,
      "다면": 1369,
      "▁난": 1370,
      "▁막": 1371,
      "▁그런": 1372,
      "▁좌": 1373,
      "▁아닌": 1374,
      "주의": 1375,
      "▁끝": 1376,
      "▁나오": 1377,
      "라도": 1378,
      "으나": 1379,
      "▁열": 1380,
      "한다.\n": 1381,
      "on": 1382,
      "▁넘": 1383,
      "세요": 1384,
      "an": 1385,
      "..\n": 1386,
      "▁투": 1387,
      "▁야": 1388,
      "▁날": 1389,
      "▁법": 1390,
      "▁빨": 1391,
      "▁대통령": 1392,
      "▁판": 1393,
      "20": 1394,
      "▁가능": 1395,
      "리를": 1396,
      "▁트": 1397,
      "OO": 1398,
      "되어": 1399,
      "▁표": 1400,
      "▁약": 1401,
      "▁인간": 1402,
      "▁C": 1403,
      "지고": 1404,
      "▁은": 1405,
      "이고": 1406,
      "기가": 1407,
      "▁이상": 1408,
      "▁들": 1409,
      "거나": 1410,
      "▁존": 1411,
      "▁합": 1412,
      "▁시작": 1413,
      "▁T": 1414,
      "리가": 1415,
      "▁정치": 1416,
      "▁플": 1417,
      "▁임": 1418,
      "▁캐": 1419,
      "▁태": 1420,
      "니다": 1421,
      "▁앞": 1422,
      "▁완": 1423,
      "라\n": 1424,
      "▁등장": 1425,
      "▁위해": 1426,
      "▁않는": 1427,
      "▁눈": 1428,
      "▁높": 1429,
      "자가": 1430,
      "이라는": 1431,
      "▁있었": 1432,
      "▁다시": 1433,
      "▁게임": 1434,
      "▁하지만": 1435,
      "기는": 1436,
      "한테": 1437,
      "▁승": 1438,
      "인이": 1439,
      "▁조국": 1440,
      "▁증": 1441,
      "▁북한": 1442,
      "▁광": 1443,
      "▁민주": 1444,
      "▁모습": 1445,
      "▁활": 1446,
      "▁학": 1447,
      "▁네": 1448,
      "▁정부": 1449,
      "으며": 1450,
      "▁음": 1451,
      "이는": 1452,
      "▁많이": 1453,
      "같은": 1454,
      "▁줄": 1455,
      "▁함께": 1456,
      "▁베": 1457,
      "으며,": 1458,
      "▁번": 1459,
      "▁순": 1460,
      "▁체": 1461,
      "가는": 1462,
      "하며": 1463,
      "▁폭": 1464,
      "려고": 1465,
      "▁몰": 1466,
      "▁모두": 1467,
      "▁사이": 1468,
      "▁천": 1469,
      "▁싸": 1470,
      "▁모르": 1471,
      "▁삼": 1472,
      "or": 1473,
      "▁머": 1474,
      "▁너무": 1475,
      "했다.\n": 1476,
      "▁악": 1477,
      "▁디": 1478,
      "▁아무": 1479,
      "라이": 1480,
      "▁B": 1481,
      "▁정신": 1482,
      "▁아니라": 1483,
      "▁모든": 1484,
      "▁절": 1485,
      "▁망": 1486,
      "으니": 1487,
      "▁가장": 1488,
      "네\n": 1489,
      "▁이제": 1490,
      "▁형": 1491,
      "th": 1492,
      "▁따라": 1493,
      "▁것을": 1494,
      "ar": 1495,
      "▁이름": 1496,
      "▁정말": 1497,
      "▁키": 1498,
      "▁벌": 1499,
      "▁빠": 1500,
      "있는": 1501,
      "▁히": 1502,
      "▁D": 1503,
      "▁국가": 1504,
      "인지": 1505,
      "네요": 1506,
      "▁상황": 1507,
      "하면서": 1508,
      "구나": 1509,
      "▁엄": 1510,
      "▁결국": 1511,
      "▁싶": 1512,
      "이었": 1513,
      "▁큰": 1514,
      "이가": 1515,
      "▁별": 1516,
      "▁볼": 1517,
      "▁금": 1518,
      "능력": 1519,
      "▁용": 1520,
      "되었": 1521,
      "▁황": 1522,
      "▁기사": 1523,
      "하다.": 1524,
      "▁P": 1525,
      ",,": 1526,
      "▁보면": 1527,
      "0년": 1528,
      "▁선수": 1529,
      "에서도": 1530,
      "아서": 1531,
      "▁병": 1532,
      "▁충": 1533,
      "▁취": 1534,
      "▁항": 1535,
      "▁또한": 1536,
      "는거": 1537,
      "시키": 1538,
      "▁프로": 1539,
      "▁느": 1540,
      "▁복": 1541,
      "▁갈": 1542,
      "▁많은": 1543,
      "▁한다.\n": 1544,
      "▁보여": 1545,
      "▁F": 1546,
      "라.": 1547,
      "▁12": 1548,
      "▁와": 1549,
      "▁온": 1550,
      "▁백": 1551,
      "▁영화": 1552,
      "▁산": 1553,
      "성이": 1554,
      "들도": 1555,
      "▁준": 1556,
      "지도": 1557,
      "▁허": 1558,
      "이다": 1559,
      "▁클": 1560,
      "en": 1561,
      "8년": 1562,
      "▁왕": 1563,
      "가지": 1564,
      "▁같이": 1565,
      "들에게": 1566,
      "▁다음": 1567,
      "▁떨": 1568,
      "▁및": 1569,
      "▁철": 1570,
      "▁ᄏᄏᄏ": 1571,
      "▁시간": 1572,
      "▁필요": 1573,
      "▁~": 1574,
      "▁돌아": 1575,
      "9년": 1576,
      "▁당시": 1577,
      "▁L": 1578,
      "댓글": 1579,
      "▁이유": 1580,
      "레기": 1581,
      "st": 1582,
      "지를": 1583,
      "▁경제": 1584,
      "니다.\n": 1585,
      "스터": 1586,
      "▁이미": 1587,
      "▁세계": 1588,
      "▁하지": 1589,
      "▁채": 1590,
      "하자": 1591,
      "▁않았": 1592,
      "▁욕": 1593,
      "▁권": 1594,
      "이트": 1595,
      "▁무슨": 1596,
      "▁팀": 1597,
      "▁ᄏᄏ\n": 1598,
      "19": 1599,
      "7년": 1600,
      "al": 1601,
      "▁극": 1602,
      "▁몇": 1603,
      "▁찾": 1604,
      "▁떠": 1605,
      "사람": 1606,
      "▁상대": 1607,
      "리아": 1608,
      "▁자기": 1609,
      "5년": 1610,
      "▁보고": 1611,
      "▁I": 1612,
      "▁페": 1613,
      "▁커": 1614,
      "▁현재": 1615,
      "6년": 1616,
      "▁바로": 1617,
      "▁역시": 1618,
      "▁탄": 1619,
      "▁K": 1620,
      "▁11": 1621,
      "at": 1622,
      "▁브": 1623,
      "▁식": 1624,
      "지가": 1625,
      "▁것은": 1626,
      "▁이용": 1627,
      "▁《": 1628,
      "지\n": 1629,
      "▁축": 1630,
      "것도": 1631,
      "▁수준": 1632,
      "▁지역": 1633,
      "▁범": 1634,
      "▁만들": 1635,
      "~\n": 1636,
      "▁아직": 1637,
      "▁G": 1638,
      "▁여자": 1639,
      "▁테": 1640,
      "▁길": 1641,
      "▁좋은": 1642,
      "어나": 1643,
      "▁만들어": 1644,
      "력을": 1645,
      "▁지지": 1646,
      "력이": 1647,
      "▁댓글": 1648,
      "▁계속": 1649,
      "▁듯": 1650,
      "들아": 1651,
      "하다": 1652,
      "되었다.": 1653,
      "ou": 1654,
      "le": 1655,
      "스의": 1656,
      "▁것으로": 1657,
      "▁존재": 1658,
      "인가": 1659,
      "!!!!": 1660,
      "릭터": 1661,
      "주는": 1662,
      "▁있어": 1663,
      "▁피해": 1664,
      "▁정권": 1665,
      "▁199": 1666,
      "▁얼마": 1667,
      "▁그렇게": 1668,
      "▁루": 1669,
      "▁될": 1670,
      "거리": 1671,
      "▁어떻": 1672,
      "▁자유": 1673,
      "▁나온": 1674,
      "▁된다.": 1675,
      "▁살아": 1676,
      "▁서울": 1677,
      "사를": 1678,
      "놓고": 1679,
      "▁효": 1680,
      "사가": 1681,
      "▁터": 1682,
      "▁능력": 1683,
      "▁탈": 1684,
      "▁조선": 1685,
      "4년": 1686,
      "▁환": 1687,
      "▁검찰": 1688,
      "지.": 1689,
      "▁캐릭터": 1690,
      "▁/": 1691,
      "들과": 1692,
      "▁쪽": 1693,
      "),": 1694,
      "▁민주당": 1695,
      "▁자신의": 1696,
      "▁논": 1697,
      "▁플레이": 1698,
      "▁떨어": 1699,
      "▁밀": 1700,
      "하는데": 1701,
      "▁그러나": 1702,
      "▁뭔": 1703,
      "▁밝": 1704,
      "소리": 1705,
      "1년": 1706,
      "▁창": 1707,
      "▁자체": 1708,
      "▁블": 1709,
      "▁사회": 1710,
      "▁상태": 1711,
      "2년": 1712,
      "▁어떻게": 1713,
      "스를": 1714,
      "▁놈": 1715,
      "스가": 1716,
      "▁혼": 1717,
      "▁좋아": 1718,
      "▁처음": 1719,
      "▁질": 1720,
      "▁얻": 1721,
      "밖에": 1722,
      "▁쳐": 1723,
      "▁어디": 1724,
      "▁다만": 1725,
      "▁N": 1726,
      "▁업": 1727,
      "▁죄": 1728,
      "▁여러": 1729,
      "▁팔": 1730,
      "3년": 1731,
      "▁추가": 1732,
      "▁귀": 1733,
      "▁E": 1734,
      "▁시즌": 1735,
      "▁이렇게": 1736,
      "▁사람이": 1737,
      "시아": 1738,
      "▁방송": 1739,
      "▁있을": 1740,
      "▁붙": 1741,
      "는지": 1742,
      "▁글": 1743,
      "네.": 1744,
      "▁월": 1745,
      "▁잘못": 1746,
      "▁홍": 1747,
      "▁R": 1748,
      "▁매우": 1749,
      "▁18": 1750,
      "부분": 1751,
      "해도": 1752,
      "▁받아": 1753,
      "▁일반": 1754,
      "한다": 1755,
      "▁믿": 1756,
      "▁봐": 1757,
      "수가": 1758,
      "▁곳": 1759,
      "요.": 1760,
      "▁둘": 1761,
      "▁되어": 1762,
      "▁여기": 1763,
      "▁이게": 1764,
      "▁먼": 1765,
      "스크": 1766,
      "▁제대로": 1767,
      "▁H": 1768,
      "▁이야": 1769,
      "▁첫": 1770,
      "원이": 1771,
      "장이": 1772,
      "상을": 1773,
      "▁저런": 1774,
      "▁되는": 1775,
      "▁물론": 1776,
      "제로": 1777,
      "▁잠": 1778,
      "▁사건": 1779,
      "▁100": 1780,
      "▁책": 1781,
      "리즈": 1782,
      "냐?\n": 1783,
      "▁똑": 1784,
      "▁이번": 1785,
      "자는": 1786,
      "▁기록": 1787,
      "▁골": 1788,
      "해라": 1789,
      "▁.": 1790,
      "▁해야": 1791,
      "되었다.\n": 1792,
      "▁없다.": 1793,
      "re": 1794,
      "▁거의": 1795,
      "▁0": 1796,
      "드는": 1797,
      "▁전투": 1798,
      "하나": 1799,
      "OOO": 1800,
      "▁문재앙": 1801,
      "정부": 1802,
      "된다.": 1803,
      "없는": 1804,
      "없이": 1805,
      "요?": 1806,
      "▁어느": 1807,
      "▁답": 1808,
      "한당": 1809,
      "장을": 1810,
      "▁15": 1811,
      "므로": 1812,
      "시간": 1813,
      "▁당신": 1814,
      "전에": 1815,
      "대가": 1816,
      "▁놀": 1817,
      "하였다.": 1818,
      "▁늘": 1819,
      "스로": 1820,
      "기로": 1821,
      "▁윤": 1822,
      "▁하면": 1823,
      "▁웃": 1824,
      "▁상당": 1825,
      "(...": 1826,
      "잖아": 1827,
      "했던": 1828,
      "리스": 1829,
      "▁담": 1830,
      "리에": 1831,
      "▁가지고": 1832,
      "▁완전": 1833,
      "성을": 1834,
      "이야": 1835,
      "▁특히": 1836,
      "ᄍᄍ": 1837,
      "▁되었": 1838,
      "▁기술": 1839,
      "▁찍": 1840,
      "▁싫": 1841,
      "▁경기": 1842,
      "▁뿐": 1843,
      "▁그렇": 1844,
      "▁러": 1845,
      "▁세금": 1846,
      "치는": 1847,
      "▁없어": 1848,
      "▁W": 1849,
      "▁퍼": 1850,
      "정도": 1851,
      "▁깨": 1852,
      "상이": 1853,
      "▁뽑": 1854,
      "중에": 1855,
      "회의": 1856,
      "▁관련": 1857,
      "▁수도": 1858,
      "돼지": 1859,
      "인의": 1860,
      "되고": 1861,
      "▁일부": 1862,
      "▁즉": 1863,
      "▁팬": 1864,
      "▁남자": 1865,
      "▁풀": 1866,
      "▁응": 1867,
      "▁않고": 1868,
      "▁몸": 1869,
      "▁뉴": 1870,
      "▁그만": 1871,
      "▁대부분": 1872,
      "였다.": 1873,
      "도가": 1874,
      "하다.\n": 1875,
      "▁해당": 1876,
      "▁진행": 1877,
      "▁우리나라": 1878,
      "▁좌파": 1879,
      "니다\n": 1880,
      "▁O": 1881,
      "▁기본": 1882,
      "▁않은": 1883,
      "is": 1884,
      "▁작품": 1885,
      "▁마음": 1886,
      "▁이러": 1887,
      "갱이": 1888,
      "더니": 1889,
      "▁30": 1890,
      "ic": 1891,
      "▁자한당": 1892,
      "에선": 1893,
      "▁암": 1894,
      "▁알고": 1895,
      "▁누가": 1896,
      "it": 1897,
      "▁올라": 1898,
      "▁당연": 1899,
      "▁얘": 1900,
      "도록": 1901,
      "하고,": 1902,
      "국민": 1903,
      "▁까": 1904,
      "▁짓": 1905,
      "▁없이": 1906,
      "▁모습을": 1907,
      "▁쓸": 1908,
      "ᄒᄒ": 1909,
      "▁통해": 1910,
      "▁을": 1911,
      "는게": 1912,
      "지막": 1913,
      "ᄏ\n": 1914,
      "▁쓰레기": 1915,
      "▁언론": 1916,
      "하던": 1917,
      "리지": 1918,
      "▁폐": 1919,
      "다니": 1920,
      "▁협": 1921,
      "시켜": 1922,
      "정을": 1923,
      "어가": 1924,
      "어야": 1925,
      "▁대표": 1926,
      "▁슈": 1927,
      "자를": 1928,
      "▁것이다.": 1929,
      "▁보인": 1930,
      "▁갖": 1931,
      "말고": 1932,
      "▁시리즈": 1933,
      "▁면": 1934,
      "습니다.": 1935,
      "▁참고": 1936,
      "▁그래서": 1937,
      "어도": 1938,
      "▁OOO": 1939,
      "▁말이": 1940,
      "▁효과": 1941,
      "주고": 1942,
      "▁전쟁": 1943,
      "것이": 1944,
      "ing": 1945,
      "정은": 1946,
      "▁엔": 1947,
      "▁한번": 1948,
      "이스": 1949,
      "▁내용": 1950,
      "▁울": 1951,
      "▁그럼": 1952,
      "▁결과": 1953,
      "▁부분": 1954,
      "▁주인": 1955,
      "▁스킬": 1956,
      "정권": 1957,
      "▁이해": 1958,
      "▁쿠": 1959,
      "▁라이": 1960,
      "근혜": 1961,
      "▁것도": 1962,
      "명이": 1963,
      "하겠": 1964,
      "대한": 1965,
      "▁전부": 1966,
      "▁제발": 1967,
      "▁경찰": 1968,
      "▁낮": 1969,
      "정이": 1970,
      "▁어떤": 1971,
      "▁대해": 1972,
      "▁빼": 1973,
      "마다": 1974,
      "▁마지막": 1975,
      "▁엄청": 1976,
      "▁격": 1977,
      "▁배우": 1978,
      "▁얼마나": 1979,
      "사는": 1980,
      "▁희": 1981,
      "보면": 1982,
      "▁,": 1983,
      "▁198": 1984,
      "▁지원": 1985,
      "▁접": 1986,
      "동안": 1987,
      "▁선거": 1988,
      "보고": 1989,
      "▁압": 1990,
      "▁딸": 1991,
      "▁된다.\n": 1992,
      "▁s": 1993,
      "▁맡": 1994,
      "▁내가": 1995,
      "러운": 1996,
      "▁아주": 1997,
      "▁카드": 1998,
      "???": 1999,
      "▁헤": 2000,
      "▁갑": 2001,
      "▁b": 2002,
      "▁위한": 2003,
      "▁케": 2004,
      "로운": 2005,
      "▁비슷": 2006,
      "았다.": 2007,
      "▁활동": 2008,
      "▁워": 2009,
      "가서": 2010,
      "머니": 2011,
      "▁th": 2012,
      "▁최고": 2013,
      "▁듣": 2014,
      "▁과거": 2015,
      "▁원래": 2016,
      "▁했다.": 2017,
      "▁기준": 2018,
      "▁사망": 2019,
      "▁+": 2020,
      "로는": 2021,
      "▁축구": 2022,
      "▁16": 2023,
      "▁직접": 2024,
      "르는": 2025,
      "▁급": 2026,
      "나는": 2027,
      "나?": 2028,
      "▁위치": 2029,
      "▁보이": 2030,
      "▁소리": 2031,
      "▁제작": 2032,
      "▁스타": 2033,
      "▁침": 2034,
      "시에": 2035,
      "▁만든": 2036,
      "▁말을": 2037,
      "(...)": 2038,
      "▁출신": 2039,
      "스는": 2040,
      "▁m": 2041,
      "▁엘": 2042,
      "▁인해": 2043,
      "\"\n": 2044,
      "▁그대로": 2045,
      "▁인물": 2046,
      "▁아니고": 2047,
      "랜드": 2048,
      "▁성공": 2049,
      "▁중요": 2050,
      "▁레이": 2051,
      "▁#": 2052,
      "▁되었다.": 2053,
      "10": 2054,
      "es": 2055,
      "!!\n": 2056,
      "요\n": 2057,
      "▁링": 2058,
      "ac": 2059,
      "▁써": 2060,
      "▁대신": 2061,
      "▁의미": 2062,
      "▁정도로": 2063,
      "▁해도": 2064,
      "▁공산": 2065,
      "로나": 2066,
      "▁뛰": 2067,
      "▁똥": 2068,
      "▁먼저": 2069,
      "▁끌": 2070,
      "▁다르": 2071,
      "한거": 2072,
      "▁달리": 2073,
      "▁덕": 2074,
      "자의": 2075,
      "▁곡": 2076,
      "수를": 2077,
      "된다.\n": 2078,
      "▁슬": 2079,
      "하는거": 2080,
      "▁본인": 2081,
      "▁가족": 2082,
      "위를": 2083,
      "▁이를": 2084,
      "▁궁": 2085,
      "적이": 2086,
      "▁보내": 2087,
      "으나,": 2088,
      "▁틀": 2089,
      "▁친일": 2090,
      "▁관계": 2091,
      "▁있는데": 2092,
      "▁감독": 2093,
      "▁찾아": 2094,
      "▁역사": 2095,
      "▁티": 2096,
      "▁지나": 2097,
      "한다고": 2098,
      "ᄏᄏ\n": 2099,
      "문에": 2100,
      "하지만": 2101,
      "이라도": 2102,
      "▁딱": 2103,
      "▁거짓": 2104,
      "▁대한민국의": 2105,
      "같이": 2106,
      "▁인정": 2107,
      "▁괴": 2108,
      "▁그리": 2109,
      "하였다.\n": 2110,
      "om": 2111,
      "▁규": 2112,
      "▁넣": 2113,
      "이면": 2114,
      "▁정의": 2115,
      "자\n": 2116,
      "대의": 2117,
      "▁뜻": 2118,
      "▁학교": 2119,
      "▁쇼": 2120,
      "▁행동": 2121,
      "000": 2122,
      "▁사라": 2123,
      "려는": 2124,
      "▁핵": 2125,
      "▁빨갱이": 2126,
      "자들": 2127,
      "▁그래도": 2128,
      "▁높은": 2129,
      "▁조작": 2130,
      "▁육": 2131,
      "치고": 2132,
      "▁선택": 2133,
      "▁제외": 2134,
      "▁알려": 2135,
      "는다.": 2136,
      "▁누구": 2137,
      "▁공개": 2138,
      "▁이어": 2139,
      "▁나타": 2140,
      "BS": 2141,
      "▁U": 2142,
      "▁내려": 2143,
      "로,": 2144,
      "대를": 2145,
      "el": 2146,
      "▁그의": 2147,
      "냐\n": 2148,
      "▁여성": 2149,
      "트를": 2150,
      "▁V": 2151,
      "되지": 2152,
      "▁얼굴": 2153,
      "일에": 2154,
      "▁박근혜": 2155,
      "▁꼭": 2156,
      "▁이건": 2157,
      "▁조금": 2158,
      "▁o": 2159,
      "▁나왔": 2160,
      "▁마법": 2161,
      "▁솔": 2162,
      "▁사랑": 2163,
      "▁기업": 2164,
      "▁이는": 2165,
      "▁착": 2166,
      "▁있다는": 2167,
      "▁쉽": 2168,
      "도를": 2169,
      "▁혹": 2170,
      ".1": 2171,
      "▁언제": 2172,
      "▁꼴": 2173,
      "▁t": 2174,
      "▁꼬": 2175,
      "▁아버": 2176,
      "201": 2177,
      "이자": 2178,
      "등학교": 2179,
      "▁포함": 2180,
      "하네": 2181,
      "▁w": 2182,
      "가?": 2183,
      "▁멀": 2184,
      "▁사람들이": 2185,
      "▁조사": 2186,
      "▁말고": 2187,
      "▁못한": 2188,
      "▁주인공": 2189,
      "▁절대": 2190,
      "▁봉": 2191,
      "▁타이": 2192,
      "▁뭘": 2193,
      "▁서로": 2194,
      "일,": 2195,
      "ol": 2196,
      "▁친구": 2197,
      "▁근데": 2198,
      "▁던": 2199,
      "▁13": 2200,
      "전을": 2201,
      "아야": 2202,
      "라마": 2203,
      "화를": 2204,
      "▁나오는": 2205,
      "▁없었": 2206,
      "▁빌": 2207,
      "!!!": 2208,
      "▁언급": 2209,
      "▁방법": 2210,
      "▁전체": 2211,
      ".0": 2212,
      "▁14": 2213,
      "▁|": 2214,
      "▁칼": 2215,
      "▁인터": 2216,
      "식이": 2217,
      "인을": 2218,
      "he": 2219,
      "이션": 2220,
      "▁농": 2221,
      "▁시절": 2222,
      "▁숨": 2223,
      "자로": 2224,
      "▁있던": 2225,
      "▁있었다.": 2226,
      "▁그런데": 2227,
      "▁3월": 2228,
      "명을": 2229,
      "▁그녀": 2230,
      "▁보수": 2231,
      "▁미친": 2232,
      "▁상당히": 2233,
      "▁향": 2234,
      "▁학생": 2235,
      "ad": 2236,
      "했다고": 2237,
      "▁17": 2238,
      "이며": 2239,
      "도로": 2240,
      "~~\n": 2241,
      "▁c": 2242,
      "▁비교": 2243,
      "국의": 2244,
      "이를": 2245,
      "하니": 2246,
      "▁실제로": 2247,
      "와의": 2248,
      "아니": 2249,
      "히려": 2250,
      "▁링크": 2251,
      "▁이전": 2252,
      "▁의해": 2253,
      "드를": 2254,
      "▁현실": 2255,
      "서는": 2256,
      "▁4월": 2257,
      "들\n": 2258,
      "▁대구": 2259,
      "사의": 2260,
      "이란": 2261,
      "ion": 2262,
      "지?": 2263,
      "▁50": 2264,
      "▁J": 2265,
      "▁자신이": 2266,
      "▁범죄": 2267,
      "am": 2268,
      "▁출연": 2269,
      "▁가진": 2270,
      "▁책임": 2271,
      "대에": 2272,
      "▁d": 2273,
      "번째": 2274,
      "▁아직도": 2275,
      "▁오히려": 2276,
      "▁연구": 2277,
      "▁개발": 2278,
      "▁부모": 2279,
      "▁선동": 2280,
      "▁f": 2281,
      "▁마스크": 2282,
      "▁하루": 2283,
      "▁동안": 2284,
      "▁잔": 2285,
      "▁나라가": 2286,
      "▁등의": 2287,
      "▁[": 2288,
      "▁애니": 2289,
      "▁이것": 2290,
      "했을": 2291,
      "▁가지": 2292,
      "▁크게": 2293,
      "▁평가": 2294,
      "스타": 2295,
      "대는": 2296,
      "▁발생": 2297,
      "▁대학": 2298,
      "와서": 2299,
      "치를": 2300,
      "▁수사": 2301,
      "▁외부": 2302,
      "기의": 2303,
      "▁사고": 2304,
      "리의": 2305,
      "라면": 2306,
      "▁어려": 2307,
      "!!!\n": 2308,
      "이니": 2309,
      "▁청와": 2310,
      "id": 2311,
      "식을": 2312,
      "▁교육": 2313,
      "▁색": 2314,
      "어난": 2315,
      "▁반대": 2316,
      "우는": 2317,
      "▁프랑": 2318,
      "▁2020": 2319,
      "▁아베": 2320,
      "▁역\n": 2321,
      "▁니가": 2322,
      "치가": 2323,
      "스럽": 2324,
      "▁국회의": 2325,
      "▁더불": 2326,
      "▁힘들": 2327,
      "▁<": 2328,
      "▁이동": 2329,
      "▁졸": 2330,
      "▁있다고": 2331,
      "운동": 2332,
      "200": 2333,
      "▁보기": 2334,
      "하시": 2335,
      "▁운영": 2336,
      "▁일이": 2337,
      "ig": 2338,
      "구만": 2339,
      "▁있다": 2340,
      "점을": 2341,
      "졌다.": 2342,
      "▁12월": 2343,
      "기업": 2344,
      "▁영향": 2345,
      "▁신천": 2346,
      "민주": 2347,
      "▁이에": 2348,
      "▁해서": 2349,
      "멤버": 2350,
      "▁경우가": 2351,
      "▁이루": 2352,
      "as": 2353,
      "이드": 2354,
      "과는": 2355,
      "▁the": 2356,
      "으로는": 2357,
      "당이": 2358,
      "입니다.": 2359,
      "▁휴": 2360,
      "^^": 2361,
      "▁홈": 2362,
      "▁ᅳ": 2363,
      "해주": 2364,
      "▁방어": 2365,
      "▁불가": 2366,
      "만큼": 2367,
      "▁끼": 2368,
      "▁다니": 2369,
      "▁는": 2370,
      "▁코로나": 2371,
      "▁증가": 2372,
      "▁...": 2373,
      "▁9월": 2374,
      "버린": 2375,
      "▁짜": 2376,
      "새끼": 2377,
      "조건": 2378,
      "▁그게": 2379,
      "▁컨": 2380,
      "▁나가": 2381,
      "▁문제가": 2382,
      "▁p": 2383,
      "▁7월": 2384,
      "으로,": 2385,
      "▁되었다.\n": 2386,
      "-1": 2387,
      "▁주장": 2388,
      "▁있고": 2389,
      "오는": 2390,
      "▁송": 2391,
      "▁국내": 2392,
      "보니": 2393,
      "....\n": 2394,
      "▁사람들": 2395,
      "▁그는": 2396,
      "▁세상": 2397,
      "▁바이": 2398,
      "▁유명": 2399,
      "▁드러": 2400,
      "▁노래": 2401,
      "▁10월": 2402,
      "▁빨리": 2403,
      "르고": 2404,
      "▁정보": 2405,
      "il": 2406,
      "▁개인": 2407,
      "▁해결": 2408,
      "▁겨": 2409,
      "겠다": 2410,
      "▁5월": 2411,
      "▁주변": 2412,
      "일이": 2413,
      "▁공식": 2414,
      "▁8월": 2415,
      "▁도시": 2416,
      "▁197": 2417,
      "텐데": 2418,
      "▁리그": 2419,
      "▁사진": 2420,
      "▁1월": 2421,
      "▁뇌": 2422,
      "원을": 2423,
      "~~~": 2424,
      "▁밝혀": 2425,
      "인은": 2426,
      "▁있어서": 2427,
      "겠지": 2428,
      "▁멤버": 2429,
      "을까": 2430,
      "트가": 2431,
      "나마": 2432,
      "▁또는": 2433,
      "▁자주": 2434,
      "▁탄핵": 2435,
      "으면서": 2436,
      "려서": 2437,
      "▁25": 2438,
      "▁없다.\n": 2439,
      "▁확실": 2440,
      "▁새끼": 2441,
      "정한": 2442,
      "지로": 2443,
      "▁강력": 2444,
      "하라": 2445,
      "ed": 2446,
      "▁없고": 2447,
      "▁묘": 2448,
      "지지": 2449,
      "▁것이다.\n": 2450,
      "이지만": 2451,
      "▁일단": 2452,
      "▁흔": 2453,
      "▁맨": 2454,
      "▁6월": 2455,
      "et": 2456,
      "과의": 2457,
      ".....": 2458,
      "▁ᄏᄏᄏ\n": 2459,
      "하는게": 2460,
      "▁씨": 2461,
      "야\n": 2462,
      "▁대체": 2463,
      "▁뻔": 2464,
      "화가": 2465,
      "리어": 2466,
      "▁유저": 2467,
      "되면": 2468,
      "▁국민들": 2469,
      "▁이야기": 2470,
      "이랑": 2471,
      "▁아예": 2472,
      "▁소속": 2473,
      "▁삼성": 2474,
      "▁마찬": 2475,
      "▁이때": 2476,
      "▁짱": 2477,
      "▁찬": 2478,
      "▁스토": 2479,
      "us": 2480,
      "▁바뀌": 2481,
      "진다.": 2482,
      "▁석": 2483,
      "ay": 2484,
      "이상": 2485,
      "자들이": 2486,
      "개의": 2487,
      "▁위해서": 2488,
      "리카": 2489,
      "대표": 2490,
      "▁ᄍᄍ": 2491,
      "한다는": 2492,
      "▁놓": 2493,
      "▁유지": 2494,
      "이네": 2495,
      "하기도": 2496,
      "▁무기": 2497,
      "먹고": 2498,
      "--": 2499,
      "▁받고": 2500,
      "▁측": 2501,
      "▁전혀": 2502,
      "어로": 2503,
      "지마": 2504,
      "그램": 2505,
      "▁몬": 2506,
      "▁무시": 2507,
      "이기": 2508,
      "▁아니면": 2509,
      "▁니들": 2510,
      "▁알아": 2511,
      "나가": 2512,
      "▁외국": 2513,
      "▁미국의": 2514,
      "▁퇴": 2515,
      ")는": 2516,
      "▁장면": 2517,
      "리그": 2518,
      "▁괜": 2519,
      "▁받았": 2520,
      "▁확인": 2521,
      "▁결혼": 2522,
      "▁만나": 2523,
      "▁마찬가지": 2524,
      "▁기억": 2525,
      "ro": 2526,
      "▁부족": 2527,
      "▁잡아": 2528,
      "이터": 2529,
      "▁아니다.": 2530,
      "▁마이": 2531,
      "▁억": 2532,
      "리면": 2533,
      "▁견": 2534,
      "▁징": 2535,
      "▁쓴": 2536,
      "려면": 2537,
      "더라도": 2538,
      "▁나는": 2539,
      "지어": 2540,
      "▁of": 2541,
      "▁걱": 2542,
      "▁사기": 2543,
      "▁결정": 2544,
      "식으로": 2545,
      "▁꽤": 2546,
      "▁보여주": 2547,
      "▁역할": 2548,
      "▁독일": 2549,
      "한데": 2550,
      "▁2월": 2551,
      "▁ᄒᄒ": 2552,
      "▁꺼": 2553,
      "▁총선": 2554,
      "냐고": 2555,
      "드가": 2556,
      "▁초반": 2557,
      "만원": 2558,
      "▁있으며,": 2559,
      "▁발매": 2560,
      "이며,": 2561,
      "르면": 2562,
      "▁어린": 2563,
      "▁비판": 2564,
      "▁11월": 2565,
      "and": 2566,
      "▁개돼지": 2567,
      "????": 2568,
      "야지": 2569,
      "▁들어가": 2570,
      "▁스스로": 2571,
      "▁더불어": 2572,
      "수의": 2573,
      "이다\n": 2574,
      "깨문": 2575,
      "▁헌": 2576,
      "▁밥": 2577,
      "▁쉬": 2578,
      "자.": 2579,
      "▁우승": 2580,
      "▁없다": 2581,
      "▁좌빨": 2582,
      "▁관심": 2583,
      "격을": 2584,
      "▁못하고": 2585,
      "▁기존": 2586,
      "음을": 2587,
      "▁도움": 2588,
      "▁잃": 2589,
      "▁(19": 2590,
      "디오": 2591,
      "드의": 2592,
      "▁가짜": 2593,
      "▁술": 2594,
      "였다.\n": 2595,
      "▁국제": 2596,
      "▁미래": 2597,
      "▁2020년": 2598,
      "▁음악": 2599,
      "▁여론": 2600,
      "자인": 2601,
      "▁오늘": 2602,
      "였던": 2603,
      "명의": 2604,
      "▁승리": 2605,
      "▁선수\n": 2606,
      "▁한심": 2607,
      "▁2018년": 2608,
      "▁표현": 2609,
      "때문에": 2610,
      "▁주로": 2611,
      "스템": 2612,
      "이버": 2613,
      "이도": 2614,
      "▁넘어": 2615,
      "하거나": 2616,
      "▁적이": 2617,
      "▁재앙": 2618,
      "▁2019년": 2619,
      "▁변경": 2620,
      "▁설치": 2621,
      "▁무조건": 2622,
      "기고": 2623,
      "전에서": 2624,
      "▁21": 2625,
      "▁?": 2626,
      "▁장관": 2627,
      "▁영상": 2628,
      "내는": 2629,
      "▁땅": 2630,
      "▁혼자": 2631,
      "위원": 2632,
      "▁드라마": 2633,
      "▁모양": 2634,
      "▁가져": 2635,
      "분에": 2636,
      "▁가까": 2637,
      "점이": 2638,
      "일보": 2639,
      "**": 2640,
      "▁이거": 2641,
      "▁묻": 2642,
      "체가": 2643,
      "▁가는": 2644,
      "▁했다.\n": 2645,
      "▁탑": 2646,
      "▁전에": 2647,
      "로서": 2648,
      "▁보통": 2649,
      "▁하는데": 2650,
      "▁당연히": 2651,
      "와는": 2652,
      "▁정상": 2653,
      "▁바람": 2654,
      "▁스트": 2655,
      "▁ᄏ": 2656,
      "물을": 2657,
      "했는데": 2658,
      "▁앨": 2659,
      "▁뭐가": 2660,
      "▁독립": 2661,
      "▁그걸": 2662,
      "하며,": 2663,
      "▁국회의원": 2664,
      "▁모르는": 2665,
      "▁자체가": 2666,
      "프로": 2667,
      "시민": 2668,
      "▁새로운": 2669,
      "▁프리": 2670,
      "제가": 2671,
      "▁비해": 2672,
      "▁섬": 2673,
      ".2": 2674,
      "▁빈": 2675,
      "라.\n": 2676,
      "▁유일": 2677,
      "어를": 2678,
      "라서": 2679,
      "▁못하는": 2680,
      "▁갔": 2681,
      "▁받는": 2682,
      "▁정책": 2683,
      "간에": 2684,
      "도의": 2685,
      "아가": 2686,
      "▁쓰는": 2687,
      "▁등을": 2688,
      "ch": 2689,
      "▁보는": 2690,
      "▁생산": 2691,
      "▁됐": 2692,
      "드시": 2693,
      "무원": 2694,
      "▁시키": 2695,
      "▁탓": 2696,
      "▁곧": 2697,
      "▁대깨문": 2698,
      "▁아마": 2699,
      "▁아래": 2700,
      "▁설명": 2701,
      "▁완전히": 2702,
      "▁대단": 2703,
      "▁대가": 2704,
      "격이": 2705,
      "거지": 2706,
      "에서의": 2707,
      "운드": 2708,
      "했다": 2709,
      "▁읽": 2710,
      "▁운동": 2711,
      "▁털": 2712,
      "습니다": 2713,
      "▁요즘": 2714,
      "장은": 2715,
      "▁2017년": 2716,
      "이라면": 2717,
      "수는": 2718,
      "▁기자": 2719,
      "▁파괴": 2720,
      "▁머리": 2721,
      "했고,": 2722,
      "▁밖에": 2723,
      "▁자식": 2724,
      "▁전라도": 2725,
      "~~~~": 2726,
      "▁..": 2727,
      "▁센": 2728,
      "▁유닛": 2729,
      "지에": 2730,
      "▁일본의": 2731,
      "▁낙": 2732,
      "▁토착": 2733,
      "▁흑": 2734,
      "▁세월": 2735,
      "▁그나마": 2736,
      "▁준비": 2737,
      "▁사람은": 2738,
      "▁196": 2739,
      "장관": 2740,
      "▁왔": 2741,
      "한국": 2742,
      "시킨": 2743,
      "▁심지어": 2744,
      "가가": 2745,
      "인들": 2746,
      "▁최종": 2747,
      "▁레벨": 2748,
      "합니다.": 2749,
      "▁국민이": 2750,
      "합니다": 2751,
      "지않": 2752,
      "군의": 2753,
      "▁긴": 2754,
      "▁중앙": 2755,
      "대통령": 2756,
      "▁훨": 2757,
      "대학교": 2758,
      "▁참여": 2759,
      "세계": 2760,
      "▁제일": 2761,
      "▁시민": 2762,
      "▁발견": 2763,
      "장에서": 2764,
      "▁움": 2765,
      "▁사실상": 2766,
      "아\n": 2767,
      "▁하면서": 2768,
      "▁발표": 2769,
      "▁러시아": 2770,
      "▁한다": 2771,
      "▁얘기": 2772,
      "▁아무리": 2773,
      "▁위험": 2774,
      "임을": 2775,
      "▁2016년": 2776,
      "건데": 2777,
      "▁김정은": 2778,
      "▁가서": 2779,
      "자기": 2780,
      "▁독재": 2781,
      "이어": 2782,
      "▁아닌가": 2783,
      "▁데미": 2784,
      "▁해외": 2785,
      "▁지켜": 2786,
      "▁사과": 2787,
      "▁X": 2788,
      "▁받은": 2789,
      "▁참고로": 2790,
      "▁정확": 2791,
      "프트": 2792,
      "ow": 2793,
      "▁이벤": 2794,
      "▁나라를": 2795,
      "▁40": 2796,
      "했고": 2797,
      "........": 2798,
      "▁형태": 2799,
      "▁실패": 2800,
      "내고": 2801,
      "▁휘": 2802,
      "ve": 2803,
      "▁구성": 2804,
      "▁어찌": 2805,
      "요?\n": 2806,
      "▁제1": 2807,
      "학생": 2808,
      "▁만큼": 2809,
      "조차": 2810,
      "{{": 2811,
      "장에": 2812,
      "만이": 2813,
      "▁나이": 2814,
      "▁딜": 2815,
      "▁최초": 2816,
      "▁구속": 2817,
      "▁녹": 2818,
      ";;": 2819,
      "보다는": 2820,
      "▁아들": 2821,
      "대체": 2822,
      "▁참가": 2823,
      "▁아이템": 2824,
      "▁게다가": 2825,
      "▁앞으로": 2826,
      "ᅲᅲ": 2827,
      "자리": 2828,
      "제를": 2829,
      "▁되고": 2830,
      "지면": 2831,
      "▁후반": 2832,
      "▁무능": 2833,
      "▁콘": 2834,
      "버렸": 2835,
      "▁맞는": 2836,
      "▁이러한": 2837,
      "▁h": 2838,
      "했다는": 2839,
      "상으로": 2840,
      "리오": 2841,
      "세기": 2842,
      "▁후보": 2843,
      "하다고": 2844,
      "스와": 2845,
      "시고": 2846,
      "방송": 2847,
      "▁거짓말": 2848,
      ")의": 2849,
      "거야": 2850,
      "트로": 2851,
      "▁훈": 2852,
      "▁뒷": 2853,
      "이었다.": 2854,
      "▁하여": 2855,
      "▁적용": 2856,
      "BC": 2857,
      "▁꿈": 2858,
      "▁안되": 2859,
      "어진": 2860,
      "기사": 2861,
      "▁풍": 2862,
      "▁멍": 2863,
      "▁않는다.": 2864,
      "▁먹고": 2865,
      "▁최대": 2866,
      "▁요구": 2867,
      "▁힘을": 2868,
      "▁외교": 2869,
      "스\n": 2870,
      "▁부정": 2871,
      "▁니들이": 2872,
      "지의": 2873,
      "▁영국": 2874,
      "▁여기서": 2875,
      "▁청와대": 2876,
      "봐라": 2877,
      "▁않아": 2878,
      "수도": 2879,
      "▁있는데,": 2880,
      "▁국민들이": 2881,
      "▁각주": 2882,
      "▁등이": 2883,
      "▁있지만": 2884,
      "▁거기": 2885,
      "전이": 2886,
      "▁소환": 2887,
      "듯이": 2888,
      "습니다.\n": 2889,
      "▁비슷한": 2890,
      "으로서": 2891,
      "px": 2892,
      "인데,": 2893,
      "▁사는": 2894,
      "▁응원": 2895,
      "▁동시에": 2896,
      "▁보호": 2897,
      "▁너희": 2898,
      "▁시스템": 2899,
      "▁전문": 2900,
      "▁강화": 2901,
      "▁자동": 2902,
      "수록": 2903,
      "다..": 2904,
      "▁있으면": 2905,
      "만에": 2906,
      "▁슈퍼": 2907,
      "▁걱정": 2908,
      "▁보니": 2909,
      "▁옆": 2910,
      "▁계획": 2911,
      "un": 2912,
      "▁국민을": 2913,
      "권을": 2914,
      "▁24": 2915,
      "니아": 2916,
      "▁부산": 2917,
      "▁있으며": 2918,
      "▁맛": 2919,
      "▁신천지": 2920,
      "▁2015년": 2921,
      "이냐": 2922,
      "▁적폐": 2923,
      "당한": 2924,
      "▁프로그램": 2925,
      "▁싱": 2926,
      "▁고려": 2927,
      "▁어쩌": 2928,
      ")은": 2929,
      "지게": 2930,
      "메이션": 2931,
      "▁어렵": 2932,
      "▁지구": 2933,
      "▁→": 2934,
      "국가": 2935,
      "선을": 2936,
      "체를": 2937,
      "르게": 2938,
      "일을": 2939,
      "▁그것": 2940,
      "▁항상": 2941,
      "▁신경": 2942,
      "나게": 2943,
      "▁안되는": 2944,
      "ent": 2945,
      "(,": 2946,
      "▁샤": 2947,
      "도는": 2948,
      "까?": 2949,
      "▁수가": 2950,
      "▁a": 2951,
      "드로": 2952,
      "▁때는": 2953,
      "▁훨씬": 2954,
      "지,": 2955,
      "18": 2956,
      "▁집단": 2957,
      "▁나서": 2958,
      "▁동일": 2959,
      "던데": 2960,
      "보는": 2961,
      "▁움직": 2962,
      "▁빛": 2963,
      "하냐": 2964,
      "▁달창": 2965,
      "▁불가능": 2966,
      "▁무엇": 2967,
      "세요.": 2968,
      "▁차지": 2969,
      "▁y": 2970,
      "50": 2971,
      "▁굴": 2972,
      "▁오래": 2973,
      "▁증거": 2974,
      "▁인구": 2975,
      "▁찌": 2976,
      "▁대해서": 2977,
      "▁황교": 2978,
      "▁모델": 2979,
      "▁팩": 2980,
      "▁챙": 2981,
      "세요\n": 2982,
      "▁판단": 2983,
      "▁중심": 2984,
      "▁헬": 2985,
      "원의": 2986,
      "왜구": 2987,
      "▁푸": 2988,
      "▁활약": 2989,
      "당은": 2990,
      "▁Y": 2991,
      "▁ᄉ": 2992,
      "▁들고": 2993,
      "▁일을": 2994,
      "시는": 2995,
      "▁영웅": 2996,
      "▁문화": 2997,
      "▁맘": 2998,
      "▁반응": 2999,
      "▁경험": 3000,
      "▁싫어": 3001,
      "▁숙": 3002,
      "져서": 3003,
      "▁나와": 3004,
      "먹는": 3005,
      "자,": 3006,
      "▁1일": 3007,
      "▁처벌": 3008,
      "받고": 3009,
      "▁몬스터": 3010,
      "▁성능": 3011,
      "▁문서": 3012,
      "이로": 3013,
      "▁n": 3014,
      "▁구조": 3015,
      "화에서": 3016,
      "▁컴": 3017,
      "▁주는": 3018,
      "▁있으니": 3019,
      "▁l": 3020,
      "가\n": 3021,
      "겠다고": 3022,
      "▁혹은": 3023,
      "끼리": 3024,
      "스,": 3025,
      "▁더욱": 3026,
      "▁특수": 3027,
      "▁남아": 3028,
      "im": 3029,
      "겠지만": 3030,
      "▁아님": 3031,
      "▁벗": 3032,
      "▁우리가": 3033,
      "▁여전": 3034,
      "나\n": 3035,
      "▁나쁜": 3036,
      "▁성우": 3037,
      "▁지방": 3038,
      "▁순간": 3039,
      "▁콜": 3040,
      "원은": 3041,
      "▁것.": 3042,
      "▁제2": 3043,
      "▁일으": 3044,
      "▁젊": 3045,
      "▁최소": 3046,
      "▁반드시": 3047,
      "▁설정": 3048,
      "장의": 3049,
      "들만": 3050,
      "▁국민의": 3051,
      "▁자세": 3052,
      "인간": 3053,
      "이의": 3054,
      "▁꾸": 3055,
      "위에": 3056,
      "▁썩": 3057,
      "▁쉽게": 3058,
      "▁염": 3059,
      "▁자리": 3060,
      "▁회사": 3061,
      "문을": 3062,
      "리기": 3063,
      "▁많다.": 3064,
      "수로": 3065,
      "위로": 3066,
      "▁맥": 3067,
      "▁안타": 3068,
      "▁지키": 3069,
      "▁도대체": 3070,
      "라가": 3071,
      "회를": 3072,
      "▁보인다.": 3073,
      "들에": 3074,
      "▁특징": 3075,
      "고있": 3076,
      "▁투표": 3077,
      "부를": 3078,
      "▁다양": 3079,
      "력은": 3080,
      "▁생활": 3081,
      "초에": 3082,
      "▁ᄌ": 3083,
      "▁겁": 3084,
      "조사": 3085,
      "▁‘": 3086,
      "▁차량": 3087,
      "▁있게": 3088,
      "▁회복": 3089,
      "▁현대": 3090,
      "▁애니메이션": 3091,
      "▁넌": 3092,
      "▁단순": 3093,
      ".5": 3094,
      "▁이젠": 3095,
      "▁패배": 3096,
      "▁가면": 3097,
      "▁판매": 3098,
      "▁굉": 3099,
      "시의": 3100,
      "▁유럽": 3101,
      "군이": 3102,
      "▁충분": 3103,
      "0년대": 3104,
      "▁k": 3105,
      "▁수상": 3106,
      "성은": 3107,
      "▁194": 3108,
      "다!": 3109,
      "시키는": 3110,
      "▁세월호": 3111,
      "린다.": 3112,
      "▁2014년": 3113,
      "▁중요한": 3114,
      "▁실제": 3115,
      "▁취급": 3116,
      "었던": 3117,
      "▁굳": 3118,
      "▁관리": 3119,
      "▁의견": 3120,
      "30": 3121,
      "네요.": 3122,
      "하다는": 3123,
      "▁건물": 3124,
      "▁다이": 3125,
      "▁처리": 3126,
      "▁되면": 3127,
      "▁밤": 3128,
      "▁끊": 3129,
      "▁도와": 3130,
      "ot": 3131,
      "▁나머": 3132,
      "심히": 3133,
      "▁출시": 3134,
      "▁드래": 3135,
      "▁자신을": 3136,
      "▁미사": 3137,
      "▁나올": 3138,
      "럼프": 3139,
      "▁덕분에": 3140,
      "▁진실": 3141,
      "▁in": 3142,
      "경기": 3143,
      "▁상대로": 3144,
      "어\n": 3145,
      "림픽": 3146,
      "라인": 3147,
      "▁그때": 3148,
      "▁법무": 3149,
      "▁뉴스": 3150,
      "▁스페": 3151,
      "을때": 3152,
      "▁임명": 3153,
      "▁굉장": 3154,
      "▁괜찮": 3155,
      "▁기다": 3156,
      "▁월드": 3157,
      "▁나도": 3158,
      "장으로": 3159,
      "▁조직": 3160,
      "▁이래": 3161,
      "▁TV": 3162,
      "ᄏᄏᄏ": 3163,
      "▁즐": 3164,
      "계를": 3165,
      "▁22": 3166,
      "했지만": 3167,
      "▁g": 3168,
      "▁유니": 3169,
      "▁살인": 3170,
      "사로": 3171,
      "▁ᄏ\n": 3172,
      "리\n": 3173,
      "▁(201": 3174,
      "▁스테": 3175,
      "▁익": 3176,
      "비가": 3177,
      "신이": 3178,
      "▁두고": 3179,
      "리로": 3180,
      "▁아는": 3181,
      "▁싸움": 3182,
      "▁자랑": 3183,
      "▁기능": 3184,
      "국이": 3185,
      "요.\n": 3186,
      "▁앉": 3187,
      "▁시간이": 3188,
      "▁보다": 3189,
      "▁원작": 3190,
      "▁있고,": 3191,
      "▁상관": 3192,
      "하려": 3193,
      "▁뿌": 3194,
      "해보": 3195,
      "▁아프": 3196,
      "적을": 3197,
      "▁어머니": 3198,
      "▁하게": 3199,
      "선이": 3200,
      "em": 3201,
      "트의": 3202,
      "▁유튜": 3203,
      "위가": 3204,
      "▁있기": 3205,
      "할때": 3206,
      "▁역대": 3207,
      "비를": 3208,
      "교육": 3209,
      "았다.\n": 3210,
      "▁칭": 3211,
      "▁마을": 3212,
      "▁쥐": 3213,
      "▁대통령이": 3214,
      "▁폴": 3215,
      "▁삶": 3216,
      "▁종교": 3217,
      "▁보이는": 3218,
      "▁졸업": 3219,
      "▁따라서": 3220,
      "▁불법": 3221,
      "버리": 3222,
      "이크": 3223,
      "▁이걸": 3224,
      "▁그림": 3225,
      "▁도망": 3226,
      "▁사업": 3227,
      "대학": 3228,
      "하다가": 3229,
      "▁광주": 3230,
      "nd": 3231,
      "▁느낌": 3232,
      "▁택": 3233,
      "▁되지": 3234,
      "입니다": 3235,
      "▁소설": 3236,
      "할수": 3237,
      "▁엄청난": 3238,
      "▁분노": 3239,
      "까지는": 3240,
      "▁지도": 3241,
      "▁지난": 3242,
      "감을": 3243,
      "▁하늘": 3244,
      "워서": 3245,
      "▁시청": 3246,
      "이었던": 3247,
      "해라\n": 3248,
      "▁년": 3249,
      "▁st": 3250,
      "▁문제는": 3251,
      "▁사람들은": 3252,
      "▁검사": 3253,
      "▁하기": 3254,
      "▁이름을": 3255,
      "▁흐": 3256,
      "▁봤": 3257,
      "▁앨범": 3258,
      "▁혈": 3259,
      "▁분명": 3260,
      "▁공수": 3261,
      "▁인생": 3262,
      "말로": 3263,
      "어났": 3264,
      "▁지속": 3265,
      "▁나중에": 3266,
      "ver": 3267,
      "라리": 3268,
      "의를": 3269,
      "▁확률": 3270,
      "▁불구": 3271,
      "▁진출": 3272,
      "▁데뷔": 3273,
      "▁보스": 3274,
      "▁번째": 3275,
      "이기도": 3276,
      "행을": 3277,
      "▁하며": 3278,
      "▁깔": 3279,
      "▁만드는": 3280,
      "▁23": 3281,
      "▁생긴": 3282,
      "▁시점": 3283,
      "트는": 3284,
      "▁않을": 3285,
      "인\n": 3286,
      "▁하자": 3287,
      "만한": 3288,
      "▁대회": 3289,
      "받는": 3290,
      "▁옛": 3291,
      "▁챔": 3292,
      "여서": 3293,
      "▁공무원": 3294,
      "-2": 3295,
      "▁밑": 3296,
      "▁오브": 3297,
      "▁지들": 3298,
      "ik": 3299,
      "▁195": 3300,
      "▁심각": 3301,
      "ht": 3302,
      "생각": 3303,
      "ur": 3304,
      "()\n": 3305,
      "ir": 3306,
      "▁기대": 3307,
      "경제": 3308,
      "▁분위": 3309,
      "졌다.\n": 3310,
      ",\n": 3311,
      "▁멋": 3312,
      "▁작은": 3313,
      "▁가능한": 3314,
      "▁본인이": 3315,
      "우스": 3316,
      "▁떠나": 3317,
      "겠네": 3318,
      "차피": 3319,
      "▁특별": 3320,
      "▁프랑스": 3321,
      "▁일어나": 3322,
      "▁끝나": 3323,
      "▁오른": 3324,
      "▁토착왜구": 3325,
      "심이": 3326,
      "많은": 3327,
      "그래": 3328,
      "▁만약": 3329,
      "▁안보": 3330,
      "▁흥": 3331,
      "▁나경": 3332,
      "▁삭": 3333,
      "▁헛": 3334,
      "):": 3335,
      "▁열심히": 3336,
      "▁낫": 3337,
      "▁탐": 3338,
      "▁이기": 3339,
      "▁갑자기": 3340,
      "▁액": 3341,
      "▁사람을": 3342,
      "▁지하": 3343,
      "▁플레이어": 3344,
      "지말고": 3345,
      "▁자연": 3346,
      "▁끌어": 3347,
      "러스": 3348,
      "\"라고": 3349,
      "▁경우도": 3350,
      "▁당장": 3351,
      "▁이유는": 3352,
      "▁제공": 3353,
      "▁올려": 3354,
      "▁교수": 3355,
      "▁여전히": 3356,
      "▁부르": 3357,
      "▁쌍": 3358,
      "▁싸우": 3359,
      "들고": 3360,
      "인들이": 3361,
      "▁권력": 3362,
      "▁흘": 3363,
      "(1": 3364,
      "▁1,": 3365,
      "▁주요": 3366,
      "▁담당": 3367,
      "▁네이버": 3368,
      "▁가능성이": 3369,
      "▁획": 3370,
      "▁2000": 3371,
      "▁이탈": 3372,
      "▁알바": 3373,
      "놈들": 3374,
      "▁부끄": 3375,
      "▁치료": 3376,
      "▁따르면": 3377,
      "▁강력한": 3378,
      "▁불러": 3379,
      "▁사람\n": 3380,
      "▁일본이": 3381,
      "뉴스": 3382,
      "▁버전": 3383,
      "▁라고": 3384,
      "▁하이": 3385,
      "▁말하는": 3386,
      "한다\n": 3387,
      "▁알았": 3388,
      "▁우주": 3389,
      "▁저렇게": 3390,
      "일본": 3391,
      "▁죽은": 3392,
      "▁입장": 3393,
      "▁사용하는": 3394,
      "가고": 3395,
      "od": 3396,
      "봐야": 3397,
      "▁2차": 3398,
      "나?\n": 3399,
      "▁발동": 3400,
      "▁트럼프": 3401,
      "▁공부": 3402,
      "ag": 3403,
      "▁논란": 3404,
      "줘야": 3405,
      "▁조용": 3406,
      "▁2013년": 3407,
      "▁없을": 3408,
      "으므로": 3409,
      "▁출생": 3410,
      "▁악마": 3411,
      "▁모른": 3412,
      "▁굉장히": 3413,
      "▁득": 3414,
      "▁하다.": 3415,
      "▁무서": 3416,
      "선거": 3417,
      "▁돼": 3418,
      "▁조건": 3419,
      "▁있었던": 3420,
      "▁말도": 3421,
      "▁국회": 3422,
      "건지": 3423,
      "▁포기": 3424,
      "▁쓰고": 3425,
      ")을": 3426,
      "▁보인다.\n": 3427,
      "▁후에": 3428,
      "▁없애": 3429,
      "▁초기": 3430,
      "▁에피": 3431,
      "▁2012년": 3432,
      "▁장난": 3433,
      "다며": 3434,
      "▁받을": 3435,
      "▁지지율": 3436,
      "개혁": 3437,
      "준다.": 3438,
      "분이": 3439,
      "▁린": 3440,
      "▁젊은": 3441,
      "▁따로": 3442,
      "물이": 3443,
      "▁해주": 3444,
      "▁이유가": 3445,
      "히는": 3446,
      "▁저지": 3447,
      "부의": 3448,
      "▁품": 3449,
      "자들은": 3450,
      "▁발언": 3451,
      "가를": 3452,
      "리,": 3453,
      "▁수록": 3454,
      "▁없다고": 3455,
      "▁쓰러": 3456,
      "▁입국": 3457,
      "량이": 3458,
      "버스": 3459,
      "▁런": 3460,
      "▁ᄂ": 3461,
      "시대": 3462,
      "▁납": 3463,
      "▁애초에": 3464,
      "▁가격": 3465,
      "개를": 3466,
      "▁때문이다.": 3467,
      "▁정부가": 3468,
      "부가": 3469,
      "▁1년": 3470,
      "치로": 3471,
      "다...": 3472,
      "▁문죄": 3473,
      "명은": 3474,
      "▁뮤": 3475,
      "구를": 3476,
      "부로": 3477,
      "▁28": 3478,
      "▁전국": 3479,
      "부에": 3480,
      "▁의원": 3481,
      "임\n": 3482,
      "조작": 3483,
      "▁아르": 3484,
      "이고,": 3485,
      "▁대응": 3486,
      "▁돈을": 3487,
      "▁각각": 3488,
      "▁지금은": 3489,
      "▁좋겠": 3490,
      "▁바보": 3491,
      "▁지랄": 3492,
      "▁26": 3493,
      "▁활용": 3494,
      "▁있었다.\n": 3495,
      "ec": 3496,
      "▁감소": 3497,
      "▁어차피": 3498,
      "▁과정": 3499,
      "▁엄마": 3500,
      "상의": 3501,
      "심을": 3502,
      "▁작중": 3503,
      "마디": 3504,
      "▁중에": 3505,
      "▁바꾸": 3506,
      "▁많아": 3507,
      "▁한다고": 3508,
      "▁계약": 3509,
      "▁아버지": 3510,
      "▁맵": 3511,
      "▁프레": 3512,
      "촛불": 3513,
      "▁개혁": 3514,
      "▁공격을": 3515,
      "운데": 3516,
      "▁최근": 3517,
      "▁타고": 3518,
      "▁2년": 3519,
      "▁성격": 3520,
      "▁배경": 3521,
      "▁사형": 3522,
      "장\n": 3523,
      "▁방향": 3524,
      "▁흡": 3525,
      "인가?": 3526,
      "만을": 3527,
      "▁강한": 3528,
      "해진": 3529,
      "▁잊": 3530,
      "피언": 3531,
      "▁시켜": 3532,
      "성의": 3533,
      "▁일베": 3534,
      "냐.": 3535,
      "있다.": 3536,
      "um": 3537,
      "하려고": 3538,
      "▁정작": 3539,
      "시키고": 3540,
      "▁혐": 3541,
      "▁봐도": 3542,
      "▁제목": 3543,
      "바로": 3544,
      "▁옷": 3545,
      "조선": 3546,
      "▁이루어": 3547,
      "었는데": 3548,
      "되면서": 3549,
      "▁영화\n": 3550,
      "▁참조": 3551,
      "^^\n": 3552,
      "▁생겼": 3553,
      "크로": 3554,
      "▁연결": 3555,
      "▁가만": 3556,
      "에만": 3557,
      "▁피해를": 3558,
      "자와": 3559,
      "라의": 3560,
      "세를": 3561,
      "▁올림픽": 3562,
      "▁2010년": 3563,
      "사\n": 3564,
      "▁에피소": 3565,
      "음\n": 3566,
      "▁습": 3567,
      "???\n": 3568,
      "▁짧": 3569,
      "▁주의": 3570,
      "▁환경": 3571,
      "▁설립": 3572,
      "▁=": 3573,
      "▁27": 3574,
      "▁기관": 3575,
      "▁공수처": 3576,
      "▁진보": 3577,
      "▁물어": 3578,
      "남불": 3579,
      "▁갤": 3580,
      "▁말아": 3581,
      "▁벌어": 3582,
      "▁웨": 3583,
      "▁하는거": 3584,
      "라며": 3585,
      "▁목숨": 3586,
      "▁니네": 3587,
      "도,": 3588,
      "▁기타": 3589,
      "▁마찬가지로": 3590,
      "▁한편": 3591,
      "▁홀": 3592,
      "▁황교안": 3593,
      "시마": 3594,
      "ack": 3595,
      "니까?": 3596,
      "네요\n": 3597,
      "▁친일파": 3598,
      "▁같은데": 3599,
      "▁폭발": 3600,
      "지역": 3601,
      "▁유리": 3602,
      "▁제한": 3603,
      "더라": 3604,
      "▁발전": 3605,
      "파트": 3606,
      "▁특성": 3607,
      "▁메이": 3608,
      "로남불": 3609,
      "......": 3610,
      "▁202": 3611,
      "에게는": 3612,
      "▁평화": 3613,
      "듯\n": 3614,
      "니?": 3615,
      "▁등장하는": 3616,
      "▁늦": 3617,
      "시다": 3618,
      "▁부탁": 3619,
      "리게": 3620,
      "▁척": 3621,
      "▁없어서": 3622,
      "학년": 3623,
      "것들": 3624,
      "▁대전": 3625,
      "하다\n": 3626,
      "▁벨": 3627,
      ")를": 3628,
      "▁선발": 3629,
      "시즌": 3630,
      "▁사실을": 3631,
      "소를": 3632,
      "▁윤석": 3633,
      "로가": 3634,
      "▁인간이": 3635,
      "▁생각해": 3636,
      "님이": 3637,
      "▁영향을": 3638,
      "원에": 3639,
      "었다고": 3640,
      "▁v": 3641,
      "▁위에": 3642,
      "게임": 3643,
      "▁이벤트": 3644,
      "죠.": 3645,
      "렸다.": 3646,
      "▁동료": 3647,
      "▁불쌍": 3648,
      "▁드래곤": 3649,
      "▁노선": 3650,
      "▁브라": 3651,
      "▁you": 3652,
      "▁!": 3653,
      "▁서민": 3654,
      "간의": 3655,
      "력으로": 3656,
      "▁해라": 3657,
      "시켰": 3658,
      ")에": 3659,
      "▁버스": 3660,
      "▁끝까지": 3661,
      "▁The": 3662,
      "음.": 3663,
      "▁민족": 3664,
      "▁블랙": 3665,
      "로부터": 3666,
      "세먼": 3667,
      "▁그가": 3668,
      "▁통합": 3669,
      "단체": 3670,
      "신을": 3671,
      "▁그저": 3672,
      "▁없다는": 3673,
      "ut": 3674,
      "▁개념": 3675,
      "함을": 3676,
      "▁비난": 3677,
      "▁비롯": 3678,
      "=\"": 3679,
      "나이": 3680,
      "비아": 3681,
      "지기": 3682,
      "▁무너": 3683,
      "▁그럴": 3684,
      "두고": 3685,
      "이팅": 3686,
      "▁이유로": 3687,
      "▁사태": 3688,
      "▁한다는": 3689,
      "야.": 3690,
      "▁상승": 3691,
      "▁노동": 3692,
      "▁2011년": 3693,
      "▁자살": 3694,
      "▁뜨": 3695,
      "▁듣고": 3696,
      "▁달라": 3697,
      "▁성장": 3698,
      "▁것에": 3699,
      "스러운": 3700,
      "▁변호": 3701,
      "▁(200": 3702,
      "▁남편": 3703,
      "▁쌓": 3704,
      "ff": 3705,
      "▁챔피언": 3706,
      "어요": 3707,
      "겠다는": 3708,
      "▁기레기": 3709,
      "▁최악": 3710,
      "▁역할을": 3711,
      "사건": 3712,
      "텔레": 3713,
      "ᅳᅳ": 3714,
      "디어": 3715,
      "▁연기": 3716,
      "▁있지": 3717,
      "▁멍청": 3718,
      "▁우선": 3719,
      "개월": 3720,
      "▁빠져": 3721,
      "'라는": 3722,
      "▁돌아가": 3723,
      "▁다들": 3724,
      "▁누군": 3725,
      "▁낮은": 3726,
      "▁군사": 3727,
      "▁그를": 3728,
      "▁60": 3729,
      "▁멸": 3730,
      "동산": 3731,
      "▁솔직": 3732,
      "▁달려": 3733,
      "▁St": 3734,
      "나오": 3735,
      "▁필요한": 3736,
      "▁이명": 3737,
      "으니까": 3738,
      "티브": 3739,
      "▁짐": 3740,
      "▁문재인이": 3741,
      "▁영어": 3742,
      "▁했던": 3743,
      "▁획득": 3744,
      "다,": 3745,
      "▁싶은": 3746,
      "▁행정": 3747,
      "▁기준으로": 3748,
      "▁옮": 3749,
      "▁경쟁": 3750,
      "국에": 3751,
      "▁여행": 3752,
      "▁인터넷": 3753,
      "▁직업": 3754,
      "바리": 3755,
      "시오": 3756,
      "정으로": 3757,
      "▁촛불": 3758,
      "▁갖고": 3759,
      "시가": 3760,
      "▁같다.\n": 3761,
      "려야": 3762,
      "//": 3763,
      "인으로": 3764,
      "▁무식": 3765,
      "▁동물": 3766,
      "가의": 3767,
      "▁유튜브": 3768,
      "▁다양한": 3769,
      "것을": 3770,
      "기\n": 3771,
      "▁있다면": 3772,
      "▁더러운": 3773,
      "마저": 3774,
      "▁조합": 3775,
      "▁좋아하는": 3776,
      "▁밴": 3777,
      "op": 3778,
      "▁힘든": 3779,
      "▁인터뷰": 3780,
      "▁엑": 3781,
      "▁몰아": 3782,
      "하라고": 3783,
      "들아\n": 3784,
      "▁하다.\n": 3785,
      "▁사용할": 3786,
      "▁난리": 3787,
      "리와": 3788,
      "▁나머지": 3789,
      "▁안전": 3790,
      "▁별로": 3791,
      "▁꽃": 3792,
      "사에": 3793,
      "▁안된": 3794,
      "▁가르": 3795,
      "그러": 3796,
      "상은": 3797,
      "건가": 3798,
      "▁민주주의": 3799,
      "▁든": 3800,
      "합니다.\n": 3801,
      "▁츠": 3802,
      "▁나온다.": 3803,
      "▁감사": 3804,
      "▁그동안": 3805,
      "▁느끼": 3806,
      "인물": 3807,
      "yle": 3808,
      "▁모르고": 3809,
      "▁생각이": 3810,
      "▁점점": 3811,
      "▁닥": 3812,
      "무를": 3813,
      "▁노력": 3814,
      "▁냉": 3815,
      "▁상황이": 3816,
      "관이": 3817,
      "▁부활": 3818,
      "(19": 3819,
      "▁패턴": 3820,
      "자고": 3821,
      "상에": 3822,
      "미가": 3823,
      "감이": 3824,
      "▁추정": 3825,
      "ak": 3826,
      "▁맹": 3827,
      "▁어디서": 3828,
      "▁튀": 3829,
      "▁연예": 3830,
      "▁불구하고": 3831,
      "ine": 3832,
      "▁여담": 3833,
      "▁했는데": 3834,
      "ᄏᄏᄏ\n": 3835,
      "▁않았다.": 3836,
      "▁KBS": 3837,
      "네..": 3838,
      "▁각종": 3839,
      "▁주고": 3840,
      "os": 3841,
      "▁들이": 3842,
      "▁류": 3843,
      "레스": 3844,
      "▁크로": 3845,
      "▁넓": 3846,
      ")이": 3847,
      "▁물건": 3848,
      "생활": 3849,
      "▁덤": 3850,
      "레벨": 3851,
      "로를": 3852,
      "▁&": 3853,
      "▁엉": 3854,
      "세대": 3855,
      "~~~\n": 3856,
      "한게": 3857,
      "문이": 3858,
      "▁옥": 3859,
      "▁불리": 3860,
      "▁예상": 3861,
      "▁불매": 3862,
      "▁감염": 3863,
      "▁비행": 3864,
      "▁정당": 3865,
      "▁매국": 3866,
      "▁“": 3867,
      "이즈": 3868,
      "기,": 3869,
      "▁종료": 3870,
      "▁다행": 3871,
      "간다.": 3872,
      "회에": 3873,
      "▁과학": 3874,
      "▁십": 3875,
      "▁보유": 3876,
      "▁일제": 3877,
      "▁시도": 3878,
      ",,,,": 3879,
      "▁소재": 3880,
      "▁잇": 3881,
      "관계": 3882,
      "▁차라리": 3883,
      "▁바라": 3884,
      "▁않는다.\n": 3885,
      "▁희생": 3886,
      "던가": 3887,
      "▁29": 3888,
      "▁야구": 3889,
      "ation": 3890,
      "단이": 3891,
      "네.\n": 3892,
      "것은": 3893,
      "▁대부분의": 3894,
      "는다.\n": 3895,
      "▁경상": 3896,
      "▁사퇴": 3897,
      "▁건설": 3898,
      "▁라인": 3899,
      "고를": 3900,
      "▁연속": 3901,
      "▁고통": 3902,
      "▁고생": 3903,
      "질이": 3904,
      "▁온갖": 3905,
      "서를": 3906,
      "진이": 3907,
      "▁항공": 3908,
      "받아": 3909,
      "▁제품": 3910,
      "??\n": 3911,
      "시를": 3912,
      "레이드": 3913,
      "▁주민": 3914,
      "▁발사": 3915,
      ")가": 3916,
      "기와": 3917,
      "▁and": 3918,
      "▁이용해": 3919,
      "▁수비": 3920,
      "km": 3921,
      "ap": 3922,
      "받은": 3923,
      "▁아내": 3924,
      "▁장비": 3925,
      "금을": 3926,
      "문제": 3927,
      "▁방영": 3928,
      "자.\n": 3929,
      "▁기간": 3930,
      "▁깊": 3931,
      "비스": 3932,
      "▁펼": 3933,
      "만으로": 3934,
      "원으로": 3935,
      "사와": 3936,
      "이에": 3937,
      "▁겪": 3938,
      "하냐?": 3939,
      "다운": 3940,
      "▁돼지": 3941,
      ",000": 3942,
      "▁그룹": 3943,
      "세가": 3944,
      "트남": 3945,
      "져야": 3946,
      "▁정신차": 3947,
      "수준": 3948,
      "▁칠": 3949,
      "단의": 3950,
      "▁벽": 3951,
      "일은": 3952,
      "▁반면": 3953,
      "▁듀": 3954,
      "▁이탈리아": 3955,
      "사,": 3956,
      "▁구간": 3957,
      "▁궁금": 3958,
      "▁크리스": 3959,
      "단을": 3960,
      "▁덜": 3961,
      "▁체력": 3962,
      "▁똑같": 3963,
      "구가": 3964,
      "▁평생": 3965,
      "▁「": 3966,
      "▁목표": 3967,
      "▁시험": 3968,
      "▁단체": 3969,
      "▁애들": 3970,
      "▁모습이": 3971,
      "▁이끌": 3972,
      "▁어쩔": 3973,
      "▁사회주의": 3974,
      "부는": 3975,
      "것들이": 3976,
      "▁상황에서": 3977,
      "프를": 3978,
      "라운드": 3979,
      "▁히로": 3980,
      "▁의료": 3981,
      "▁시대": 3982,
      "▁불안": 3983,
      "▁굳이": 3984,
      "▁으로": 3985,
      "▁음반": 3986,
      "문\n": 3987,
      "▁출전": 3988,
      "일\n": 3989,
      "▁193": 3990,
      "ul": 3991,
      "▁했지만": 3992,
      "▁빅": 3993,
      "▁군대": 3994,
      "40": 3995,
      "지..": 3996,
      "▁일본은": 3997,
      "▁그것도": 3998,
      "▁뭔가": 3999,
      "▁인권": 4000,
      "어라": 4001,
      "▁떡": 4002,
      "도에": 4003,
      "▁바꿔": 4004,
      "시로": 4005,
      "임.": 4006,
      "▁to": 4007,
      "▁생각하는": 4008,
      "업을": 4009,
      "▁전용": 4010,
      "▁생존": 4011,
      "수있": 4012,
      "▁뒤에": 4013,
      "▁퀘": 4014,
      "거든": 4015,
      "▁대놓고": 4016,
      "▁텔레": 4017,
      "무현": 4018,
      "말이": 4019,
      "원에서": 4020,
      "냐??": 4021,
      "▁이재": 4022,
      "▁몽": 4023,
      "▁제국": 4024,
      "우고": 4025,
      "나서": 4026,
      "지.\n": 4027,
      "학과": 4028,
      "▁스토리": 4029,
      "▁행복": 4030,
      "▁미세먼": 4031,
      "▁물리": 4032,
      "▁밀어": 4033,
      "주를": 4034,
      "▁공산주의": 4035,
      "아닌": 4036,
      "▁1.": 4037,
      "▁셈": 4038,
      "▁31": 4039,
      "▁항목": 4040,
      "▁박정": 4041,
      "ight": 4042,
      "▁남은": 4043,
      "▁살아있는": 4044,
      "▁가끔": 4045,
      "해라.": 4046,
      "▁줄어": 4047,
      "나보": 4048,
      "으로써": 4049,
      "▁조국이": 4050,
      "▁최고의": 4051,
      "▁반일": 4052,
      "▁낳": 4053,
      "순실": 4054,
      "▁수는": 4055,
      "▁가게": 4056,
      "롭게": 4057,
      "▁밖": 4058,
      "▁뻔뻔": 4059,
      "유의": 4060,
      "한다면": 4061,
      "▁심판": 4062,
      "▁예정": 4063,
      "oc": 4064,
      "e\n": 4065,
      "▁번역": 4066,
      "기관": 4067,
      "▁모자": 4068,
      "▁널": 4069,
      "▁최저": 4070,
      "▁나무": 4071,
      "▁틀딱": 4072,
      "▁덮": 4073,
      "당의": 4074,
      "이\n": 4075,
      "▁의심": 4076,
      "▁다음과": 4077,
      "▁운행": 4078,
      "▁눈치": 4079,
      "▁않게": 4080,
      "▁철도": 4081,
      "구나\n": 4082,
      "▁감옥": 4083,
      "▁돌려": 4084,
      "▁경우는": 4085,
      "▁이명박": 4086,
      "▁특정": 4087,
      "▁똑같은": 4088,
      "정신": 4089,
      "▁자료": 4090,
      "위는": 4091,
      "▁파워": 4092,
      "▁지금까지": 4093,
      "▁진심": 4094,
      "수한": 4095,
      "▁간첩": 4096,
      "부대": 4097,
      "▁한마디": 4098,
      "▁족": 4099,
      "촬영": 4100,
      "든지": 4101,
      "▁부동산": 4102,
      "▁맞아": 4103,
      "▁의사": 4104,
      "기만": 4105,
      "회가": 4106,
      "▁명령": 4107,
      "▁적은": 4108,
      "▁안정": 4109,
      "▁건강": 4110,
      "▁한국의": 4111,
      "▁그랬": 4112,
      "데이트": 4113,
      "▁알게": 4114,
      "타를": 4115,
      "▁적을": 4116,
      "▁달성": 4117,
      "ri": 4118,
      "▁ᄍᄍ\n": 4119,
      "▁빙": 4120,
      "▁다르게": 4121,
      "르크": 4122,
      "우리": 4123,
      "장,": 4124,
      "▁겸": 4125,
      "전의": 4126,
      "키는": 4127,
      "▁잉": 4128,
      "▁추천": 4129,
      "율이": 4130,
      "▁부터": 4131,
      "▁집중": 4132,
      "이지\n": 4133,
      "▁메인": 4134,
      "▁금지": 4135,
      "점으로": 4136,
      "▁라는": 4137,
      "▁지휘": 4138,
      "▁에너": 4139,
      "▁정부는": 4140,
      "▁깜": 4141,
      "인거": 4142,
      "▁스포": 4143,
      "▁으": 4144,
      "정치": 4145,
      "▁쏘": 4146,
      "제에": 4147,
      "▁소비": 4148,
      "▁정신병": 4149,
      "▁이상의": 4150,
      "▁선생": 4151,
      "▁검은": 4152,
      "정의": 4153,
      "▁만화": 4154,
      "▁가수": 4155,
      "▁뽑아": 4156,
      "▁혜": 4157,
      "▁2009년": 4158,
      "었다": 4159,
      "▁것과": 4160,
      "▁좋지": 4161,
      "하러": 4162,
      "음에도": 4163,
      "▁말은": 4164,
      "▁현재는": 4165,
      "입니다.\n": 4166,
      "▁인사": 4167,
      "먹을": 4168,
      "종의": 4169,
      "▁2008년": 4170,
      "들한테": 4171,
      "놓은": 4172,
      "▁남성": 4173,
      "▁ᄇ": 4174,
      "▁훈련": 4175,
      "지원": 4176,
      "군을": 4177,
      "아이": 4178,
      "▁월급": 4179,
      "나요?": 4180,
      "차가": 4181,
      "주가": 4182,
      "석이": 4183,
      "▁얻을": 4184,
      "▁말에": 4185,
      "▁칸": 4186,
      "정에": 4187,
      "▁아이돌": 4188,
      "▁내로남불": 4189,
      "(),": 4190,
      "달라고": 4191,
      "▁투자": 4192,
      "호를": 4193,
      "▁빠른": 4194,
      "▁어려운": 4195,
      "▁출생\n": 4196,
      "▁비밀": 4197,
      "▁아가": 4198,
      "동을": 4199,
      "▁살고": 4200,
      "쪽으로": 4201,
      "▁정도의": 4202,
      "되기": 4203,
      "소가": 4204,
      "▁싱글": 4205,
      "▁대미": 4206,
      "▁닭": 4207,
      "▁업데이트": 4208,
      "아치": 4209,
      "진짜": 4210,
      "▁자꾸": 4211,
      "법을": 4212,
      "카이": 4213,
      "인트": 4214,
      "▁싹": 4215,
      "▁공연": 4216,
      "네...": 4217,
      "▁인도": 4218,
      "▁의혹": 4219,
      "▁인천": 4220,
      "때는": 4221,
      "12": 4222,
      "▁70": 4223,
      "호가": 4224,
      "▁공동": 4225,
      "▁지정": 4226,
      "▁교체": 4227,
      "▁하던": 4228,
      "▁강제": 4229,
      "▁클리어": 4230,
      "▁3년": 4231,
      "▁아닐": 4232,
      "▁엔딩": 4233,
      "▁것.\n": 4234,
      "▁교통": 4235,
      "▁거부": 4236,
      "리스트": 4237,
      "▁집에": 4238,
      "다른": 4239,
      "▁확진": 4240,
      "ab": 4241,
      "▁나름": 4242,
      "▁이상한": 4243,
      "▁않으면": 4244,
      "마자": 4245,
      "▁탈출": 4246,
      "군은": 4247,
      "▁연합": 4248,
      "▁개소리": 4249,
      "▁중국인": 4250,
      "음이": 4251,
      "▁연출": 4252,
      "▁옹": 4253,
      "▁똑같이": 4254,
      "▁이제는": 4255,
      "무리": 4256,
      "주면": 4257,
      "▁죽을": 4258,
      "▁제외한": 4259,
      "▁안하고": 4260,
      "▁사례": 4261,
      "▁그건": 4262,
      "합니다\n": 4263,
      "버리는": 4264,
      "▁광고": 4265,
      "▁전기": 4266,
      "전쟁": 4267,
      "▁식으로": 4268,
      "모가": 4269,
      "▁충분히": 4270,
      "▁마스터": 4271,
      "▁우한": 4272,
      "지...": 4273,
      "▁이나라": 4274,
      "자도": 4275,
      "거나,": 4276,
      "▁공산당": 4277,
      "▁마치": 4278,
      "개가": 4279,
      "▁앞에": 4280,
      "나,": 4281,
      "▁동생": 4282,
      "▁한국당": 4283,
      "(S": 4284,
      "▁철저": 4285,
      "▁모드": 4286,
      "▁도로": 4287,
      "시장": 4288,
      "▁에이": 4289,
      "TV": 4290,
      "▁정은": 4291,
      "ER": 4292,
      "라를": 4293,
      "하지만,": 4294,
      "▁하니": 4295,
      "▁미션": 4296,
      "▁통과": 4297,
      "▁믿고": 4298,
      "진다.\n": 4299,
      "▁엘리": 4300,
      "▁희망": 4301,
      "방에": 4302,
      "진을": 4303,
      "▁전반": 4304,
      "▁능력을": 4305,
      "독교": 4306,
      "비전": 4307,
      "▁솔직히": 4308,
      "용이": 4309,
      "어.": 4310,
      "▁안에": 4311,
      "▁짱깨": 4312,
      "▁근처": 4313,
      "인과": 4314,
      "▁아무것도": 4315,
      "▁롯": 4316,
      "소년": 4317,
      "하세요": 4318,
      "▁나경원": 4319,
      "▁집안": 4320,
      "구나.": 4321,
      "ath": 4322,
      "질을": 4323,
      "▁우리는": 4324,
      "화국": 4325,
      "▁같다.": 4326,
      "▁어이": 4327,
      "▁문빠": 4328,
      "▁떼": 4329,
      "▁등으로": 4330,
      "부터는": 4331,
      "▁그러니": 4332,
      "▁ᅳᅳ": 4333,
      "all": 4334,
      "▁정리": 4335,
      "▁확실히": 4336,
      "야마": 4337,
      "했으며,": 4338,
      "차를": 4339,
      "라스": 4340,
      "▁좋다.": 4341,
      "▁베트남": 4342,
      "라지": 4343,
      "▁도쿄": 4344,
      "▁가슴": 4345,
      "역시": 4346,
      "▁노무현": 4347,
      ").": 4348,
      "▁ᅲᅲ": 4349,
      "조가": 4350,
      "▁구매": 4351,
      "▁자기가": 4352,
      "▁잠시": 4353,
      "▁스파": 4354,
      "▁너네": 4355,
      "▁압도": 4356,
      "바이": 4357,
      "▁도입": 4358,
      "대가리": 4359,
      "선의": 4360,
      "▁운전": 4361,
      "▁스피": 4362,
      "▁앤": 4363,
      "'s": 4364,
      "▁가까운": 4365,
      "▁때려": 4366,
      "적은": 4367,
      "▁#\n": 4368,
      "▁거기에": 4369,
      "했으나": 4370,
      "▁국민들은": 4371,
      "▁바람에": 4372,
      "지션": 4373,
      "15": 4374,
      "▁2000년": 4375,
      "▁차이가": 4376,
      "할거": 4377,
      "▁없는데": 4378,
      "▁먹는": 4379,
      "▁아나": 4380,
      "사고": 4381,
      "원\n": 4382,
      "▁반대로": 4383,
      "▁돈이": 4384,
      "복을": 4385,
      "▁법무부": 4386,
      "60": 4387,
      "▁새로": 4388,
      "▁아니다": 4389,
      "▁로마": 4390,
      "▁퀘스트": 4391,
      "▁약간": 4392,
      "▁평소": 4393,
      "▁좃": 4394,
      "▁수많은": 4395,
      "▁덱": 4396,
      "▁능": 4397,
      "▁벤": 4398,
      "▁기반": 4399,
      "시킬": 4400,
      "▁적극": 4401,
      "▁까지": 4402,
      "yle=\"": 4403,
      "▁뜯": 4404,
      "▁통일": 4405,
      "▁핑": 4406,
      "▁지배": 4407,
      "▁대중": 4408,
      "버리고": 4409,
      "▁촬영": 4410,
      "▁방식": 4411,
      "▁모르겠": 4412,
      "▁하지만,": 4413,
      "만의": 4414,
      "▁애국": 4415,
      "▁계열": 4416,
      "▁뭉": 4417,
      "▁유명한": 4418,
      "▁만들고": 4419,
      "▁소개": 4420,
      "▁짝": 4421,
      "▁전략": 4422,
      "▁e": 4423,
      "문화": 4424,
      "▁이름이": 4425,
      "하는데,": 4426,
      "▁시장": 4427,
      "▁거리": 4428,
      "▁바닥": 4429,
      "▁제거": 4430,
      "사회": 4431,
      "쳐서": 4432,
      "▁전작": 4433,
      "▁쫓": 4434,
      "▁대화": 4435,
      "▁그거": 4436,
      "성에": 4437,
      "▁조선일보": 4438,
      "ter": 4439,
      "▁유사": 4440,
      "▁평균": 4441,
      "▁무리": 4442,
      "계가": 4443,
      "이냐?": 4444,
      "▁한정": 4445,
      "자나": 4446,
      "▁썼": 4447,
      "▁수정": 4448,
      "▁여기에": 4449,
      "스티": 4450,
      "▁각주\n": 4451,
      "▁에피소드": 4452,
      "▁명칭": 4453,
      "▁지가": 4454,
      "▁작곡": 4455,
      "▁FC": 4456,
      "▁Z": 4457,
      "어의": 4458,
      "▁위협": 4459,
      "!!!!!!!!": 4460,
      "▁동네": 4461,
      "용으로": 4462,
      "▁탱": 4463,
      "▁쿨": 4464,
      "▁가능하다.": 4465,
      "ce": 4466,
      "놈이": 4467,
      "▁이리": 4468,
      "(...)\n": 4469,
      "▁10년": 4470,
      "▁부른": 4471,
      "없다": 4472,
      "▁확정": 4473,
      "▁양심": 4474,
      "슬람": 4475,
      "▁배우\n": 4476,
      "▁있지만,": 4477,
      "▁수행": 4478,
      "ᄒ\n": 4479,
      "▁밝혔": 4480,
      "▁관광": 4481,
      "로도": 4482,
      "'라고": 4483,
      "▁반성": 4484,
      "라,": 4485,
      "▁베이": 4486,
      "▁생각하면": 4487,
      "▁숫": 4488,
      "야말로": 4489,
      "▁몰랐": 4490,
      "▁웹": 4491,
      "먹은": 4492,
      "▁데려": 4493,
      "▁2007년": 4494,
      "▁이외": 4495,
      "▁진정한": 4496,
      "▁미리": 4497,
      "11": 4498,
      "▁흉": 4499,
      "▁너는": 4500,
      "▁올리": 4501,
      "나의": 4502,
      "▁목록": 4503,
      "스럽게": 4504,
      "▁소녀": 4505,
      "▁정규": 4506,
      "▁style=\"": 4507,
      "센터": 4508,
      "{{{": 4509,
      "▁물러": 4510,
      "▁붕": 4511,
      "▁위치한": 4512,
      "',": 4513,
      "양이": 4514,
      "▁장착": 4515,
      "았던": 4516,
      "▁윤석열": 4517,
      "▁전화": 4518,
      "▁1위": 4519,
      "▁수준이": 4520,
      "프레": 4521,
      "▁나쁘": 4522,
      "▁앞에서": 4523,
      "▁혁": 4524,
      "▁거지": 4525,
      "스에": 4526,
      "(?": 4527,
      "▁||": 4528,
      "▁공격력": 4529,
      "▁유시민": 4530,
      "▁재산": 4531,
      "린다.\n": 4532,
      "▁놓고": 4533,
      "▁일은": 4534,
      "▁재판": 4535,
      "▁살해": 4536,
      "▁콤": 4537,
      "란드": 4538,
      "가족": 4539,
      "▁묘사": 4540,
      "▁이하": 4541,
      "▁80": 4542,
      "▁처럼": 4543,
      "▁정치인": 4544,
      "느라": 4545,
      "카와": 4546,
      "▁대상": 4547,
      "플레이": 4548,
      "▁롤": 4549,
      "▁예전": 4550,
      "▁생각을": 4551,
      "▁소모": 4552,
      "▁힐": 4553,
      "▁근접": 4554,
      "▁등등": 4555,
      "주로": 4556,
      "ST": 4557,
      "▁팔아": 4558,
      "지와": 4559,
      "▁구분": 4560,
      "▁있겠": 4561,
      "▁대학교": 4562,
      "우가": 4563,
      "▁예를": 4564,
      "하려는": 4565,
      "▁영원": 4566,
      "마트": 4567,
      "▁결승": 4568,
      "위원회": 4569,
      "▁일정": 4570,
      "▁아닌데": 4571,
      "▁최강": 4572,
      "▁전세계": 4573,
      "▁중간": 4574,
      "▁아니라고": 4575,
      "▁박정희": 4576,
      "기술": 4577,
      "▁날아": 4578,
      "▁재미": 4579,
      "▁옵": 4580,
      "▁것이라고": 4581,
      "▁죽여": 4582,
      "문재": 4583,
      "▁사법": 4584,
      "▁막아": 4585,
      "봐도": 4586,
      "시길": 4587,
      "▁당선": 4588,
      "▁수출": 4589,
      ",,,": 4590,
      "▁유일한": 4591,
      "자에": 4592,
      "gr": 4593,
      "▁하는게": 4594,
      "▁뒤집": 4595,
      "25": 4596,
      "▁빠르게": 4597,
      "가면": 4598,
      "나와": 4599,
      "▁배틀": 4600,
      ".3": 4601,
      "▁미사일": 4602,
      "정책": 4603,
      "었고": 4604,
      "▁못해": 4605,
      "▁있어야": 4606,
      "고등학교": 4607,
      "▁이야기를": 4608,
      "▁ᄋ": 4609,
      "▁케이": 4610,
      "▁요청": 4611,
      "구의": 4612,
      "()의": 4613,
      "당히": 4614,
      "퓨터": 4615,
      "ound": 4616,
      "▁못하게": 4617,
      "▁끝난": 4618,
      "▁아카": 4619,
      "▁복귀": 4620,
      "하도록": 4621,
      "▁내부": 4622,
      "▁접근": 4623,
      "▁MBC": 4624,
      "▁못할": 4625,
      "▁뛰어": 4626,
      "▁보도": 4627,
      "▁오르": 4628,
      "▁게임을": 4629,
      "▁공중": 4630,
      "▁배치": 4631,
      "▁눈에": 4632,
      "▁가운데": 4633,
      "스테": 4634,
      "▁실험": 4635,
      "▁처음으로": 4636,
      "▁최순실": 4637,
      "타로": 4638,
      "▁경기도": 4639,
      "점은": 4640,
      "외로": 4641,
      "▁킹": 4642,
      "▁대가리": 4643,
      "동이": 4644,
      "ᅮᅮ": 4645,
      "나라는": 4646,
      "▁포켓": 4647,
      "▁전설": 4648,
      "▁소련": 4649,
      "▁사이에": 4650,
      "▁가리": 4651,
      "▁주사": 4652,
      "명으로": 4653,
      "▁종북": 4654,
      "▁것들이": 4655,
      "하는건": 4656,
      "-0": 4657,
      "▁SK": 4658,
      "▁사무": 4659,
      "'를": 4660,
      "▁개그": 4661,
      "▁교회": 4662,
      "▁일행": 4663,
      "▁나타나": 4664,
      "▁분류": 4665,
      "량을": 4666,
      "▁1차": 4667,
      "▁무섭": 4668,
      "▁만한": 4669,
      "들.": 4670,
      "▁본래": 4671,
      "》\n": 4672,
      "아버": 4673,
      "▁LG": 4674,
      "▁랜": 4675,
      "중이": 4676,
      "▁생기": 4677,
      "▁알아서": 4678,
      "▁즉,": 4679,
      "▁클럽": 4680,
      "함\n": 4681,
      "▁사냥": 4682,
      "▁캠": 4683,
      "이,": 4684,
      "▁냄": 4685,
      "▁것처럼": 4686,
      "들로": 4687,
      "▁많다.\n": 4688,
      "려라": 4689,
      "▁동맹": 4690,
      "었을": 4691,
      "▁죽음": 4692,
      "없고": 4693,
      "▁근거": 4694,
      "▁하다": 4695,
      "▁.\n": 4696,
      "▁맨날": 4697,
      "역을": 4698,
      "▁조선족": 4699,
      "▁대사": 4700,
      "▁삭제": 4701,
      "특별": 4702,
      "art": 4703,
      "안을": 4704,
      "극기": 4705,
      "▁이름은": 4706,
      "▁않다.": 4707,
      "▁관한": 4708,
      "▁앙": 4709,
      "▁일본에": 4710,
      "▁상위": 4711,
      "보를": 4712,
      "▁때,": 4713,
      "랭크": 4714,
      "▁하고,": 4715,
      "▁부여": 4716,
      "민주당": 4717,
      "▁완벽": 4718,
      "▁때문에,": 4719,
      "민주주의": 4720,
      "▁제3": 4721,
      "ia": 4722,
      "▁불과": 4723,
      "▁팩트": 4724,
      "마라": 4725,
      "미터": 4726,
      "해\n": 4727,
      "▁녀": 4728,
      "▁세력": 4729,
      "성과": 4730,
      "▁2006년": 4731,
      "제의": 4732,
      "▁좀비": 4733,
      "적이고": 4734,
      "▁수입": 4735,
      "▁낸": 4736,
      "▁경우에는": 4737,
      "범죄": 4738,
      "▁바다": 4739,
      "▁폐지": 4740,
      "▁강남": 4741,
      "자들의": 4742,
      "악한": 4743,
      "임이": 4744,
      "▁스테이지": 4745,
      "▁하나도": 4746,
      "▁내년": 4747,
      "냐는": 4748,
      "▁신고": 4749,
      "▁시전": 4750,
      "▁특이": 4751,
      "▁인한": 4752,
      "▁공포": 4753,
      "▁이중": 4754,
      "▁신뢰": 4755,
      "▁가만히": 4756,
      "성도": 4757,
      "▁국정": 4758,
      "▁나온다.\n": 4759,
      "향이": 4760,
      "두환": 4761,
      "▁기념": 4762,
      "▁생명": 4763,
      "스코": 4764,
      "'의": 4765,
      "야?": 4766,
      "▁지옥": 4767,
      "다!\n": 4768,
      "▁파티": 4769,
      "▁무려": 4770,
      "▁중에서": 4771,
      "▁치고": 4772,
      "▁개판": 4773,
      "보다도": 4774,
      "▁국민은": 4775,
      "▁시설": 4776,
      "▁높아": 4777,
      "신의": 4778,
      "mm": 4779,
      "▁아웃": 4780,
      "▁손을": 4781,
      "▁맞추": 4782,
      "▁없으면": 4783,
      "해야지": 4784,
      "원도": 4785,
      "▁기본적으로": 4786,
      "금지": 4787,
      "▁한국인": 4788,
      "▁홍콩": 4789,
      "수사": 4790,
      "었고,": 4791,
      "▁편이다.": 4792,
      "▁이와": 4793,
      "어는": 4794,
      "▁능력이": 4795,
      "▁대변": 4796,
      "der": 4797,
      "▁가정": 4798,
      "이와": 4799,
      "▁과정에서": 4800,
      "▁롯데": 4801,
      "iki": 4802,
      "▁얻어": 4803,
      "위해": 4804,
      "걸로": 4805,
      "머리": 4806,
      "▁조심": 4807,
      "▁고민": 4808,
      "ᄍ\n": 4809,
      "▁저러": 4810,
      "▁사람도": 4811,
      "▁코스": 4812,
      "ra": 4813,
      "▁추측": 4814,
      "제는": 4815,
      "▁대형": 4816,
      "▁곤": 4817,
      "▁할머니": 4818,
      "▁남의": 4819,
      "한건": 4820,
      "\"라는": 4821,
      "▁느껴": 4822,
      "▁이적": 4823,
      "▁500": 4824,
      "화된": 4825,
      "사람이": 4826,
      "마가": 4827,
      "ie": 4828,
      "▁하겠": 4829,
      "▁빵": 4830,
      "▁과연": 4831,
      "▁클래": 4832,
      "보단": 4833,
      "▁하였": 4834,
      "ill": 4835,
      "▁잡고": 4836,
      "▁2.": 4837,
      "{{{#": 4838,
      "▁자리를": 4839,
      "pl": 4840,
      "▁페미": 4841,
      "했으면": 4842,
      "▁채널": 4843,
      "▁300": 4844,
      "▁값": 4845,
      "이게": 4846,
      "▁장기": 4847,
      "계의": 4848,
      "▁매일": 4849,
      "▁지금도": 4850,
      "체는": 4851,
      "▁국방": 4852,
      "해지": 4853,
      "▁다루": 4854,
      "▁평범": 4855,
      "▁니들은": 4856,
      "당에": 4857,
      "▁종류": 4858,
      "▁지들이": 4859,
      "▁한심한": 4860,
      "▁시간을": 4861,
      "공격": 4862,
      "▁다가": 4863,
      "()은": 4864,
      "▁대책": 4865,
      "▁본인의": 4866,
      "▁보아": 4867,
      "▁90": 4868,
      "▁매국노": 4869,
      "▁맞춰": 4870,
      "데,": 4871,
      "'는": 4872,
      "▁문재인은": 4873,
      "돌아": 4874,
      "역\n": 4875,
      "▁원하는": 4876,
      "모토": 4877,
      "▁아키": 4878,
      "로의": 4879,
      "▁하였다.": 4880,
      "▁대다": 4881,
      "▁이로": 4882,
      "나.": 4883,
      "▁반복": 4884,
      "▁투입": 4885,
      "▁유일하게": 4886,
      "▁여담으로": 4887,
      "▁컴퓨터": 4888,
      "▁고정": 4889,
      "▁지적": 4890,
      "있다.\n": 4891,
      "니가": 4892,
      "▁겨우": 4893,
      "치의": 4894,
      "▁무장": 4895,
      "▁효과를": 4896,
      "▁넘어가": 4897,
      "인,": 4898,
      "▁소리를": 4899,
      "▁대선": 4900,
      "▁거주": 4901,
      "▁딴": 4902,
      "▁말로": 4903,
      "▁이해가": 4904,
      "▁대비": 4905,
      "▁포켓몬": 4906,
      "남도": 4907,
      "▁*": 4908,
      "▁작가": 4909,
      "▁영혼": 4910,
      "문의": 4911,
      "▁기독교": 4912,
      "나다": 4913,
      "▁맞고": 4914,
      "▁몇몇": 4915,
      "이라서": 4916,
      "▁더럽": 4917,
      "▁더이상": 4918,
      "움을": 4919,
      "▁화이팅": 4920,
      "스토": 4921,
      "▁줘": 4922,
      "했는데,": 4923,
      "▁집값": 4924,
      "▁방해": 4925,
      "▁の": 4926,
      "'을": 4927,
      "▁이곳": 4928,
      "▁둔": 4929,
      "()는": 4930,
      "▁보상": 4931,
      "▁ᆞ": 4932,
      "FA": 4933,
      "]\n": 4934,
      "이브": 4935,
      "▁노예": 4936,
      "▁풀어": 4937,
      "가락": 4938,
      "▁당신이": 4939,
      "▁라이브": 4940,
      "트리": 4941,
      "▁도착": 4942,
      "▁이쪽": 4943,
      "▁직후": 4944,
      "▁조용히": 4945,
      "개로": 4946,
      "답게": 4947,
      "▁대기업": 4948,
      "하네\n": 4949,
      "▁방사": 4950,
      "▁약속": 4951,
      "자에게": 4952,
      "-3": 4953,
      "▁고대": 4954,
      "▁중국에": 4955,
      "▁연습": 4956,
      "▁청문": 4957,
      "러워": 4958,
      "▁입고": 4959,
      "으려고": 4960,
      "▁소유": 4961,
      "구로": 4962,
      "▁공간": 4963,
      "wiki": 4964,
      "▁청년": 4965,
      "▁없었다.": 4966,
      "▁월드컵": 4967,
      "▁검찰개혁": 4968,
      "▁태양": 4969,
      "까?\n": 4970,
      "▁빼고": 4971,
      "더만": 4972,
      "▁개최": 4973,
      "▁붙어": 4974,
      "▁등장인물": 4975,
      "화의": 4976,
      "▁보여준": 4977,
      "▁홈페": 4978,
      "▁아무도": 4979,
      "석을": 4980,
      "▁직원": 4981,
      "▁동문\n": 4982,
      "▁지상": 4983,
      "▁100%": 4984,
      "▁작업": 4985,
      "인줄": 4986,
      "▁위의": 4987,
      "▁멘": 4988,
      "▁완성": 4989,
      "▁노조": 4990,
      "▁카메": 4991,
      "임금": 4992,
      "중국": 4993,
      "▁상태에서": 4994,
      "말을": 4995,
      "▁191": 4996,
      "방을": 4997,
      "▁위안": 4998,
      "▁야당": 4999,
      "▁떨어진": 5000,
      "▁데이터": 5001,
      "▁그러면": 5002,
      "▁제주": 5003,
      "▁쪽바리": 5004,
      "▁해체": 5005,
      "드리": 5006,
      "▁어서": 5007,
      "지?\n": 5008,
      "▁이사": 5009,
      "▁Ch": 5010,
      "▁가짜뉴스": 5011,
      "▁기계": 5012,
      "▁조종": 5013,
      "▁이익": 5014,
      "▁전통": 5015,
      "래도": 5016,
      "키가": 5017,
      "▁수십": 5018,
      "▁윈": 5019,
      "▁같아": 5020,
      "▁록": 5021,
      "▁셀": 5022,
      "하긴": 5023,
      "라니": 5024,
      "▁끝에": 5025,
      "▁자빠": 5026,
      "▁아니다.\n": 5027,
      "▁충격": 5028,
      "▁자유한국": 5029,
      "▁산업": 5030,
      "▁무한": 5031,
      "는다": 5032,
      "되었고,": 5033,
      "잡고": 5034,
      "▁인식": 5035,
      "상태": 5036,
      "▁나오지": 5037,
      "▁때마다": 5038,
      "이런": 5039,
      "▁답답": 5040,
      "▁뛰어난": 5041,
      "▁워낙": 5042,
      "▁혀": 5043,
      "러가": 5044,
      "▁옛날": 5045,
      "연구": 5046,
      "타가": 5047,
      "▁192": 5048,
      "즈의": 5049,
      "▁효과가": 5050,
      "▁미국이": 5051,
      "▁잘못된": 5052,
      "▁이름으로": 5053,
      "▁텔레비전": 5054,
      "▁기생": 5055,
      "▁너도": 5056,
      "▁표기": 5057,
      "▁선언": 5058,
      "▁그녀의": 5059,
      "▁자격": 5060,
      "▁원숭": 5061,
      "가지고": 5062,
      "▁문제를": 5063,
      "▁등에": 5064,
      "80": 5065,
      "▁죄다": 5066,
      "▁기가": 5067,
      "난다.": 5068,
      "일부터": 5069,
      "권이": 5070,
      "▁사상": 5071,
      "▁이럴": 5072,
      "동생": 5073,
      "분을": 5074,
      "▁아프리카": 5075,
      "경을": 5076,
      "▁리더": 5077,
      "▁아침": 5078,
      "▁ᄀ": 5079,
      "▁간단": 5080,
      "▁가고": 5081,
      "▁인간들": 5082,
      "▁외국인": 5083,
      "둥이": 5084,
      "군\n": 5085,
      "▁사람의": 5086,
      "으로부터": 5087,
      "▁카운": 5088,
      "▁타이틀": 5089,
      "▁말해": 5090,
      "▁난이도": 5091,
      "경찰": 5092,
      "▁경우,": 5093,
      "씨가": 5094,
      "▁이지": 5095,
      "하고는": 5096,
      "형을": 5097,
      "▁했다고": 5098,
      "▁협박": 5099,
      "▁빼앗": 5100,
      "▁아파트": 5101,
      "이든": 5102,
      "▁오랜": 5103,
      "탄을": 5104,
      "▁다.": 5105,
      "{{{#!": 5106,
      "▁변신": 5107,
      "적으로는": 5108,
      "나온": 5109,
      "▁암살": 5110,
      "▁하시": 5111,
      "라우": 5112,
      "▁트위": 5113,
      "▁유치": 5114,
      "▁타격": 5115,
      ".....\n": 5116,
      "트에": 5117,
      "원전": 5118,
      "(C": 5119,
      "했으며": 5120,
      "▁디자인": 5121,
      "죠?": 5122,
      "▁2005년": 5123,
      "노총": 5124,
      "▁등장한": 5125,
      "모로": 5126,
      "▁인기": 5127,
      "▁와서": 5128,
      "▁를": 5129,
      "지금": 5130,
      "▁판결": 5131,
      "▁합류": 5132,
      "▁에서": 5133,
      "▁문통": 5134,
      "치게": 5135,
      "▁이정도": 5136,
      "px;": 5137,
      "▁전두환": 5138,
      "하였고,": 5139,
      "지에서": 5140,
      "리며": 5141,
      "▁자세한": 5142,
      "쓰고": 5143,
      "영화": 5144,
      "▁우파": 5145,
      "▁방문": 5146,
      "!!!!\n": 5147,
      "보내": 5148,
      "▁배신": 5149,
      "▁오버": 5150,
      "▁미니": 5151,
      "모를": 5152,
      "냈다.": 5153,
      "▁우려": 5154,
      "▁촉": 5155,
      "▁버티": 5156,
      "스카": 5157,
      "▁점을": 5158,
      "공자": 5159,
      "▁상처": 5160,
      "하니까": 5161,
      "ea": 5162,
      "지라": 5163,
      "▁명예": 5164,
      "다시": 5165,
      "▁경기에서": 5166,
      "아의": 5167,
      "▁상황을": 5168,
      "▁포지션": 5169,
      "▁경기를": 5170,
      "텐츠": 5171,
      "▁때까지": 5172,
      "▁변화": 5173,
      "▁자체는": 5174,
      "▁켄": 5175,
      "▁상식": 5176,
      "선수": 5177,
      "▁타입": 5178,
      "▁최후": 5179,
      "▁대답": 5180,
      "상\n": 5181,
      "치기": 5182,
      "프가": 5183,
      "▁관련된": 5184,
      "었다는": 5185,
      "나고": 5186,
      "{{{#!wiki": 5187,
      "호선": 5188,
      "면,": 5189,
      "ont": 5190,
      "정보": 5191,
      "일:": 5192,
      "▁열린": 5193,
      "▁자가": 5194,
      "▁양아치": 5195,
      "미를": 5196,
      "▁아군": 5197,
      "▁살아남": 5198,
      "▁셋": 5199,
      "언론": 5200,
      "▁폰": 5201,
      "▁다크": 5202,
      "▁죽어": 5203,
      "▁화면": 5204,
      "그룹": 5205,
      "▁그린": 5206,
      "▁부담": 5207,
      "▁다소": 5208,
      "▁비롯한": 5209,
      "▁부하": 5210,
      ")에서": 5211,
      "▁저항": 5212,
      "▁입학": 5213,
      "▁종족": 5214,
      "▁공감": 5215,
      "스케": 5216,
      "공산": 5217,
      "도와": 5218,
      "ell": 5219,
      "▁억울": 5220,
      "전은": 5221,
      "▁상당한": 5222,
      "\"고": 5223,
      "▁때도": 5224,
      "▁시나": 5225,
      "▁가야": 5226,
      "이들": 5227,
      "관을": 5228,
      "▁아시아": 5229,
      "▁근무": 5230,
      "----": 5231,
      "▁말한": 5232,
      "▁블루": 5233,
      "▁시기": 5234,
      "▁놈들이": 5235,
      "▁착각": 5236,
      "▁종종": 5237,
      "▁내는": 5238,
      "(M": 5239,
      "단에": 5240,
      "▁들어간": 5241,
      "▁안타깝": 5242,
      "▁참조.\n": 5243,
      "▁음식": 5244,
      "▁보이지": 5245,
      "크를": 5246,
      "▁갱": 5247,
      "▁앞서": 5248,
      "▁힘이": 5249,
      "그네": 5250,
      "▁콩": 5251,
      "▁2004년": 5252,
      "▁놈들": 5253,
      "▁필요가": 5254,
      "연히": 5255,
      "▁점령": 5256,
      "에서만": 5257,
      "▁최악의": 5258,
      "#\n": 5259,
      "장판": 5260,
      "났다.": 5261,
      "을거": 5262,
      "▁이후로": 5263,
      "▁받았다.": 5264,
      "▁스포츠": 5265,
      "▁핵심": 5266,
      "▁이것이": 5267,
      "고.": 5268,
      "▁어지": 5269,
      "약을": 5270,
      "좌파": 5271,
      "▁건담": 5272,
      "▁디지": 5273,
      "▁논리": 5274,
      "▁합니다.": 5275,
      "▁광화": 5276,
      "▁아쉬": 5277,
      "▁팀의": 5278,
      "▁)": 5279,
      "▁옹호": 5280,
      "▁제외하면": 5281,
      "▁도중": 5282,
      "안이": 5283,
      "▁펜": 5284,
      "놈들이": 5285,
      "함이": 5286,
      "▁은퇴": 5287,
      "▁그렇지": 5288,
      "도시": 5289,
      "구에": 5290,
      "▁오로": 5291,
      "력과": 5292,
      "▁없으니": 5293,
      "까봐": 5294,
      "▁인민": 5295,
      "니티": 5296,
      "▁탈락": 5297,
      "▁공정": 5298,
      "▁분리": 5299,
      "쪽에": 5300,
      "세금": 5301,
      "▁지급": 5302,
      "▁상징": 5303,
      "나간": 5304,
      "▁본격": 5305,
      "▁어울": 5306,
      "▁비례": 5307,
      "▁한국은": 5308,
      "▁어느정도": 5309,
      "으려": 5310,
      "▁바랍": 5311,
      "▁도움이": 5312,
      "하고있": 5313,
      "▁선정": 5314,
      "▁무능한": 5315,
      "거리는": 5316,
      "▁올랐": 5317,
      "로드": 5318,
      "된다": 5319,
      "▁듯.\n": 5320,
      "여행": 5321,
      "▁파악": 5322,
      "▁이민": 5323,
      "▁들어오": 5324,
      "산을": 5325,
      "소리를": 5326,
      "▁듯.": 5327,
      "짜리": 5328,
      "치지": 5329,
      "▁스크": 5330,
      "조를": 5331,
      "원,": 5332,
      "▁그렇다고": 5333,
      "▁고등학교": 5334,
      "영업": 5335,
      "어,": 5336,
      "트\n": 5337,
      "▁불편": 5338,
      "▁밝히": 5339,
      "▁킬": 5340,
      "▁도전": 5341,
      "▁마음을": 5342,
      "▁기동": 5343,
      "▁집권": 5344,
      "사이": 5345,
      "▁부대": 5346,
      "(A": 5347,
      "르의": 5348,
      "리티": 5349,
      "▁스위": 5350,
      "▁장소": 5351,
      "▁묵": 5352,
      "버려": 5353,
      "승을": 5354,
      "▁고소": 5355,
      "체의": 5356,
      "르기": 5357,
      "▁아름": 5358,
      "조의": 5359,
      "습니다\n": 5360,
      "구는": 5361,
      "ct": 5362,
      "▁이들은": 5363,
      "대전": 5364,
      "요일": 5365,
      "드에": 5366,
      "▁걸어": 5367,
      "서가": 5368,
      "▁파이": 5369,
      "▁큐": 5370,
      "▁정식": 5371,
      "▁영입": 5372,
      "▁멜": 5373,
      "▁픽": 5374,
      "ue": 5375,
      "▁말한다.": 5376,
      "▁감정": 5377,
      "▁손해": 5378,
      "▁나와서": 5379,
      "도\n": 5380,
      "▁일부러": 5381,
      "▁가득": 5382,
      "▁아시": 5383,
      "고\n": 5384,
      "▁Q": 5385,
      "ist": 5386,
      "▁미안": 5387,
      "▁취소": 5388,
      "술을": 5389,
      "▁그야말로": 5390,
      "당을": 5391,
      "▁짜증": 5392,
      "▁다운": 5393,
      "검찰": 5394,
      "▁테러": 5395,
      "▁후,": 5396,
      "▁그에": 5397,
      "▁늘어": 5398,
      "석은": 5399,
      "▁기부": 5400,
      "시절": 5401,
      "16": 5402,
      "호는": 5403,
      "▁끝내": 5404,
      "▁일러": 5405,
      "갔다.": 5406,
      "▁헌법": 5407,
      "되며": 5408,
      "iz": 5409,
      "로그": 5410,
      "▁들은": 5411,
      "▁전차": 5412,
      "했기": 5413,
      "▁따른": 5414,
      "▁그려": 5415,
      "▁증명": 5416,
      "▁사실이": 5417,
      "if": 5418,
      "▁(199": 5419,
      "▁대해서는": 5420,
      "▁나누": 5421,
      "▁빨아": 5422,
      "▁의한": 5423,
      "▁가깝": 5424,
      "드립": 5425,
      "▁찍어": 5426,
      "▁하드": 5427,
      "▁표시": 5428,
      "▁다름": 5429,
      "▁사기꾼": 5430,
      "▁받지": 5431,
      "▁최소한": 5432,
      "▁진정": 5433,
      "▁생겨": 5434,
      "선동": 5435,
      "▁국가대표": 5436,
      "▁최초로": 5437,
      "▁업그": 5438,
      "사랑": 5439,
      "▁동원": 5440,
      "▁중단": 5441,
      "▁할수": 5442,
      "▁힘들어": 5443,
      "▁x": 5444,
      "▁ᄒᄒ\n": 5445,
      "▁각성": 5446,
      "▁대기": 5447,
      "▁되는데": 5448,
      "리나": 5449,
      "함.": 5450,
      "에게도": 5451,
      "▁물고": 5452,
      "▁vs": 5453,
      "▁허용": 5454,
      "▁분열": 5455,
      "님의": 5456,
      "좋은": 5457,
      "왔다.": 5458,
      "것같": 5459,
      "▁모아": 5460,
      "up": 5461,
      "▁전자": 5462,
      "▁타카": 5463,
      "▁온라인": 5464,
      "▁1회": 5465,
      "조리": 5466,
      "키의": 5467,
      "▁의외로": 5468,
      "▁힘내": 5469,
      "하지말고": 5470,
      "분들": 5471,
      "▁미세먼지": 5472,
      "자들을": 5473,
      "▁죽이": 5474,
      "세의": 5475,
      "ᅲ\n": 5476,
      "에게서": 5477,
      "▁인류": 5478,
      "▁가능하다.\n": 5479,
      "▁확보": 5480,
      "2,": 5481,
      "형이": 5482,
      "지면서": 5483,
      "▁박살": 5484,
      "대한민국": 5485,
      "▁그만큼": 5486,
      "비는": 5487,
      "▁전라": 5488,
      "▁로봇": 5489,
      "▁저질": 5490,
      "▁제시": 5491,
      "▁대처": 5492,
      "사업": 5493,
      "▁하나로": 5494,
      "거라": 5495,
      "단계": 5496,
      "▁헛소리": 5497,
      "▁마무리": 5498,
      ")로": 5499,
      "▁상태로": 5500,
      "일러": 5501,
      "▁기사를": 5502,
      "AR": 5503,
      "▁다니는": 5504,
      "판에": 5505,
      "▁하는데,": 5506,
      "▁전환": 5507,
      "▁날려": 5508,
      "나요": 5509,
      ".18": 5510,
      "▁빡": 5511,
      "▁봐야": 5512,
      "▁오프": 5513,
      "▁개선": 5514,
      "▁치명": 5515,
      "▁중반": 5516,
      "이라니": 5517,
      "▁본인은": 5518,
      "▁아빠": 5519,
      "성으로": 5520,
      "▁~~": 5521,
      "▁싶어": 5522,
      "▁목소리": 5523,
      "▁일어난": 5524,
      "▁벌써": 5525,
      "죠\n": 5526,
      "▁때문.": 5527,
      "▁어째": 5528,
      "장과": 5529,
      "인다.": 5530,
      "▁중국의": 5531,
      "▁검찰이": 5532,
      "▁적당히": 5533,
      "▁봄": 5534,
      "론을": 5535,
      "▁데리고": 5536,
      "전으로": 5537,
      "▁알려져": 5538,
      "▁검색": 5539,
      "▁탓에": 5540,
      "▁다를": 5541,
      "개발": 5542,
      "의가": 5543,
      "▁보낸": 5544,
      "▁손에": 5545,
      "▁초대": 5546,
      "회사": 5547,
      "스탄": 5548,
      "▁차이": 5549,
      "일의": 5550,
      "▁전사": 5551,
      "▁그들의": 5552,
      "시\n": 5553,
      "▁해석": 5554,
      "아는": 5555,
      "▁정치적": 5556,
      "▁늘어나": 5557,
      "▁카이": 5558,
      "이닝": 5559,
      "▁아닌가?": 5560,
      "▁귀족": 5561,
      ").\n": 5562,
      "▁소년": 5563,
      "위의": 5564,
      "▁고유": 5565,
      "▁중국이": 5566,
      "드와": 5567,
      "▁악플": 5568,
      "▁북한에": 5569,
      "고도": 5570,
      "사카": 5571,
      "▁덩": 5572,
      "▁계산": 5573,
      "oo": 5574,
      "▁대결": 5575,
      "의원": 5576,
      "여자": 5577,
      "트에서": 5578,
      "▁여름": 5579,
      "▁외에도": 5580,
      "▁버그": 5581,
      "▁의하면": 5582,
      "▁있는거": 5583,
      "cm": 5584,
      "렸다.\n": 5585,
      "고가": 5586,
      "지말": 5587,
      "▁1000": 5588,
      "▁놈이": 5589,
      "▁거두": 5590,
      "ang": 5591,
      "▁도둑": 5592,
      "어리": 5593,
      "▁첨": 5594,
      "경이": 5595,
      "면서도": 5596,
      "집단": 5597,
      "▁남북": 5598,
      "▁때문이다.\n": 5599,
      "ard": 5600,
      "▁꾸준": 5601,
      "▁시행": 5602,
      "▁않았다.\n": 5603,
      "▁보조": 5604,
      "군에": 5605,
      "보자": 5606,
      "▁적절": 5607,
      "▁비싸": 5608,
      "▁그리스": 5609,
      "▁단순히": 5610,
      "▁북한이": 5611,
      "해주는": 5612,
      "▁있도록": 5613,
      "이라며": 5614,
      "▁2021년": 5615,
      "▁후쿠": 5616,
      "▁자동차": 5617,
      "세력": 5618,
      "미는": 5619,
      "쟁이": 5620,
      "너스": 5621,
      "▁턴": 5622,
      "▁좋다.\n": 5623,
      "▁장애": 5624,
      "▁구역": 5625,
      "'로": 5626,
      "▁엔진": 5627,
      "민족": 5628,
      "▁3일": 5629,
      "쩝쩝": 5630,
      "인들은": 5631,
      "▁제압": 5632,
      "▁연장": 5633,
      "▁한국에": 5634,
      "가능": 5635,
      "미의": 5636,
      "▁중심으로": 5637,
      "▁떨어지는": 5638,
      "▁특유의": 5639,
      "-\n": 5640,
      "받을": 5641,
      "▁기회": 5642,
      "었지만": 5643,
      "▁많았": 5644,
      "▁수호": 5645,
      "▁서비스": 5646,
      "▁트리": 5647,
      "▁점이": 5648,
      "▁on": 5649,
      "▁하나의": 5650,
      "▁보여주는": 5651,
      "겠다.": 5652,
      "▁In": 5653,
      "▁이승": 5654,
      "르트": 5655,
      "▁혹시": 5656,
      "▁내용은": 5657,
      "주세요": 5658,
      "시다.": 5659,
      "입니다\n": 5660,
      "▁법을": 5661,
      "▁단,": 5662,
      "▁디자": 5663,
      "▁홍보": 5664,
      "ant": 5665,
      "▁택시": 5666,
      "▁두려": 5667,
      "▁고용": 5668,
      "▁실력": 5669,
      "70": 5670,
      "▁슨": 5671,
      "레이션": 5672,
      "▁....": 5673,
      "▁도움을": 5674,
      "▁태극기": 5675,
      "▁오는": 5676,
      "(2": 5677,
      "▁경영": 5678,
      "▁SBS": 5679,
      "수\n": 5680,
      "률이": 5681,
      "▁처음부터": 5682,
      "AN": 5683,
      "▁전형": 5684,
      "▁최초의": 5685,
      "▁상황에": 5686,
      "▁나베": 5687,
      "명,": 5688,
      "▁흔들": 5689,
      ")와": 5690,
      "▁하다가": 5691,
      "▁듯한": 5692,
      "광역시": 5693,
      "장님": 5694,
      "▁민간": 5695,
      "▁몸을": 5696,
      "▁{{{#!wiki": 5697,
      "▁레드": 5698,
      "▁등록": 5699,
      "품을": 5700,
      "▁등장한다.": 5701,
      "▁옵션": 5702,
      "네요.\n": 5703,
      "당하고": 5704,
      "▁둘이": 5705,
      "▁빨갱": 5706,
      "▁진입": 5707,
      "▁멀리": 5708,
      "진국": 5709,
      "99": 5710,
      "▁인증": 5711,
      "▁생각하고": 5712,
      "▁기획": 5713,
      "북도": 5714,
      "ate": 5715,
      "▁컬": 5716,
      "▁확장": 5717,
      "▁2,": 5718,
      "▁야마": 5719,
      "▁대표적인": 5720,
      "로우": 5721,
      "▁35": 5722,
      "▁연재": 5723,
      "는데도": 5724,
      "▁짓을": 5725,
      "보기": 5726,
      "크의": 5727,
      "▁집에서": 5728,
      "▁곳에": 5729,
      "수,": 5730,
      "인도": 5731,
      "▁떨어져": 5732,
      "▁없지만": 5733,
      "▁기존의": 5734,
      "▁스코": 5735,
      "▁부분이": 5736,
      "만은": 5737,
      "▁이득": 5738,
      "▁이시": 5739,
      "잖아.": 5740,
      "▁뒤로": 5741,
      "규모": 5742,
      "▁가라": 5743,
      "ON": 5744,
      "▁회피": 5745,
      "초등학교": 5746,
      "있고": 5747,
      "ep": 5748,
      "▁무사": 5749,
      "등을": 5750,
      "무라": 5751,
      "▁더블": 5752,
      "▁하며,": 5753,
      "화에": 5754,
      "▁세금으로": 5755,
      "▁2002년": 5756,
      "▁이놈": 5757,
      "관리": 5758,
      "▁눈을": 5759,
      "드\n": 5760,
      "▁남한": 5761,
      "▁그러니까": 5762,
      "▁살려": 5763,
      "▁)\n": 5764,
      "48": 5765,
      "▁느그": 5766,
      "▁정보를": 5767,
      "▁생성": 5768,
      "▁분야": 5769,
      "▁한국에서": 5770,
      "▁즈": 5771,
      "▁혼란": 5772,
      "▁차례": 5773,
      "▁장면이": 5774,
      "▁미쳤": 5775,
      "▁청문회": 5776,
      "▁있는지": 5777,
      "▁위선": 5778,
      "해준": 5779,
      "▁실시": 5780,
      "▁소득": 5781,
      "하의": 5782,
      "▁시리즈의": 5783,
      "▁히어로": 5784,
      "스에서": 5785,
      "투표": 5786,
      "▁있습니다.": 5787,
      "▁바탕": 5788,
      "안에": 5789,
      "▁아니지만": 5790,
      "나도": 5791,
      "▁서버": 5792,
      "가?\n": 5793,
      "▁났": 5794,
      "▁걸려": 5795,
      "이지만,": 5796,
      "▁닌": 5797,
      "▁최대한": 5798,
      "▁라디오": 5799,
      "▁먹을": 5800,
      "카가": 5801,
      "%,": 5802,
      "IN": 5803,
      "▁비리": 5804,
      "▁?\n": 5805,
      "이었다.\n": 5806,
      "물로": 5807,
      "용을": 5808,
      "▁고속": 5809,
      "▁절반": 5810,
      "▁거래": 5811,
      "▁죽는": 5812,
      "▁이성": 5813,
      "▁인간들이": 5814,
      "무시": 5815,
      "▁극우": 5816,
      "▁되면서": 5817,
      "▁냄새": 5818,
      "했지만,": 5819,
      "▁차별": 5820,
      "▁마련": 5821,
      "▁지지하는": 5822,
      "▁오지": 5823,
      "▁불매운동": 5824,
      "▁2번": 5825,
      "크가": 5826,
      "▁홈런": 5827,
      "▁장갑": 5828,
      "▁주연": 5829,
      "▁일자리": 5830,
      "트라": 5831,
      "▁란": 5832,
      "▁바란": 5833,
      "▁한반": 5834,
      "식의": 5835,
      "▁리얼": 5836,
      "▁등급": 5837,
      "▁활동을": 5838,
      "▁마사": 5839,
      "▁투기": 5840,
      "'이라는": 5841,
      "▁끔": 5842,
      "하더니": 5843,
      "▁2003년": 5844,
      "▁행사": 5845,
      "▁몰려": 5846,
      "▁걸로": 5847,
      "▁의도": 5848,
      "▁한국이": 5849,
      "▁병원": 5850,
      "▁이후에": 5851,
      "▁문죄인": 5852,
      "▁사람들을": 5853,
      "▁공급": 5854,
      "▁오후": 5855,
      "▁괴롭": 5856,
      "요..": 5857,
      "▁일러스트": 5858,
      "▁속도": 5859,
      "왕의": 5860,
      "▁3.": 5861,
      "▁후속": 5862,
      "▁나오고": 5863,
      "▁재료": 5864,
      "트롤": 5865,
      "▁멸망": 5866,
      "ss": 5867,
      "시설": 5868,
      "사실": 5869,
      "▁길을": 5870,
      "▁잠깐": 5871,
      "▁ᄃ": 5872,
      "▁적어도": 5873,
      "인민": 5874,
      "▁꺼져": 5875,
      "▁내에서": 5876,
      "▁수밖에": 5877,
      "상황": 5878,
      "코의": 5879,
      "▁진영": 5880,
      "▁패치": 5881,
      "▁오리지": 5882,
      "▁눈이": 5883,
      "식은": 5884,
      "ers": 5885,
      "한것": 5886,
      "ith": 5887,
      "▁나오면": 5888,
      "스(": 5889,
      "▁기분": 5890,
      "일로": 5891,
      "▁붙여": 5892,
      "▁명의": 5893,
      "▁지금의": 5894,
      "▁글로": 5895,
      "▁부르는": 5896,
      "▁주도": 5897,
      "▁오리": 5898,
      "느냐": 5899,
      "▁가해": 5900,
      "▁무서운": 5901,
      "▁신문": 5902,
      "▁되는거": 5903,
      "▁압박": 5904,
      "국을": 5905,
      "▁마라": 5906,
      "og": 5907,
      "까지도": 5908,
      "과학": 5909,
      ":1": 5910,
      "▁모습으로": 5911,
      "북한": 5912,
      "법이": 5913,
      "받았": 5914,
      "▁프로듀": 5915,
      "▁피해자": 5916,
      "판을": 5917,
      "▁요리": 5918,
      "나를": 5919,
      "하길": 5920,
      "▁작성": 5921,
      "ew": 5922,
      "▁마르": 5923,
      "▁당신은": 5924,
      "math": 5925,
      "시,": 5926,
      "목을": 5927,
      "▁포함한": 5928,
      "▁개봉": 5929,
      "상에서": 5930,
      "▁르": 5931,
      "수수": 5932,
      "이므로": 5933,
      "▁이전에": 5934,
      "▁이것은": 5935,
      "▁보였": 5936,
      "▁봐라": 5937,
      "트와": 5938,
      "▁부끄럽": 5939,
      "▁포르": 5940,
      "어?": 5941,
      "▁칭찬": 5942,
      "▁겹": 5943,
      "▁수준의": 5944,
      "▁성우는": 5945,
      "'가": 5946,
      "▁추진": 5947,
      "▁체포": 5948,
      "▁답이": 5949,
      "▁형성": 5950,
      "▁유도": 5951,
      "▁최저임금": 5952,
      "▁거대한": 5953,
      "▁되겠": 5954,
      "▁판사": 5955,
      "▁옆에": 5956,
      "▁5년": 5957,
      "▁위로": 5958,
      "▁받아들": 5959,
      "▁인간의": 5960,
      "아라": 5961,
      "▁구입": 5962,
      "씨는": 5963,
      "공항": 5964,
      "▁시작했다.": 5965,
      "▁이란": 5966,
      "▁공항": 5967,
      "▁젤": 5968,
      "▁댄": 5969,
      "▁다만,": 5970,
      "시다\n": 5971,
      "▁실망": 5972,
      "마리": 5973,
      "▁무대": 5974,
      "▁모두가": 5975,
      "거다": 5976,
      "▁안철": 5977,
      "패를": 5978,
      "쓰레기": 5979,
      "짓을": 5980,
      "유가": 5981,
      "▁시위": 5982,
      "▁하야": 5983,
      "▁님": 5984,
      "▁행동을": 5985,
      "▁지하철": 5986,
      "거리가": 5987,
      "▁아무런": 5988,
      "▁주사파": 5989,
      "▁평범한": 5990,
      "했는지": 5991,
      "▁미군": 5992,
      "▁자국민": 5993,
      "▁육군": 5994,
      "▁지능": 5995,
      "▁논란이": 5996,
      "▁190": 5997,
      "▁인상": 5998,
      "▁김대": 5999,
      "▁통계": 6000,
      "▁난이": 6001,
      "▁됩": 6002,
      "호의": 6003,
      "니\n": 6004,
      "다(...)": 6005,
      "▁정도.": 6006,
      "라이더": 6007,
      "▁바이러스": 6008,
      "▁개가": 6009,
      "미디": 6010,
      "▁건축": 6011,
      "진핑": 6012,
      "▁걸린": 6013,
      "▁편집": 6014,
      "▁드루": 6015,
      "▁미드": 6016,
      "▁식민": 6017,
      "▁네가": 6018,
      "▁감안": 6019,
      "ground": 6020,
      "마의": 6021,
      "역으로": 6022,
      "들이나": 6023,
      "▁오토": 6024,
      "▁나이트": 6025,
      "▁챙겨": 6026,
      "지마라": 6027,
      "거다.": 6028,
      "▁만드": 6029,
      "▁춤": 6030,
      "▁일반적인": 6031,
      "▁게이": 6032,
      "▁거쳐": 6033,
      "▁서울대": 6034,
      "나면": 6035,
      "▁후손": 6036,
      "카드": 6037,
      "▁2일": 6038,
      "▁아오": 6039,
      "▁뭐라": 6040,
      "▁되고,": 6041,
      "▁고마": 6042,
      "▁알겠": 6043,
      "가,": 6044,
      "▁자신은": 6045,
      "역이": 6046,
      "▁뿐만": 6047,
      "▁덴": 6048,
      "▁주문": 6049,
      "▁찬성": 6050,
      "▁다녀": 6051,
      "▁찰": 6052,
      "▁딱히": 6053,
      "▁나라의": 6054,
      "▁짧은": 6055,
      "ive": 6056,
      "ast": 6057,
      "방이": 6058,
      "▁공작": 6059,
      "▁성적": 6060,
      "▁되기": 6061,
      "타는": 6062,
      "하는지": 6063,
      "2\n": 6064,
      "터를": 6065,
      "▁사건이": 6066,
      "%\n": 6067,
      "▁바른": 6068,
      "▁-1": 6069,
      "▁카드를": 6070,
      "▁ᄅ": 6071,
      "▁닫": 6072,
      "▁끄": 6073,
      "▁You": 6074,
      "▁치매": 6075,
      "▁된다는": 6076,
      "▁눈물": 6077,
      "▁뉴욕": 6078,
      "들,": 6079,
      "수에": 6080,
      "▁시나리오": 6081,
      "골을": 6082,
      "▁일도": 6083,
      "▁렌": 6084,
      "▁엄청나게": 6085,
      "없다.": 6086,
      "없어": 6087,
      "▁어리": 6088,
      "▁특성상": 6089,
      "▁방사능": 6090,
      "▁드립": 6091,
      "▁심각한": 6092,
      "▁들어서": 6093,
      "▁적의": 6094,
      "는건": 6095,
      "독재": 6096,
      "▁한다\n": 6097,
      "발이": 6098,
      "0000": 6099,
      "▁상대가": 6100,
      "중학교": 6101,
      "차로": 6102,
      "▁정부의": 6103,
      "▁요소": 6104,
      "▁32": 6105,
      "▁대로": 6106,
      "▁화장": 6107,
      "▁2개": 6108,
      "아리": 6109,
      "▁벗어나": 6110,
      "▁재앙이": 6111,
      "시브": 6112,
      "▁공략": 6113,
      "하에": 6114,
      "▁마침": 6115,
      "▁마리": 6116,
      "▁문재앙이": 6117,
      "그리": 6118,
      "▁없고,": 6119,
      "통이": 6120,
      "▁자본": 6121,
      "▁내용을": 6122,
      "▁솔로": 6123,
      "진의": 6124,
      "▁있네": 6125,
      "▁나왔다.": 6126,
      "▁체력이": 6127,
      "▁세워": 6128,
      "산이": 6129,
      "구리": 6130,
      "되었고": 6131,
      "▁운용": 6132,
      "▁대단한": 6133,
      "리자": 6134,
      "▁태어났": 6135,
      "▁이용한": 6136,
      "▁거절": 6137,
      "▁죽인": 6138,
      "ip": 6139,
      "ackground": 6140,
      "선에": 6141,
      "13": 6142,
      "벌레": 6143,
      "▁대한민국을": 6144,
      "▁힌": 6145,
      "구\n": 6146,
      ".7": 6147,
      "▁핀": 6148,
      "▁사쿠": 6149,
      "가와": 6150,
      "바닥": 6151,
      "▁성향": 6152,
      "세로": 6153,
      "▁폭탄": 6154,
      "▁전개": 6155,
      "사람들": 6156,
      "그런": 6157,
      "▁1번": 6158,
      "언을": 6159,
      "▁)는": 6160,
      "▁승리를": 6161,
      "팔이": 6162,
      "▁설득": 6163,
      "▁가입": 6164,
      "▁패러": 6165,
      "▁저거": 6166,
      "▁자영업": 6167,
      "레인": 6168,
      "마를": 6169,
      "▁꽤나": 6170,
      "이지.": 6171,
      "검사": 6172,
      "▁줬": 6173,
      "▁오스트": 6174,
      "▁어른": 6175,
      "▁들어가는": 6176,
      "으로도": 6177,
      "미애": 6178,
      "주지": 6179,
      "▁실질": 6180,
      "▁세상이": 6181,
      "▁쉬운": 6182,
      "▁기술을": 6183,
      "▁PC": 6184,
      "▁이것도": 6185,
      "▁만들어진": 6186,
      "▁한명": 6187,
      "▁통제": 6188,
      "▁마음이": 6189,
      "▁탄생": 6190,
      "▁만족": 6191,
      "▁저게": 6192,
      "되었으며,": 6193,
      "(T": 6194,
      "▁빨간": 6195,
      "▁했으나": 6196,
      "▁저격": 6197,
      "인듯": 6198,
      "▁for": 6199,
      "▁세상에": 6200,
      "▁집어": 6201,
      "피아": 6202,
      "▁협력": 6203,
      ")과": 6204,
      "▁선보": 6205,
      "하신": 6206,
      "▁스펙": 6207,
      "▁노인": 6208,
      "단은": 6209,
      ".4": 6210,
      "시티": 6211,
      "▁신청": 6212,
      "▁커뮤": 6213,
      "▁자존": 6214,
      "▁미쳐": 6215,
      "▁갤러": 6216,
      "▁넣어": 6217,
      "ove": 6218,
      "▁시원": 6219,
      "▁필수": 6220,
      "▁릴": 6221,
      "산업": 6222,
      "****": 6223,
      "해졌": 6224,
      "▁나라는": 6225,
      "인가?\n": 6226,
      "▁채용": 6227,
      "▁데이": 6228,
      "▁중화": 6229,
      "▁없게": 6230,
      "▁연주": 6231,
      "곳에": 6232,
      "시켜야": 6233,
      "▁이혼": 6234,
      "하는것": 6235,
      "▁화가": 6236,
      "▁설계": 6237,
      "▁죠": 6238,
      "▁동의": 6239,
      "신은": 6240,
      "공을": 6241,
      "▁글을": 6242,
      "▁직전": 6243,
      "▁어떻게든": 6244,
      "▁여자가": 6245,
      "17": 6246,
      "▁혜택": 6247,
      "▁하네": 6248,
      "타임": 6249,
      "▁편.": 6250,
      "▁황제": 6251,
      "▁카페": 6252,
      "▁이번에": 6253,
      "▁종합": 6254,
      "▁플래": 6255,
      "▁공통": 6256,
      "▁점은": 6257,
      "▁사격": 6258,
      "▁45": 6259,
      "동,": 6260,
      "우를": 6261,
      "▁캐나다": 6262,
      "기지": 6263,
      "▁합의": 6264,
      "▁착용": 6265,
      "중한": 6266,
      "▁존경": 6267,
      "▁이미지": 6268,
      "▁서술": 6269,
      "나무": 6270,
      "▁표창": 6271,
      "▁점에서": 6272,
      "화는": 6273,
      "▁마약": 6274,
      "▁몰래": 6275,
      "▁김정": 6276,
      "병을": 6277,
      "▁ᄒ": 6278,
      "tp": 6279,
      "▁자리에": 6280,
      "보수": 6281,
      "▁수치": 6282,
      "ub": 6283,
      "▁박원": 6284,
      "▁연락": 6285,
      "est": 6286,
      "▁해야지": 6287,
      "▁한테": 6288,
      "▁하나가": 6289,
      "▁속에": 6290,
      "래프트": 6291,
      "하기로": 6292,
      "해가": 6293,
      "내가": 6294,
      "던지": 6295,
      "▁믿을": 6296,
      "▁붕괴": 6297,
      "한번": 6298,
      "르가": 6299,
      "▁팀이": 6300,
      "대회": 6301,
      "방의": 6302,
      "▁있으나": 6303,
      "▁대통령은": 6304,
      "▁것들": 6305,
      "▁브랜드": 6306,
      "▁속에서": 6307,
      "주기": 6308,
      "▁광화문": 6309,
      "성,": 6310,
      "▁짱개": 6311,
      "서관": 6312,
      "민이": 6313,
      "(201": 6314,
      "싶은": 6315,
      "▁말할": 6316,
      "하므로": 6317,
      "라와": 6318,
      "▁있음": 6319,
      "▁했을": 6320,
      "▁문제로": 6321,
      "주시": 6322,
      "공개": 6323,
      "실이": 6324,
      "했다가": 6325,
      "▁많아서": 6326,
      "사태": 6327,
      "다는게": 6328,
      "▁j": 6329,
      "▁이딴": 6330,
      "ity": 6331,
      "▁15일": 6332,
      "점에": 6333,
      "▁な": 6334,
      "▁제조": 6335,
      "▁머리를": 6336,
      "속에": 6337,
      "치면": 6338,
      "▁화염": 6339,
      "▁작품\n": 6340,
      "▁아들이": 6341,
      "루가": 6342,
      "(?)": 6343,
      "▁점프": 6344,
      "▁단독": 6345,
      "▁업무": 6346,
      "▁있나": 6347,
      "▁탑재": 6348,
      "▁비교적": 6349,
      "▁자녀": 6350,
      "대,": 6351,
      "▁잉글": 6352,
      "점에서": 6353,
      "▁우리의": 6354,
      "▁모티브": 6355,
      "▁!\n": 6356,
      "14": 6357,
      "▁유래": 6358,
      "1,": 6359,
      "▁스카": 6360,
      "PC": 6361,
      "년이": 6362,
      "▁쓰면": 6363,
      "▁프레임": 6364,
      "▁에휴": 6365,
      "▁주식": 6366,
      "▁조각": 6367,
      "▁자빠졌": 6368,
      ".25": 6369,
      "비에": 6370,
      "▁높다.": 6371,
      "▁이나": 6372,
      "금이": 6373,
      "하였고": 6374,
      "▁청원": 6375,
      "▁대한민국이": 6376,
      "▁나아": 6377,
      "▁구축": 6378,
      "자마자": 6379,
      "▁당한": 6380,
      "▁혐오": 6381,
      "사기": 6382,
      "▁조중": 6383,
      "▁겨울": 6384,
      "있어": 6385,
      "터가": 6386,
      "조국": 6387,
      "▁공유": 6388,
      "▁내용이": 6389,
      "!\"": 6390,
      "▁좋다고": 6391,
      "▁모조리": 6392,
      "▁기초": 6393,
      "▁추가로": 6394,
      "그리고": 6395,
      "선은": 6396,
      "▁충청": 6397,
      "▁놔": 6398,
      "▁개입": 6399,
      "▁며": 6400,
      "▁받게": 6401,
      "▁와중에": 6402,
      "▁\\": 6403,
      "만도": 6404,
      "▁1개": 6405,
      "버린다.": 6406,
      "▁변호사": 6407,
      "▁쓰지": 6408,
      "▁없기": 6409,
      "▁게시": 6410,
      "ry": 6411,
      "▁위안부": 6412,
      "▁치는": 6413,
      "다는데": 6414,
      "드,": 6415,
      "계에": 6416,
      "▁10일": 6417,
      "▁거기서": 6418,
      "빨갱이": 6419,
      "▁건너": 6420,
      "▁오리지널": 6421,
      "▁달러": 6422,
      "▁공공": 6423,
      "발을": 6424,
      "세는": 6425,
      "세요.\n": 6426,
      "쓰는": 6427,
      "▁정체": 6428,
      "▁비하면": 6429,
      "▁래": 6430,
      "직을": 6431,
      "그냥": 6432,
      "▁울산": 6433,
      "▁3px;": 6434,
      "▁해군": 6435,
      "▁5일": 6436,
      "▁분석": 6437,
      "임에도": 6438,
      "▁진중": 6439,
      "ong": 6440,
      "▁모험": 6441,
      "~3": 6442,
      "무기": 6443,
      "아웃": 6444,
      "▁측면": 6445,
      "▁애들이": 6446,
      "고속": 6447,
      "▁시작한": 6448,
      "다면,": 6449,
      "▁여당": 6450,
      "▁아니었": 6451,
      "영상": 6452,
      "우의": 6453,
      "▁한글": 6454,
      "▁때부터": 6455,
      "▁머리가": 6456,
      "▁똑바로": 6457,
      "공화국": 6458,
      "됐다.": 6459,
      "▁믿는": 6460,
      "▁5.18": 6461,
      "▁내고": 6462,
      "▁강조": 6463,
      "▁비디오": 6464,
      "▁사전": 6465,
      "▁진화": 6466,
      "▁re": 6467,
      "등급": 6468,
      "▁1인": 6469,
      "소리가": 6470,
      "▁이래서": 6471,
      "▁투수": 6472,
      "▁된다고": 6473,
      "▁인기가": 6474,
      "소녀": 6475,
      "▁위원": 6476,
      "▁어떠": 6477,
      "해를": 6478,
      "▁Th": 6479,
      "▁올라가": 6480,
      "▁내놓": 6481,
      "▁사이비": 6482,
      "▁못했다.": 6483,
      "▁객": 6484,
      "▁완료": 6485,
      "▁파이어": 6486,
      "▁넘는": 6487,
      "▁탁": 6488,
      "효과": 6489,
      "▁요시": 6490,
      "▁타이밍": 6491,
      "▁고맙": 6492,
      "즈가": 6493,
      "이던": 6494,
      "ex": 6495,
      "e,": 6496,
      "▁민주화": 6497,
      "▁철수": 6498,
      "▁욕을": 6499,
      "메달": 6500,
      "▁왜구": 6501,
      "▁하지말고": 6502,
      "▁정확히": 6503,
      "▁향해": 6504,
      "▁2001년": 6505,
      "▁병사": 6506,
      "▁낼": 6507,
      "▁절대로": 6508,
      "▁반영": 6509,
      "▁의미가": 6510,
      "▁에라이": 6511,
      "연합": 6512,
      "▁작전": 6513,
      "▁뽑은": 6514,
      "간다": 6515,
      "줌마": 6516,
      "▁마녀": 6517,
      "만명": 6518,
      "▁알렉": 6519,
      "▁드디어": 6520,
      "▁좌좀": 6521,
      "▁입은": 6522,
      "▁텐": 6523,
      "▁나의": 6524,
      "▁스케": 6525,
      "II": 6526,
      "▁많은데": 6527,
      "▁죽일": 6528,
      "▁장사": 6529,
      "바라": 6530,
      "▁사이에서": 6531,
      "▁무식한": 6532,
      "▁스마트": 6533,
      "▁이론": 6534,
      "▁반도": 6535,
      "▁맞지": 6536,
      "▁멍청한": 6537,
      "▁그것이": 6538,
      "가.": 6539,
      "▁당연한": 6540,
      "▁미통": 6541,
      "▁그레이": 6542,
      "트,": 6543,
      "▁불리는": 6544,
      "클로": 6545,
      "▁괜히": 6546,
      "▁초반에": 6547,
      "▁중국은": 6548,
      "버렸다.": 6549,
      "학의": 6550,
      "play": 6551,
      "▁개의": 6552,
      "▁만난": 6553,
      "▁오픈": 6554,
      "90": 6555,
      "▁정도는": 6556,
      "com": 6557,
      "▁견제": 6558,
      "▁끌려": 6559,
      "▁취업": 6560,
      "아,": 6561,
      "▁기생충": 6562,
      "▁의무": 6563,
      "▁하였다.\n": 6564,
      "▁그것을": 6565,
      "▁꾸준히": 6566,
      "▁된다": 6567,
      "되는데": 6568,
      "▁여러분": 6569,
      "AT": 6570,
      "으론": 6571,
      "▁데미지를": 6572,
      "▁애매": 6573,
      "ain": 6574,
      "▁모를": 6575,
      "▁요새": 6576,
      "▁정권이": 6577,
      "▁전달": 6578,
      "▁지내": 6579,
      "코가": 6580,
      "오가": 6581,
      "다니는": 6582,
      "▁유전": 6583,
      "▁결론": 6584,
      "▁현재의": 6585,
      "ort": 6586,
      "부에서": 6587,
      "다보니": 6588,
      "▁미개": 6589,
      "▁몰라도": 6590,
      "▁평가를": 6591,
      "▁민주당이": 6592,
      "▁개편": 6593,
      "계로": 6594,
      "▁레전": 6595,
      "▁남녀": 6596,
      "▁철저히": 6597,
      "▁없다\n": 6598,
      "▁목적": 6599,
      "▁고향": 6600,
      "▁손가락": 6601,
      "100": 6602,
      "▁둘다": 6603,
      "지니": 6604,
      "▁고위": 6605,
      "▁차단": 6606,
      "▁사실은": 6607,
      "▁끝났": 6608,
      "▁지명": 6609,
      "▁숨겨": 6610,
      "▁효율": 6611,
      "▁정말로": 6612,
      "▁어휴": 6613,
      "포를": 6614,
      "▁일본을": 6615,
      "줘서": 6616,
      "▁컨트롤": 6617,
      "▁태어나": 6618,
      "▁이들이": 6619,
      "사관": 6620,
      "▁받아야": 6621,
      "▁스페인": 6622,
      "▁하는짓": 6623,
      "▁타임": 6624,
      "때도": 6625,
      "저리": 6626,
      "히고": 6627,
      "▁춘": 6628,
      "▁영원히": 6629,
      "▁성폭": 6630,
      "▁달고": 6631,
      "▁서브": 6632,
      "▁없음": 6633,
      "▁이스": 6634,
      "▁이들": 6635,
      "▁의식": 6636,
      "교회": 6637,
      "토가": 6638,
      "▁빠진": 6639,
      "▁아깝": 6640,
      "▁만에": 6641,
      "▁성과": 6642,
      "▁지니": 6643,
      "▁흡수": 6644,
      "▁신기": 6645,
      "▁않지만": 6646,
      "▁r": 6647,
      "adi": 6648,
      "▁임무": 6649,
      "누리": 6650,
      "▁버리고": 6651,
      "▁무지": 6652,
      "▁무료": 6653,
      "▁오직": 6654,
      ".6": 6655,
      "▁황금": 6656,
      "▁법무부장관": 6657,
      "마이": 6658,
      "▁손혜": 6659,
      "▁약한": 6660,
      "▁실행": 6661,
      "▁기어": 6662,
      "▁30일": 6663,
      "▁페르": 6664,
      "▁No": 6665,
      "▁파트": 6666,
      "▁김성": 6667,
      "아.": 6668,
      "▁아우": 6669,
      "▁벌레": 6670,
      "▁았": 6671,
      "▁때의": 6672,
      "▁너의": 6673,
      "://": 6674,
      "있게": 6675,
      "▁진실을": 6676,
      "▁사용한": 6677,
      "▁있다\n": 6678,
      "하네.": 6679,
      "제품": 6680,
      "으라고": 6681,
      "▁괴물": 6682,
      "세이": 6683,
      "▁원정": 6684,
      "▁지닌": 6685,
      "▁보급": 6686,
      "▁한거": 6687,
      "▁올린": 6688,
      "▁수용": 6689,
      "▁언제나": 6690,
      "▁됨": 6691,
      "▁단어": 6692,
      "▁시진핑": 6693,
      "▁이야기가": 6694,
      "것이다.": 6695,
      "ᄍᄍ\n": 6696,
      "▁돌아오": 6697,
      "▁세상을": 6698,
      "어요.": 6699,
      "▁개조": 6700,
      "병이": 6701,
      "▁위에서": 6702,
      "▁ᄌᄅ": 6703,
      "다이": 6704,
      "하자.": 6705,
      "▁처음에는": 6706,
      "▁가로": 6707,
      "▁추종": 6708,
      "▁브레이": 6709,
      "▁소리가": 6710,
      "있는데": 6711,
      "▁이슈": 6712,
      "▁내내": 6713,
      "▁속성": 6714,
      "▁거대": 6715,
      "▁은근": 6716,
      "▁민노총": 6717,
      "▁경제가": 6718,
      "항공": 6719,
      "연이": 6720,
      "께서": 6721,
      "하지마": 6722,
      "▁주제에": 6723,
      "▁우리도": 6724,
      "교통": 6725,
      "▁흔히": 6726,
      "▁감싸": 6727,
      "▁it": 6728,
      "▁웃기": 6729,
      "▁끌고": 6730,
      "에겐": 6731,
      "▁있어도": 6732,
      "▁책임을": 6733,
      "▁그다": 6734,
      "▁베네": 6735,
      "▁국가가": 6736,
      "스킬": 6737,
      "리트": 6738,
      "▁학살": 6739,
      "▁코너": 6740,
      "\"는": 6741,
      "키를": 6742,
      "▁조정": 6743,
      "리도": 6744,
      "▁상대를": 6745,
      "에,": 6746,
      "▁은행": 6747,
      "▁알려진": 6748,
      "▁사령": 6749,
      "▁필살": 6750,
      "▁518": 6751,
      "▁쪽팔": 6752,
      "▁막말": 6753,
      "▁아무래도": 6754,
      "네가": 6755,
      "▁잡을": 6756,
      "▁반란": 6757,
      "자유": 6758,
      "'이": 6759,
      "하라는": 6760,
      "▁기도": 6761,
      "하여,": 6762,
      "권의": 6763,
      "PS": 6764,
      "▁꿀": 6765,
      "▁역겹": 6766,
      "▁장악": 6767,
      "▁제기": 6768,
      "▁균": 6769,
      "자식": 6770,
      "카의": 6771,
      "거운": 6772,
      "▁갈아": 6773,
      "량은": 6774,
      "▁추락": 6775,
      "▁하위": 6776,
      "제한": 6777,
      "하지는": 6778,
      "▁한국어": 6779,
      "하셨": 6780,
      "철도": 6781,
      "▁모여": 6782,
      "▁폭망": 6783,
      "▁출신\n": 6784,
      "진은": 6785,
      "친구": 6786,
      "▁조국은": 6787,
      "▁당하고": 6788,
      "▁50%": 6789,
      "동에": 6790,
      "▁언젠": 6791,
      "▁올해": 6792,
      "폐렴": 6793,
      "스포": 6794,
      "▁사항": 6795,
      "ust": 6796,
      "소에": 6797,
      "▁뮤직": 6798,
      "량의": 6799,
      "▁일본에서": 6800,
      "▁캐릭터가": 6801,
      "▁20일": 6802,
      "치에": 6803,
      "isplay": 6804,
      "ld": 6805,
      "▁앉아": 6806,
      "리면서": 6807,
      "▁2018": 6808,
      "같은데": 6809,
      ".8": 6810,
      "▁그녀는": 6811,
      "▁언어": 6812,
      "▁우린": 6813,
      "가야": 6814,
      "▁막을": 6815,
      "▁마인": 6816,
      "지사": 6817,
      "판이": 6818,
      "▁안돼": 6819,
      "▁당황": 6820,
      "▁갖다": 6821,
      "체로": 6822,
      "▁보컬": 6823,
      "▁목숨을": 6824,
      "▁젠": 6825,
      "국은": 6826,
      "▁사건을": 6827,
      "비의": 6828,
      "실을": 6829,
      "되었던": 6830,
      "▁전술": 6831,
      "토리": 6832,
      "장도": 6833,
      "화에서는": 6834,
      "▁4일": 6835,
      "▁비록": 6836,
      "▁돌아온": 6837,
      "▁천안": 6838,
      "▁잉글랜드": 6839,
      "~2": 6840,
      "▁쥬": 6841,
      "▁비싼": 6842,
      "▁나라에서": 6843,
      "권에": 6844,
      "▁도덕": 6845,
      "▁형태로": 6846,
      "차는": 6847,
      "▁그들은": 6848,
      "▁출발": 6849,
      "수와": 6850,
      "(K": 6851,
      "▁드라이": 6852,
      "▁팀을": 6853,
      "▁비상": 6854,
      "▁발휘": 6855,
      "▁아메": 6856,
      "▁원칙": 6857,
      "▁김영": 6858,
      "하려면": 6859,
      "니?\n": 6860,
      "▁원래는": 6861,
      "▁기회를": 6862,
      "▁미국은": 6863,
      "▁웃긴": 6864,
      "▁주변에": 6865,
      "▁용서": 6866,
      "▁고작": 6867,
      "기간": 6868,
      "▁얻은": 6869,
      "▁있긴": 6870,
      "크래프트": 6871,
      "하자면": 6872,
      "▁방식으로": 6873,
      "▁즉시": 6874,
      "▁비정": 6875,
      "▁정은이": 6876,
      "▁이후에는": 6877,
      "▁한번도": 6878,
      "▁아니냐": 6879,
      "▁자유한국당": 6880,
      "▁3개": 6881,
      "▁마음에": 6882,
      "마을": 6883,
      "▁20대": 6884,
      "▁자신에게": 6885,
      "▁연애": 6886,
      "가에": 6887,
      "▁상대적으로": 6888,
      "▁언제까지": 6889,
      "▁생물": 6890,
      "▁승강": 6891,
      "▁그래야": 6892,
      "▁김일": 6893,
      "애들": 6894,
      "지컬": 6895,
      "▁Sh": 6896,
      "▁고등": 6897,
      "▁아스": 6898,
      "▁편이다.\n": 6899,
      "ind": 6900,
      "▁수백": 6901,
      "장한": 6902,
      "력에": 6903,
      "기나": 6904,
      "▁안내": 6905,
      "▁둘러": 6906,
      "▁참석": 6907,
      "-4": 6908,
      "ly": 6909,
      "의로": 6910,
      "▁강간": 6911,
      "▁오로지": 6912,
      "▁메르": 6913,
      "▁단식": 6914,
      "IA": 6915,
      "▁1999년": 6916,
      "▁수학": 6917,
      "▁해보": 6918,
      "▁신체": 6919,
      "▁내세": 6920,
      "▁노출": 6921,
      "우면": 6922,
      "arg": 6923,
      "▁한일": 6924,
      "을까?": 6925,
      "line": 6926,
      "▁바탕으로": 6927,
      "▁또라이": 6928,
      "안타": 6929,
      "▁만들어서": 6930,
      "▁제안": 6931,
      "해져": 6932,
      "▁전문가": 6933,
      "부모": 6934,
      "있던": 6935,
      "색이": 6936,
      "▁방법이": 6937,
      "▁죄를": 6938,
      "▁살짝": 6939,
      "▁임대": 6940,
      "▁수요": 6941,
      "▁여겨": 6942,
      "e:": 6943,
      "테니": 6944,
      "되며,": 6945,
      "▁습격": 6946,
      "▁살기": 6947,
      "▁죽이고": 6948,
      "▁쇠": 6949,
      "▁전형적인": 6950,
      "▁때가": 6951,
      "▁납치": 6952,
      "▁외모": 6953,
      "▁멀티": 6954,
      "프의": 6955,
      "▁박사": 6956,
      "화로": 6957,
      "▁생각은": 6958,
      "▁·": 6959,
      "리아의": 6960,
      "▁범위": 6961,
      "▁브라질": 6962,
      "▁이런거": 6963,
      "▁반박": 6964,
      "토를": 6965,
      "(B": 6966,
      "있다": 6967,
      "▁밀려": 6968,
      "▁코미디": 6969,
      "▁있었는데": 6970,
      "▁조지": 6971,
      "▁액션": 6972,
      "▁감시": 6973,
      "▁아사": 6974,
      "사에서": 6975,
      "▁속도가": 6976,
      "▁불렀": 6977,
      "였다고": 6978,
      "▁꺼내": 6979,
      "IC": 6980,
      "되고,": 6981,
      "▁7일": 6982,
      "웨이": 6983,
      "▁에어": 6984,
      "어날": 6985,
      "▁돈으로": 6986,
      "▁가까이": 6987,
      "▁문정부": 6988,
      "▁)은": 6989,
      "▁이러니": 6990,
      "▁4년": 6991,
      "▁똑똑": 6992,
      "▁커버": 6993,
      "▁만들었": 6994,
      "한테는": 6995,
      "주인": 6996,
      "물에": 6997,
      "▁25일": 6998,
      "▁흘러": 6999,
      "▁시각": 7000,
      "지방": 7001,
      "로\n": 7002,
      "▁서서": 7003,
      "▁잡는": 7004,
      "보가": 7005,
      "▁아야": 7006,
      "디션": 7007,
      "▁원거리": 7008,
      "미널": 7009,
      "▁스킬을": 7010,
      "▁무죄": 7011,
      "▁무력": 7012,
      "▁형제": 7013,
      "▁위반": 7014,
      "▁바르": 7015,
      "▁い": 7016,
      "간다.\n": 7017,
      "신도": 7018,
      "▁1998년": 7019,
      "였는데": 7020,
      "단으로": 7021,
      "▁33": 7022,
      "미야": 7023,
      "▁배달": 7024,
      "▁살았": 7025,
      "▁좋았": 7026,
      "▁이길": 7027,
      "되기도": 7028,
      "▁함부로": 7029,
      "▁서울특별": 7030,
      "권은": 7031,
      "▁히트": 7032,
      "타기": 7033,
      "▁고양": 7034,
      "▁중간에": 7035,
      "▁말하면": 7036,
      "▁갈수록": 7037,
      "▁28일": 7038,
      "▁위하여": 7039,
      "루스": 7040,
      "▁게임의": 7041,
      "▁오오": 7042,
      "▁일반적으로": 7043,
      "▁인기를": 7044,
      "▁3번": 7045,
      "당하는": 7046,
      "▁아니냐?": 7047,
      "중인": 7048,
      "게도": 7049,
      "▁않아서": 7050,
      "하지않": 7051,
      "▁편의": 7052,
      "ey": 7053,
      "▁발악": 7054,
      "▁질문": 7055,
      "▁하나를": 7056,
      "(3": 7057,
      "▁2019": 7058,
      "▁이겨": 7059,
      "조는": 7060,
      "▁어디까지": 7061,
      "▁갖추": 7062,
      "버릴": 7063,
      "하게도": 7064,
      "▁라이트": 7065,
      "▁FI": 7066,
      "▁방법을": 7067,
      "▁사장": 7068,
      "▁표준": 7069,
      "들에게는": 7070,
      "out": 7071,
      "대\n": 7072,
      "▁폼": 7073,
      "▁센터": 7074,
      "통합": 7075,
      "▁선배": 7076,
      "▁정상적인": 7077,
      "▁범죄자": 7078,
      "▁충돌": 7079,
      "▁에너지": 7080,
      "어준": 7081,
      "스턴": 7082,
      "▁한두": 7083,
      "▁기여": 7084,
      "▁게임이": 7085,
      "▁하긴": 7086,
      "▁조롱": 7087,
      "▁존재한다.": 7088,
      "▁감성": 7089,
      "▁보지": 7090,
      "▁문제인": 7091,
      "선에서": 7092,
      "▁유용": 7093,
      "재를": 7094,
      "해요": 7095,
      "모리": 7096,
      "이야\n": 7097,
      "은행": 7098,
      "전사": 7099,
      "라!": 7100,
      "▁짖": 7101,
      "▁통해서": 7102,
      "▁성인": 7103,
      ")으로": 7104,
      "다는거": 7105,
      "별로": 7106,
      "▁무기를": 7107,
      "▁썩은": 7108,
      "▁강요": 7109,
      "▁동일한": 7110,
      "▁쪽으로": 7111,
      "▁덕에": 7112,
      "▁또한,": 7113,
      "▁곳이": 7114,
      "▁저기": 7115,
      "▁단지": 7116,
      "▁이념": 7117,
      "▁격리": 7118,
      "▁놀라": 7119,
      "▁좋을": 7120,
      "력의": 7121,
      "(P": 7122,
      "▁중에서도": 7123,
      "즈를": 7124,
      "▁들어갔": 7125,
      "저런": 7126,
      "재가": 7127,
      "▁아쉽": 7128,
      "▁왜곡": 7129,
      "국으로": 7130,
      "서야": 7131,
      "▁나라에": 7132,
      "▁하수": 7133,
      "권에서": 7134,
      "▁광역": 7135,
      "디언": 7136,
      "냐..": 7137,
      "▁i": 7138,
      "▁예술": 7139,
      "▁세뇌": 7140,
      "▁명단": 7141,
      "명한": 7142,
      "▁그들이": 7143,
      "▁아라": 7144,
      "군.": 7145,
      "서의": 7146,
      "▁뒤에서": 7147,
      "▁개통": 7148,
      "▁계속해서": 7149,
      "▁아니라,": 7150,
      "▁is": 7151,
      "력도": 7152,
      "▁HP": 7153,
      "고는": 7154,
      "()을": 7155,
      "▁곳에서": 7156,
      "▁외에": 7157,
      "하기에": 7158,
      "▁괜찮은": 7159,
      "타의": 7160,
      "번에": 7161,
      "▁군인": 7162,
      "▁포인트": 7163,
      "해지는": 7164,
      "▁하지마": 7165,
      "▁국립": 7166,
      "▁자체를": 7167,
      "▁무시하고": 7168,
      "▁지식": 7169,
      "▁얼굴을": 7170,
      "▁몰라": 7171,
      "토의": 7172,
      "s\n": 7173,
      "▁상태가": 7174,
      "▁커뮤니티": 7175,
      "▁봉인": 7176,
      "▁트레이": 7177,
      "...이": 7178,
      "▁뒤집어": 7179,
      "이야.": 7180,
      "터리": 7181,
      "선으로": 7182,
      "▁갈등": 7183,
      "▁논문": 7184,
      "▁짐승": 7185,
      "▁미치": 7186,
      "주민": 7187,
      "▁당해": 7188,
      "▁찍은": 7189,
      "▁부상": 7190,
      "▁대충": 7191,
      "비로": 7192,
      "▁14일": 7193,
      "▁관심을": 7194,
      "▁코믹": 7195,
      "▁옮겨": 7196,
      "▁강제로": 7197,
      "▁동양": 7198,
      "종이": 7199,
      "학을": 7200,
      "▁위해서는": 7201,
      "▁극장판": 7202,
      "▁출마": 7203,
      "▁보여줬": 7204,
      "류가": 7205,
      "가로": 7206,
      "▁존재하는": 7207,
      "▁36": 7208,
      "스런": 7209,
      "▁넘겨": 7210,
      "ob": 7211,
      "서울": 7212,
      "▁고발": 7213,
      "▁해방": 7214,
      "▁이라고": 7215,
      "아도": 7216,
      "▁주어": 7217,
      "▁사회적": 7218,
      "▁집회": 7219,
      "▁마누": 7220,
      "▁부족한": 7221,
      "▁소프트": 7222,
      "▁남자가": 7223,
      "▁다리": 7224,
      "▁소멸": 7225,
      "▁통신": 7226,
      "~19": 7227,
      "▁전면": 7228,
      "▁ᅲᅲ\n": 7229,
      "린다": 7230,
      "▁\"이": 7231,
      "구먼": 7232,
      "▁방송을": 7233,
      "▁근본": 7234,
      "▁사람들의": 7235,
      "▁공짜": 7236,
      "▁했다": 7237,
      "▁삼국": 7238,
      "지나": 7239,
      "▁드루킹": 7240,
      "▁제로": 7241,
      "▁카오": 7242,
      "▁마주": 7243,
      "▁독립운동": 7244,
      "▁와이": 7245,
      "AM": 7246,
      "▁추미애": 7247,
      "▁8일": 7248,
      "▁섭": 7249,
      "오의": 7250,
      "현의": 7251,
      "▁자원": 7252,
      "봐라.": 7253,
      "▁거기다": 7254,
      "▁어제": 7255,
      "▁여러가지": 7256,
      "지자": 7257,
      "겠지.": 7258,
      "▁돌파": 7259,
      "▁이르": 7260,
      "으러": 7261,
      "▁이라": 7262,
      "▁올리는": 7263,
      "▁상품": 7264,
      "▁통한": 7265,
      "▁기체": 7266,
      "▁그런거": 7267,
      "▁연방": 7268,
      "▁상상": 7269,
      "필요": 7270,
      "▁경유": 7271,
      "에다": 7272,
      "▁마지막으로": 7273,
      "▁안나": 7274,
      "▁원전": 7275,
      "▁운운": 7276,
      "니스": 7277,
      "▁이낙": 7278,
      "▁보병": 7279,
      "▁털어": 7280,
      "▁수준으로": 7281,
      "▁영국의": 7282,
      "▁민주당은": 7283,
      "▁구멍": 7284,
      "OS": 7285,
      "▁공장": 7286,
      "▁뭐라고": 7287,
      "▁탑승": 7288,
      "▁[math": 7289,
      "▁양반": 7290,
      "▁특검": 7291,
      "화,": 7292,
      "▁많고": 7293,
      "▁던져": 7294,
      "겠다\n": 7295,
      "▁유우": 7296,
      "\",": 7297,
      "▁들을": 7298,
      "▁한참": 7299,
      "임.\n": 7300,
      "▁지역의": 7301,
      "▁본편": 7302,
      "▁고급": 7303,
      "▁지시": 7304,
      "치도": 7305,
      "▁들어온": 7306,
      "대에서": 7307,
      "▁기사가": 7308,
      "▁선전": 7309,
      "▁축하": 7310,
      "다가,": 7311,
      "▁국가대표팀": 7312,
      "ud": 7313,
      "▁1997년": 7314,
      "▁보장": 7315,
      "정말": 7316,
      "▁환영": 7317,
      "▁김경": 7318,
      "▁분위기": 7319,
      "our": 7320,
      "▁be": 7321,
      "▁북괴": 7322,
      "1\n": 7323,
      "▁공주": 7324,
      "▁1996년": 7325,
      "▁미국에서": 7326,
      "▁국민들을": 7327,
      "se": 7328,
      "▁;": 7329,
      "▁규모": 7330,
      "감정": 7331,
      "국민이": 7332,
      "▁합리": 7333,
      "▁트위터": 7334,
      "▁합격": 7335,
      "▁시점에서": 7336,
      "▁대륙": 7337,
      "형의": 7338,
      "▁어마": 7339,
      "하하": 7340,
      "배우": 7341,
      "▁추가된": 7342,
      "▁뇌가": 7343,
      "▁말만": 7344,
      "▁녀석": 7345,
      "사람은": 7346,
      "▁전염": 7347,
      "소에서": 7348,
      "▁않기": 7349,
      "▁하나는": 7350,
      "동의": 7351,
      "일뿐": 7352,
      "▁2016": 7353,
      "▁키워": 7354,
      "▁판타": 7355,
      "드라": 7356,
      "세에": 7357,
      "▁사람들도": 7358,
      "▁쓰레": 7359,
      "▁자유민주주의": 7360,
      "▁대공": 7361,
      "말은": 7362,
      "왕이": 7363,
      "▁담배": 7364,
      "▁그녀를": 7365,
      "티어": 7366,
      "▁자신들의": 7367,
      "주년": 7368,
      "▁있었지만": 7369,
      "▁우리나라는": 7370,
      "OR": 7371,
      "겠지\n": 7372,
      "▁역으로": 7373,
      "면을": 7374,
      "▁순식": 7375,
      "▁외치": 7376,
      "재판": 7377,
      "데미": 7378,
      "▁작년": 7379,
      "법은": 7380,
      "▁없었던": 7381,
      "▁데미지": 7382,
      "iv": 7383,
      "▁관통": 7384,
      "▁제가": 7385,
      "▁신의": 7386,
      "▁새벽": 7387,
      "잡아": 7388,
      "오카": 7389,
      "었으면": 7390,
      "관은": 7391,
      "차별": 7392,
      "▁동남": 7393,
      "떨어": 7394,
      "▁디스": 7395,
      "▁돈벌": 7396,
      "하자.\n": 7397,
      ".9": 7398,
      "▁정확한": 7399,
      "당할": 7400,
      "▁Al": 7401,
      "▁정경": 7402,
      "셔서": 7403,
      "였고": 7404,
      "▁180": 7405,
      "하이": 7406,
      "▁38": 7407,
      ")]": 7408,
      "▁어린이": 7409,
      "▁스프": 7410,
      "▁버튼": 7411,
      "▁우습": 7412,
      "리온": 7413,
      "마스": 7414,
      "구역": 7415,
      "▁복잡": 7416,
      "▁교활": 7417,
      "나미": 7418,
      "24": 7419,
      "▁두번째": 7420,
      "다~": 7421,
      "▁맞게": 7422,
      "3,": 7423,
      "▁150": 7424,
      "▁정치를": 7425,
      "▁확률이": 7426,
      "▁구라": 7427,
      "▁초등학교": 7428,
      "서로": 7429,
      "구만\n": 7430,
      "▁존나": 7431,
      "▁밝혔다.": 7432,
      "▁씨부": 7433,
      "▁참으로": 7434,
      "▁6일": 7435,
      "주택": 7436,
      "▁달아": 7437,
      "(D": 7438,
      "▁역전": 7439,
      "▁대만": 7440,
      "▁조국을": 7441,
      "▁델": 7442,
      "▁시내": 7443,
      "▁경계": 7444,
      "▁로켓": 7445,
      "▁인공": 7446,
      "▁무역": 7447,
      "'에": 7448,
      "(이": 7449,
      "쳤다.": 7450,
      "료를": 7451,
      "니깐": 7452,
      "%가": 7453,
      "▁집행": 7454,
      "키\n": 7455,
      "▁되었고,": 7456,
      "▁체육": 7457,
      "▁쩝쩝": 7458,
      "빨리": 7459,
      "▁되었고": 7460,
      "▁기소": 7461,
      "장인": 7462,
      "▁버프": 7463,
      "ww": 7464,
      "좋아": 7465,
      "것이다": 7466,
      "▁융": 7467,
      "ign": 7468,
      "▁27일": 7469,
      "▁문을": 7470,
      "▁정신나간": 7471,
      "▁겐": 7472,
      "▁목적으로": 7473,
      "▁선동질": 7474,
      "▁대한민국은": 7475,
      "님은": 7476,
      "때까지": 7477,
      "시험": 7478,
      "▁2017": 7479,
      "ding": 7480,
      "실에": 7481,
      "적이다.": 7482,
      "준표": 7483,
      "▁중소": 7484,
      "▁했다는": 7485,
      "av": 7486,
      "후에": 7487,
      "▁2회": 7488,
      "색을": 7489,
      "▁공을": 7490,
      "듯.": 7491,
      "▁주지": 7492,
      "▁기득": 7493,
      "▁주둥": 7494,
      "아를": 7495,
      "▁업그레이드": 7496,
      "으로만": 7497,
      "▁싸우는": 7498,
      "▁롱": 7499,
      "▁문정권": 7500,
      "가며": 7501,
      "여야": 7502,
      "저기": 7503,
      "▁일어났": 7504,
      "대고": 7505,
      "있으면": 7506,
      "함에": 7507,
      "▁재생": 7508,
      "라시": 7509,
      "▁북미": 7510,
      "▁일종의": 7511,
      "▁위험한": 7512,
      "▁20년": 7513,
      "▁당시에는": 7514,
      "▁아니라는": 7515,
      "▁자위": 7516,
      "영웅": 7517,
      "▁파견": 7518,
      "▁마시": 7519,
      "해.": 7520,
      "▁하기도": 7521,
      "▁연예인": 7522,
      "▁1위를": 7523,
      "오를": 7524,
      "크는": 7525,
      "(200": 7526,
      "구석": 7527,
      "주에": 7528,
      "잖아\n": 7529,
      "▁26일": 7530,
      "▁필리": 7531,
      "bs": 7532,
      "▁안가": 7533,
      "▁2014": 7534,
      "하지도": 7535,
      "▁지어": 7536,
      "▁임시": 7537,
      "평가": 7538,
      "▁것이라는": 7539,
      "▁한달": 7540,
      "▁부인": 7541,
      "▁1995년": 7542,
      "▁본인도": 7543,
      "▁1억": 7544,
      "일랜드": 7545,
      "다고?": 7546,
      "▁파일": 7547,
      "▁비용": 7548,
      "▁21일": 7549,
      "▁활약을": 7550,
      "소\n": 7551,
      "서,": 7552,
      "▁대부분이": 7553,
      "▁시기에": 7554,
      "▁꼬라지": 7555,
      "▁신규": 7556,
      "령을": 7557,
      "▁하려고": 7558,
      "▁듀얼": 7559,
      "▁할아버": 7560,
      "든가": 7561,
      "▁꼴통": 7562,
      "▁9일": 7563,
      "▁너같은": 7564,
      "자동": 7565,
      "▁부분은": 7566,
      "▁99": 7567,
      "▁레이저": 7568,
      "▁무게": 7569,
      "오프": 7570,
      "▁안에서": 7571,
      "령이": 7572,
      "▁호구": 7573,
      "▁버려": 7574,
      "▁정권을": 7575,
      "▁관계를": 7576,
      "드라마": 7577,
      "..이": 7578,
      "▁크루": 7579,
      "▁참전": 7580,
      "을텐데": 7581,
      "▁심한": 7582,
      "▁편성": 7583,
      "▁중국에서": 7584,
      "▁재능": 7585,
      "아시아": 7586,
      "▁아파": 7587,
      "보로": 7588,
      "▁Sp": 7589,
      "AC": 7590,
      "▁강하게": 7591,
      "▁ᄉᄇ": 7592,
      "▁영상을": 7593,
      "▁내리": 7594,
      "▁나를": 7595,
      "▁노래를": 7596,
      "▁갤럭": 7597,
      "▁극단": 7598,
      "제도": 7599,
      "치와": 7600,
      "전에서는": 7601,
      "▁18일": 7602,
      "▁평등": 7603,
      "▁서비": 7604,
      "주도": 7605,
      "500": 7606,
      "▁쿄": 7607,
      "▁대박": 7608,
      "▁충성": 7609,
      "▁몸에": 7610,
      "해라.\n": 7611,
      "ock": 7612,
      "어야지": 7613,
      "인다.\n": 7614,
      "▁입을": 7615,
      "▁2015": 7616,
      "▁17일": 7617,
      "▁23일": 7618,
      "▁단일": 7619,
      "베르": 7620,
      "▁원숭이": 7621,
      "▁연금": 7622,
      "이나,": 7623,
      "▁길이": 7624,
      "성애": 7625,
      "▁마구": 7626,
      "ackground:": 7627,
      "▁카즈": 7628,
      "대상": 7629,
      "▁해설": 7630,
      "▁수익": 7631,
      "▁있으므로": 7632,
      "▁배경으로": 7633,
      "요...": 7634,
      "????\n": 7635,
      "이긴": 7636,
      "▁떠올": 7637,
      "니까?\n": 7638,
      "까지만": 7639,
      "▁컨텐츠": 7640,
      "▁정유": 7641,
      "▁자극": 7642,
      "리안": 7643,
      "▁다수": 7644,
      "▁적도": 7645,
      "▁찬양": 7646,
      "▁있었고,": 7647,
      "▁어이가": 7648,
      "구려": 7649,
      "▁12일": 7650,
      "▁복수": 7651,
      "사도": 7652,
      "전문": 7653,
      "▁문대통령": 7654,
      "▁...\n": 7655,
      "▁쓸데": 7656,
      "▁16일": 7657,
      "▁권한": 7658,
      "▁11일": 7659,
      "idth": 7660,
      "▁누굴": 7661,
      "▁이슬람": 7662,
      "물고": 7663,
      "▁죄가": 7664,
      "▁정글": 7665,
      "▁더더": 7666,
      "▁거라고": 7667,
      "▁해제": 7668,
      "자연": 7669,
      "당해": 7670,
      "▁뛰어나": 7671,
      "()에": 7672,
      "▁홈페이지": 7673,
      "▁징역": 7674,
      "▁로드": 7675,
      "▁보여준다.": 7676,
      "▁경찰이": 7677,
      "▁오른쪽": 7678,
      "▁명중": 7679,
      "'\n": 7680,
      "▁삶은": 7681,
      "통을": 7682,
      "재앙": 7683,
      "▁Re": 7684,
      "▁입만": 7685,
      "▁간신": 7686,
      "▁벼": 7687,
      "▁내에": 7688,
      "ure": 7689,
      "▁기절": 7690,
      "루를": 7691,
      "▁메달": 7692,
      "▁제정": 7693,
      "시리즈": 7694,
      "▁남탓": 7695,
      "▁준다.": 7696,
      "▁않다.\n": 7697,
      "하였으며,": 7698,
      "order": 7699,
      "▁적에게": 7700,
      "▁화이트": 7701,
      "▁토론": 7702,
      "▁저는": 7703,
      "▁한국을": 7704,
      "름을": 7705,
      "해줄": 7706,
      "▁나가는": 7707,
      "▁24일": 7708,
      "▁하더라도": 7709,
      "스팅": 7710,
      "부와": 7711,
      "▁전원": 7712,
      "▁화살": 7713,
      "속도": 7714,
      "했다면": 7715,
      "▁애플": 7716,
      "구,": 7717,
      "▁주말": 7718,
      "ect": 7719,
      "▁태어난": 7720,
      "end": 7721,
      "▁깊은": 7722,
      "지며": 7723,
      "▁전직": 7724,
      "스에게": 7725,
      "▁자기들": 7726,
      "▁망가": 7727,
      "사키": 7728,
      "이네\n": 7729,
      "활동": 7730,
      "총장": 7731,
      "▁순식간에": 7732,
      "▁의견이": 7733,
      "봤자": 7734,
      "▁스킨": 7735,
      "▁잡혀": 7736,
      "▁패러디": 7737,
      "▁대출": 7738,
      "까지의": 7739,
      "▁상대의": 7740,
      "▁용병": 7741,
      "▁마나": 7742,
      "▁경력": 7743,
      "실에서": 7744,
      "▁양산": 7745,
      "저히": 7746,
      ".......": 7747,
      "시간이": 7748,
      "부,": 7749,
      "▁세이": 7750,
      "▁락": 7751,
      "▁혼자서": 7752,
      "▁ー": 7753,
      "류를": 7754,
      "▁않고,": 7755,
      "오고": 7756,
      "▁왜이": 7757,
      "영이": 7758,
      "▁매년": 7759,
      "화\n": 7760,
      "▁몸이": 7761,
      "싸움": 7762,
      "▁전쟁을": 7763,
      "▁우승을": 7764,
      "스러": 7765,
      "길래": 7766,
      "세트": 7767,
      "▁네덜": 7768,
      "관련": 7769,
      "는데...": 7770,
      "▁권력을": 7771,
      "▁수리": 7772,
      "▁29일": 7773,
      "▁22일": 7774,
      "▁방패": 7775,
      "것들은": 7776,
      "▁집을": 7777,
      "▁받아들이": 7778,
      "자들에게": 7779,
      "45": 7780,
      "▁다행히": 7781,
      "▁관심이": 7782,
      "▁국가의": 7783,
      "▁보면서": 7784,
      "니,": 7785,
      "▁보복": 7786,
      "당과": 7787,
      "▁13일": 7788,
      "하자\n": 7789,
      "▁한나라": 7790,
      "▁인지": 7791,
      "▁선물": 7792,
      "▁메가": 7793,
      "AL": 7794,
      "▁보자": 7795,
      "▁메이저": 7796,
      "▁플레이어가": 7797,
      "▁구단": 7798,
      "낸다.": 7799,
      "▁서포": 7800,
      "기에는": 7801,
      "하기는": 7802,
      "▁폭력": 7803,
      "해서는": 7804,
      "▁여론조사": 7805,
      "▁나타난": 7806,
      "▁조중동": 7807,
      "ᅮᅮ\n": 7808,
      "▁경기가": 7809,
      "▁일상": 7810,
      "천지": 7811,
      "▁대상으로": 7812,
      "분의": 7813,
      "▁중학교": 7814,
      "▁부패": 7815,
      "▁스튜": 7816,
      "▁좌우": 7817,
      "▁유행": 7818,
      "▁법률": 7819,
      "▁순위": 7820,
      "▁아버지가": 7821,
      "▁EX": 7822,
      "▁일하는": 7823,
      "거면": 7824,
      "마는": 7825,
      "회에서": 7826,
      "▁클로": 7827,
      "▁이들의": 7828,
      "해,": 7829,
      "▁대통령님": 7830,
      "EC": 7831,
      "▁처치": 7832,
      "▁들여": 7833,
      "▁싸워": 7834,
      "▁키우": 7835,
      "▁이모": 7836,
      "▁영업": 7837,
      "▁소울": 7838,
      "▁죽창": 7839,
      "▁어든": 7840,
      "▁보냈": 7841,
      "▁들었": 7842,
      "정도로": 7843,
      "ft": 7844,
      "▁그곳": 7845,
      "▁경고": 7846,
      "▁정도가": 7847,
      "▁보게": 7848,
      "군과": 7849,
      "▁나카": 7850,
      "▁사용한다.": 7851,
      "생이": 7852,
      "때문": 7853,
      "사항": 7854,
      "▁후회": 7855,
      "▁댓": 7856,
      "▁틀린": 7857,
      "기인": 7858,
      "ass": 7859,
      "▁유공자": 7860,
      "▁줄어들": 7861,
      "까요?": 7862,
      "▁교환": 7863,
      "스트로": 7864,
      "AS": 7865,
      "▁주력": 7866,
      "시와": 7867,
      "▁맞이": 7868,
      "▁방향으로": 7869,
      "물의": 7870,
      "▁me": 7871,
      "▁법이": 7872,
      "▁카르": 7873,
      "▁이라는": 7874,
      "▁임기": 7875,
      "▁국민들의": 7876,
      "▁진심으로": 7877,
      "▁계급": 7878,
      "▁연극": 7879,
      "▁둥": 7880,
      "하겠다고": 7881,
      "먼트": 7882,
      "▁실수": 7883,
      "▁해산": 7884,
      "▁뒤를": 7885,
      "▁트랙": 7886,
      "▁같다": 7887,
      "▁극복": 7888,
      "까\n": 7889,
      "▁아줌마": 7890,
      "▁잃어": 7891,
      "▁정도.\n": 7892,
      "되게": 7893,
      "고싶": 7894,
      "▁예산": 7895,
      "▁페이": 7896,
      "계에서": 7897,
      "▁유승": 7898,
      "▁정신을": 7899,
      "▁대폭": 7900,
      "▁보이고": 7901,
      "▁죽이는": 7902,
      "display": 7903,
      "▁없던": 7904,
      "▁실업": 7905,
      "▁계승": 7906,
      "감독": 7907,
      "▁시티": 7908,
      "▁유키": 7909,
      "▁어깨": 7910,
      "▁10%": 7911,
      "▁예측": 7912,
      "르지": 7913,
      "na": 7914,
      "보이": 7915,
      "▁발음": 7916,
      "겠냐": 7917,
      "놈의": 7918,
      "▁하는지": 7919,
      "사이트": 7920,
      "▁지역에": 7921,
      "▁했으면": 7922,
      "▁목사": 7923,
      "님들": 7924,
      "루의": 7925,
      "원들이": 7926,
      "▁합니다": 7927,
      "▁임금": 7928,
      "드에서": 7929,
      "▁출처": 7930,
      "달라": 7931,
      "적의": 7932,
      "▁제국의": 7933,
      "▁[math(": 7934,
      "▁두산": 7935,
      "▁대장": 7936,
      "▁주목": 7937,
      "요~": 7938,
      "▁어그": 7939,
      "▁나간": 7940,
      "다..\n": 7941,
      "-s": 7942,
      "였고,": 7943,
      "저씨": 7944,
      "▁()\n": 7945,
      "서에": 7946,
      "▁이름의": 7947,
      "▁선호": 7948,
      "▁끝나고": 7949,
      "인지라": 7950,
      "▁팀은": 7951,
      "VE": 7952,
      "실한": 7953,
      "▁그럼에도": 7954,
      "▁실제로는": 7955,
      "▁데스": 7956,
      "▁원인": 7957,
      "▁김종": 7958,
      "▁뒤,": 7959,
      "▁위기": 7960,
      "▁알아야": 7961,
      "▁소수": 7962,
      "▁좋게": 7963,
      "시기": 7964,
      "관의": 7965,
      "▁몇년": 7966,
      "▁랭": 7967,
      "▁조금씩": 7968,
      "▁이른": 7969,
      "▁물려": 7970,
      "▁안된다.": 7971,
      "▁일으키": 7972,
      "▁모션": 7973,
      "▁사진을": 7974,
      "▁골드": 7975,
      "▁대립": 7976,
      "▁넷": 7977,
      "▁19일": 7978,
      "▁저리": 7979,
      "잘못": 7980,
      "▁프리미": 7981,
      "면에": 7982,
      "▁행위": 7983,
      "메이": 7984,
      "뿐만": 7985,
      "▁교사": 7986,
      "▁드는": 7987,
      "▁먹어": 7988,
      "▁조성": 7989,
      "호,": 7990,
      "▁맡은": 7991,
      "▁등장.": 7992,
      "▁적극적으로": 7993,
      "▁친중": 7994,
      "되서": 7995,
      "▁안될": 7996,
      "▁돌아가는": 7997,
      "(L": 7998,
      "▁189": 7999,
      "▁것이라": 8000,
      "▁자한당은": 8001,
      "▁득점": 8002,
      "▁뭔지": 8003,
      "'으로": 8004,
      "▁그런지": 8005,
      "오면": 8006,
      "▁그와": 8007,
      "신문": 8008,
      "▁대상이": 8009,
      "▁폭행": 8010,
      "▁써서": 8011,
      "▁잘하고": 8012,
      "▁순수": 8013,
      "인에게": 8014,
      "▁모습은": 8015,
      "▁(20": 8016,
      "▁오프닝": 8017,
      "▁일방": 8018,
      "▁회의": 8019,
      "▁안습": 8020,
      "▁쫓아": 8021,
      "니까\n": 8022,
      "▁놀아": 8023,
      "▁문씨": 8024,
      "▁오빠": 8025,
      "▁확률로": 8026,
      "▁안드로": 8027,
      "▁정수": 8028,
      "형은": 8029,
      "▁1990년": 8030,
      "▁아서": 8031,
      "주,": 8032,
      "▁압수수": 8033,
      "▁라이벌": 8034,
      "▁있다가": 8035,
      "▁있는게": 8036,
      "▁끌어내": 8037,
      "소득": 8038,
      "▁의존": 8039,
      "▁케이스": 8040,
      "거고": 8041,
      "시피": 8042,
      ":0": 8043,
      "▁베르": 8044,
      "▁3차": 8045,
      "보험": 8046,
      "▁이용해서": 8047,
      "▁랜덤": 8048,
      "▁크리": 8049,
      "대와": 8050,
      "▁신인": 8051,
      "▁하라고": 8052,
      "했으나,": 8053,
      "책임": 8054,
      "▁규정": 8055,
      "▁해라.": 8056,
      "▁연봉": 8057,
      "▁수원": 8058,
      "▁역사를": 8059,
      "▁되찾": 8060,
      "▁SN": 8061,
      "▁비슷하게": 8062,
      "로로": 8063,
      "▁다시는": 8064,
      "다리": 8065,
      "▁등장한다.\n": 8066,
      "유럽": 8067,
      "▁정신이": 8068,
      "사무": 8069,
      "▁초월": 8070,
      "앞에": 8071,
      "▁넓은": 8072,
      "▁부품": 8073,
      "▁에이스": 8074,
      "▁(S": 8075,
      "현이": 8076,
      "▁최상": 8077,
      "▁예능": 8078,
      "▁Bl": 8079,
      "▁사정": 8080,
      "▁스웨": 8081,
      "▁독일의": 8082,
      "▁관계가": 8083,
      "▁한때": 8084,
      "기들": 8085,
      "▁화려": 8086,
      "소의": 8087,
      "▁가난": 8088,
      "▁김대중": 8089,
      "▁호텔": 8090,
      "▁등판": 8091,
      "(R": 8092,
      "▁당신의": 8093,
      "▁뜯어": 8094,
      "ore": 8095,
      "▁지는": 8096,
      "▁후에는": 8097,
      "▁두번": 8098,
      "▁먹은": 8099,
      "▁어릴": 8100,
      "!\"\n": 8101,
      "하라\n": 8102,
      "▁자이": 8103,
      "심한": 8104,
      "▁되어서": 8105,
      "????????": 8106,
      "위한": 8107,
      "▁이제와서": 8108,
      "▁KT": 8109,
      "uc": 8110,
      "▁청소년": 8111,
      "▁고양이": 8112,
      "▁추적": 8113,
      "▁들어갈": 8114,
      "▁가려": 8115,
      "▁3,": 8116,
      "ood": 8117,
      "▁본격적으로": 8118,
      "장난": 8119,
      "BO": 8120,
      "▁홍준표": 8121,
      "교수": 8122,
      ".com": 8123,
      "마저도": 8124,
      "▁Ar": 8125,
      "▁료": 8126,
      "표를": 8127,
      "▁헤어": 8128,
      "잡이": 8129,
      "▁첫번째": 8130,
      "▁건드": 8131,
      "▁쓰이는": 8132,
      "▁여동생": 8133,
      "타령": 8134,
      "▁일본으로": 8135,
      "▁시간에": 8136,
      "▁고집": 8137,
      "▁바퀴": 8138,
      "▁인근": 8139,
      "형으로": 8140,
      "서\n": 8141,
      "▁느낌이": 8142,
      "ome": 8143,
      "▁한다면": 8144,
      "정부가": 8145,
      "▁남을": 8146,
      "▁침략": 8147,
      "국에서": 8148,
      "기.": 8149,
      "나라가": 8150,
      "▁거야": 8151,
      "▁갈라": 8152,
      "▁바라는": 8153,
      "▁전체적으로": 8154,
      "▁이웃": 8155,
      "▁무난": 8156,
      "FC": 8157,
      "▁학원": 8158,
      "▁1도": 8159,
      "▁얻는": 8160,
      "해주고": 8161,
      "▁제출": 8162,
      "▁깨닫": 8163,
      "▁폐쇄": 8164,
      "▁없네": 8165,
      "▁닉": 8166,
      "▁감독의": 8167,
      "크라": 8168,
      "▁de": 8169,
      "욕을": 8170,
      "▁결과가": 8171,
      "▁받았다.\n": 8172,
      "▁합쳐": 8173,
      "▁가문": 8174,
      "▁맞은": 8175,
      "▁수영": 8176,
      "▁셔": 8177,
      "▁무덤": 8178,
      "▁분명히": 8179,
      "▁보일": 8180,
      "▁저지른": 8181,
      "했으니": 8182,
      "-r": 8183,
      "▁자한당이": 8184,
      "▁걸고": 8185,
      "▁~\n": 8186,
      "▁세트": 8187,
      "ess": 8188,
      "▁편.\n": 8189,
      "▁남겨": 8190,
      "▁프랑스의": 8191,
      "▁그다지": 8192,
      "처리": 8193,
      "LC": 8194,
      "▁커피": 8195,
      "▁입장에서는": 8196,
      "마냥": 8197,
      "함과": 8198,
      "▁1994년": 8199,
      "▁다.\n": 8200,
      "▁대규모": 8201,
      "▁싼": 8202,
      "너무": 8203,
      "▁그녀가": 8204,
      "▁하락": 8205,
      "......\n": 8206,
      "▁출판": 8207,
      "▁부진": 8208,
      "ian": 8209,
      "▁퓨": 8210,
      "▁스페셜": 8211,
      "▁저도": 8212,
      "▁결과를": 8213,
      "▁플라": 8214,
      "▁중인": 8215,
      "타이": 8216,
      "▁트레": 8217,
      "정당": 8218,
      "체에": 8219,
      "▁자는": 8220,
      "▁4대": 8221,
      "▁し": 8222,
      "▁답변": 8223,
      "▁사용하면": 8224,
      "▁잘하는": 8225,
      "▁배운": 8226,
      "▁하나인": 8227,
      "()를": 8228,
      "▁파란": 8229,
      "▁아가리": 8230,
      "▁때문인지": 8231,
      "▁아이가": 8232,
      "▁공화국": 8233,
      "▁가졌": 8234,
      "▁초등": 8235,
      "▁20세기": 8236,
      "▁교도": 8237,
      "▁테마": 8238,
      "인에": 8239,
      "▁입에": 8240,
      "기자": 8241,
      "▁아이템을": 8242,
      "▁당하는": 8243,
      "하나?": 8244,
      "▁II": 8245,
      "▁제4": 8246,
      "▁커녕": 8247,
      "▁이만": 8248,
      "▁불명": 8249,
      "▁패시브": 8250,
      "▁사망\n": 8251,
      "▁총리": 8252,
      "▁사이의": 8253,
      "▁or": 8254,
      "치\n": 8255,
      "▁일찍": 8256,
      "▁테스트": 8257,
      "▁피아": 8258,
      "▁끔찍": 8259,
      ";\n": 8260,
      "▁정권의": 8261,
      "▁조준": 8262,
      "▁녹음": 8263,
      "▁예비": 8264,
      "▁템": 8265,
      "▁보여주고": 8266,
      "▁언니": 8267,
      "▁위기에": 8268,
      "▁채로": 8269,
      "방에서": 8270,
      "▁하필": 8271,
      "▁선수가": 8272,
      "▁에스": 8273,
      "▁했고": 8274,
      "▁어지간": 8275,
      "되어야": 8276,
      "▁(198": 8277,
      "출신": 8278,
      "▁교황": 8279,
      "프는": 8280,
      "▁당시의": 8281,
      "▁못하면": 8282,
      "안하고": 8283,
      "결과": 8284,
      "▁있었고": 8285,
      "고로": 8286,
      "▁밴드": 8287,
      "▁있었다고": 8288,
      "망이": 8289,
      "▁땐": 8290,
      "ng": 8291,
      "▁던전": 8292,
      "▁수업": 8293,
      "문재인": 8294,
      "는거지": 8295,
      "▁이용하여": 8296,
      "담을": 8297,
      "작을": 8298,
      "▁총선에서": 8299,
      "렸을": 8300,
      "▁34": 8301,
      "▁확진자": 8302,
      "▁소름": 8303,
      "▁사람들에게": 8304,
      "빠진": 8305,
      "▁한쪽": 8306,
      "▁추방": 8307,
      "향을": 8308,
      "난다": 8309,
      "로서의": 8310,
      "▁휴대": 8311,
      "▁박원순": 8312,
      "▁해라\n": 8313,
      "그만": 8314,
      "ED": 8315,
      "고의": 8316,
      "▁부분을": 8317,
      "▁사이트": 8318,
      "그럼": 8319,
      "▁물타기": 8320,
      "▁예외": 8321,
      "원과": 8322,
      "▁받는다.": 8323,
      "먹었": 8324,
      "▁부모가": 8325,
      "▁노트": 8326,
      "▁아까": 8327,
      "라..": 8328,
      "내기": 8329,
      "▁다르다.": 8330,
      "▁신설": 8331,
      "▁아니지": 8332,
      "▁공화": 8333,
      "▁세대": 8334,
      "▁음주": 8335,
      "▁냈": 8336,
      "율을": 8337,
      "▁이쯤": 8338,
      "▁3대": 8339,
      "중앙": 8340,
      "▁시킨": 8341,
      "ire": 8342,
      "▁ht": 8343,
      "였지만": 8344,
      "▁wh": 8345,
      "거는": 8346,
      "▁성폭행": 8347,
      "역에서": 8348,
      "▁이유를": 8349,
      "▁제도": 8350,
      "▁보였다.": 8351,
      "따라": 8352,
      "'이라고": 8353,
      "▁험": 8354,
      "▁것인지": 8355,
      "▁이날": 8356,
      "▁그지": 8357,
      "22": 8358,
      "▁만났": 8359,
      "▁AP": 8360,
      "미\n": 8361,
      "▁모바": 8362,
      "▁폐기": 8363,
      "▁2배": 8364,
      "▁차기": 8365,
      "다...\n": 8366,
      "▁튀어나": 8367,
      "▁매번": 8368,
      "▁카운터": 8369,
      "▁(C": 8370,
      "▁연관": 8371,
      "▁한계": 8372,
      "▁방탄": 8373,
      "▁못한다.": 8374,
      "치,": 8375,
      "▁스마트폰": 8376,
      "▁디지털": 8377,
      "즈는": 8378,
      "▁닥터": 8379,
      "▁읽어": 8380,
      "▁러브": 8381,
      "▁불교": 8382,
      "도우": 8383,
      "▁6.25": 8384,
      "ere": 8385,
      "▁머리에": 8386,
      "▁때문.\n": 8387,
      "▁도달": 8388,
      "스키": 8389,
      "는데\n": 8390,
      "▁트로": 8391,
      "▁얼굴이": 8392,
      "▁부부": 8393,
      "된다\n": 8394,
      "▁구체": 8395,
      "▁뜻을": 8396,
      "▁역겨": 8397,
      "▁페이스": 8398,
      "법으로": 8399,
      "▁문슬람": 8400,
      "▁돌격": 8401,
      "▁잃은": 8402,
      "▁2위": 8403,
      "네~": 8404,
      "▁해명": 8405,
      "판은": 8406,
      "▁다는": 8407,
      "▁뿌리": 8408,
      "▁달린": 8409,
      "▁1/": 8410,
      "▁my": 8411,
      "▁쓰러뜨": 8412,
      "▁왜?": 8413,
      "▁FIFA": 8414,
      "▁정부에서": 8415,
      "라노": 8416,
      "증을": 8417,
      "▁http": 8418,
      "돈으로": 8419,
      "▁촌": 8420,
      "어마": 8421,
      "▁BG": 8422,
      "▁북한은": 8423,
      "▁구출": 8424,
      "카를": 8425,
      "▁말라고": 8426,
      "식에": 8427,
      "▁반응을": 8428,
      "시다.\n": 8429,
      "▁나은": 8430,
      "▁수구": 8431,
      "▁재벌": 8432,
      "▁싸울": 8433,
      "당시": 8434,
      "▁주인공이": 8435,
      "각을": 8436,
      "▁한데": 8437,
      "▁입국금지": 8438,
      "▁공격이": 8439,
      "▁뭐하는": 8440,
      "▁했지만,": 8441,
      "▁말하고": 8442,
      "▁중립": 8443,
      "▁프로토": 8444,
      "▁아베가": 8445,
      "되었으며": 8446,
      "▁콘서": 8447,
      "▁한마디로": 8448,
      "ran": 8449,
      "판에서는": 8450,
      "▁단점": 8451,
      "▁자신과": 8452,
      "▁아이를": 8453,
      "새끼들": 8454,
      "5,": 8455,
      "▁짓거리": 8456,
      "집에": 8457,
      "▁규제": 8458,
      "▁안타까": 8459,
      "▁난이도가": 8460,
      "▁더더욱": 8461,
      "▁감독이": 8462,
      "▁마지막에": 8463,
      "▁과거에": 8464,
      "▁스티": 8465,
      "▁역사상": 8466,
      "▁베스트": 8467,
      "▁border": 8468,
      "▁걸쳐": 8469,
      "▁떨어지": 8470,
      "▁보안": 8471,
      "▁웅": 8472,
      "▁연계": 8473,
      "라엘": 8474,
      "▁대통령을": 8475,
      "▁버린": 8476,
      "▁개인의": 8477,
      "▁신이": 8478,
      "님을": 8479,
      "▁ᄇᄉ": 8480,
      "sp": 8481,
      "▁대법": 8482,
      "▁금융": 8483,
      "겼다.": 8484,
      "▁그렇고": 8485,
      "are": 8486,
      "리언": 8487,
      "더라.": 8488,
      "▁특별한": 8489,
      "놈은": 8490,
      "▁가이": 8491,
      "된다고": 8492,
      "급으로": 8493,
      "▁밖으로": 8494,
      "▁싫어하는": 8495,
      "▁안하는": 8496,
      "▁검찰은": 8497,
      "▁윤미": 8498,
      "▁열어": 8499,
      "▁무언": 8500,
      "거리를": 8501,
      "족의": 8502,
      "▁미야": 8503,
      "▁해금": 8504,
      "▁한반도": 8505,
      "▁등에서": 8506,
      "▁딜러": 8507,
      "▁이니": 8508,
      "▁여기저기": 8509,
      "▁새끼들": 8510,
      "▁이내": 8511,
      "느니": 8512,
      "▁이렇": 8513,
      "▁뿐이다.": 8514,
      "갔다": 8515,
      "▁카메라": 8516,
      "▁욕하는": 8517,
      "건가?": 8518,
      "관광": 8519,
      "▁엑스": 8520,
      "겁니다.": 8521,
      "▁높다.\n": 8522,
      "▁오해": 8523,
      "소는": 8524,
      "▁메탈": 8525,
      "패스": 8526,
      "▁떡밥": 8527,
      "▁않아도": 8528,
      "▁기능을": 8529,
      "▁결코": 8530,
      "▁재수": 8531,
      "▁인물이": 8532,
      "▁모으": 8533,
      "널티": 8534,
      "3\n": 8535,
      "▁테이": 8536,
      "가라": 8537,
      "▁죽고": 8538,
      "▁현상": 8539,
      "죠.\n": 8540,
      "▁베이스": 8541,
      "▁심리": 8542,
      "▁400": 8543,
      "하시는": 8544,
      "되자": 8545,
      "▁참고.\n": 8546,
      "▁이주": 8547,
      "▁이것을": 8548,
      "▁그러다": 8549,
      "▁신분": 8550,
      "죠?\n": 8551,
      "▁작동": 8552,
      "▁접촉": 8553,
      "파가": 8554,
      "▁숨어": 8555,
      "▁보며": 8556,
      "▁기울": 8557,
      "▁매달": 8558,
      "함.\n": 8559,
      "▁적대": 8560,
      "▁그로": 8561,
      "▁장학": 8562,
      "▁오랫": 8563,
      "문학": 8564,
      "argin": 8565,
      "임?": 8566,
      "▁신도": 8567,
      "▁대우": 8568,
      "(G": 8569,
      "▁명확": 8570,
      "▁이들을": 8571,
      "▁때에는": 8572,
      "▁편입": 8573,
      "환이": 8574,
      "▁등과": 8575,
      "▁조절": 8576,
      "급의": 8577,
      "코\n": 8578,
      "디아": 8579,
      "중에도": 8580,
      "▁어려워": 8581,
      "타고": 8582,
      "▁북한의": 8583,
      "▁고전": 8584,
      "▁항의": 8585,
      "▁법무장관": 8586,
      "▁진지": 8587,
      "▁힘으로": 8588,
      "▁스폰": 8589,
      "▁기록을": 8590,
      "파를": 8591,
      "▁한화": 8592,
      "▁입단": 8593,
      "모델": 8594,
      "▁시야": 8595,
      "▁유로": 8596,
      "▁글로벌": 8597,
      "▁불을": 8598,
      "▁대항": 8599,
      "▁간의": 8600,
      "▁개정": 8601,
      "만큼은": 8602,
      "▁전시": 8603,
      "▁발매된": 8604,
      "▁미술": 8605,
      "▁궁극": 8606,
      "▁성능이": 8607,
      "▁52": 8608,
      "정부는": 8609,
      "▁정착": 8610,
      "▁명이": 8611,
      "되어서": 8612,
      "▁변명": 8613,
      "▁48": 8614,
      "▁승격": 8615,
      "ne": 8616,
      "▁무관": 8617,
      "여\n": 8618,
      "▁구현": 8619,
      "역에": 8620,
      "▁가릭": 8621,
      "▁남았": 8622,
      "▁현지": 8623,
      "성화": 8624,
      "▁채워": 8625,
      "▁로스": 8626,
      "나요?\n": 8627,
      "▁공천": 8628,
      "▁잠수": 8629,
      "▁타령": 8630,
      "▁주면": 8631,
      "▁편이": 8632,
      "▁지속적으로": 8633,
      "아님": 8634,
      "▁달라고": 8635,
      "▁해당하는": 8636,
      "▁목록\n": 8637,
      "▁선진국": 8638,
      "▁사이가": 8639,
      "▁파이터": 8640,
      "속이": 8641,
      "하면서도": 8642,
      "▁공기": 8643,
      "▁김태": 8644,
      "▁몰락": 8645,
      "▁뭐냐": 8646,
      "▁있었는데,": 8647,
      "박이": 8648,
      "거같": 8649,
      "▁31일": 8650,
      "s,": 8651,
      "보드": 8652,
      "▁서양": 8653,
      "▁2루": 8654,
      "학급": 8655,
      "▁아름다운": 8656,
      "▁익숙": 8657,
      "라라": 8658,
      ",#": 8659,
      "준다.\n": 8660,
      "참에": 8661,
      "▁등신": 8662,
      "▁준우": 8663,
      "▁얼음": 8664,
      "▁없었다.\n": 8665,
      "인지는": 8666,
      "심은": 8667,
      "▁위장": 8668,
      "▁형사": 8669,
      "한데,": 8670,
      "책을": 8671,
      "브리": 8672,
      "가리": 8673,
      "▁패치로": 8674,
      "▁여러모로": 8675,
      "노동": 8676,
      "▁숭": 8677,
      "ᅲᅲ\n": 8678,
      "▁속이": 8679,
      "▁널리": 8680,
      "▁일으킨": 8681,
      "▁이후로는": 8682,
      "▁이순": 8683,
      "▁전교": 8684,
      "하고자": 8685,
      "▁프로트": 8686,
      "▁받아서": 8687,
      "▁둘째": 8688,
      "주\n": 8689,
      "소로": 8690,
      "▁계획을": 8691,
      "▁암흑": 8692,
      "▁국산": 8693,
      "▁유니클로": 8694,
      "럽게": 8695,
      "▁총장": 8696,
      "▁이루어진": 8697,
      "▁돌진": 8698,
      "▁후원": 8699,
      "코는": 8700,
      "▁다고": 8701,
      "▁장군": 8702,
      "▁미국에": 8703,
      "는데..": 8704,
      "-5": 8705,
      "▁이낙연": 8706,
      "연금": 8707,
      "▁1992년": 8708,
      "▁지겹": 8709,
      "▁뭔데": 8710,
      "▁세계의": 8711,
      "one": 8712,
      "와도": 8713,
      "▁서울특별시": 8714,
      "때마다": 8715,
      "▁생각보다": 8716,
      "▁으면": 8717,
      "질로": 8718,
      "리즘": 8719,
      "▁잡은": 8720,
      "▁끝이": 8721,
      "아니라": 8722,
      "▁있었으나": 8723,
      "▁창피": 8724,
      "협회": 8725,
      "▁전투에서": 8726,
      "냐??\n": 8727,
      "▁찾는": 8728,
      "▁낮아": 8729,
      "▁않을까": 8730,
      "▁기본적인": 8731,
      "▁레전드": 8732,
      "십시오": 8733,
      "행위": 8734,
      "▁다음에": 8735,
      "▁금방": 8736,
      "▁어떠한": 8737,
      "▁작용": 8738,
      "▁리버": 8739,
      "소한": 8740,
      "희가": 8741,
      "매매": 8742,
      "▁레인": 8743,
      "(E": 8744,
      "병원": 8745,
      "▁자치": 8746,
      "▁수석": 8747,
      "(...).": 8748,
      "▁인수": 8749,
      "▁후지": 8750,
      "▁원본": 8751,
      "전자": 8752,
      "▁단순한": 8753,
      "▁밑에": 8754,
      "20년": 8755,
      "()이": 8756,
      "▁PS": 8757,
      "▁데미지가": 8758,
      "▁나루": 8759,
      "▁신성": 8760,
      "공의": 8761,
      "호\n": 8762,
      "▁당사": 8763,
      "니까.": 8764,
      "▁예전에": 8765,
      "▁거리가": 8766,
      "▁충전": 8767,
      "▁올바": 8768,
      "▁장점": 8769,
      "▁제이": 8770,
      "구요": 8771,
      "▁인간은": 8772,
      "ok": 8773,
      "▁포인": 8774,
      "래?": 8775,
      "▁했고,": 8776,
      "노\n": 8777,
      "▁발달": 8778,
      "▁안철수": 8779,
      "시스": 8780,
      "NA": 8781,
      "▁경비": 8782,
      "adius": 8783,
      "▁봉사": 8784,
      "가게": 8785,
      "▁오염": 8786,
      "▁수술": 8787,
      "▁이후에도": 8788,
      "유를": 8789,
      "▁소방": 8790,
      "▁SP": 8791,
      "▁점차": 8792,
      "전투": 8793,
      "▁날이": 8794,
      "좌빨": 8795,
      "▁MC": 8796,
      "▁진짜로": 8797,
      "▁예수": 8798,
      "▁고백": 8799,
      "▁아마도": 8800,
      "인사": 8801,
      "▁이번엔": 8802,
      "▁합니다.\n": 8803,
      "▁노란": 8804,
      "▁세계에서": 8805,
      "▁방법은": 8806,
      "▁맘대로": 8807,
      "▁출입": 8808,
      "▁등은": 8809,
      "▁て": 8810,
      "▁시끄": 8811,
      "▁매니": 8812,
      "▁정책을": 8813,
      "네?": 8814,
      "해봐": 8815,
      "▁싫은": 8816,
      "▁타워": 8817,
      "21": 8818,
      "▁장식": 8819,
      "파의": 8820,
      "져도": 8821,
      "kg": 8822,
      "인들의": 8823,
      "놈들은": 8824,
      "카는": 8825,
      "▁가격이": 8826,
      "ee": 8827,
      "발전": 8828,
      "'t": 8829,
      "▁없지": 8830,
      "▁우리나라가": 8831,
      "▁그에게": 8832,
      "▁압수수색": 8833,
      "내야": 8834,
      "▁조금만": 8835,
      "▁손으로": 8836,
      "재로": 8837,
      "▁착한": 8838,
      "▁최후의": 8839,
      "▁자리에서": 8840,
      "▁기술이": 8841,
      "▁다닌": 8842,
      "▁기습": 8843,
      "▁추구": 8844,
      "▁수도권": 8845,
      "▁지원을": 8846,
      "제발": 8847,
      "▁다스": 8848,
      "사람들이": 8849,
      "되었다고": 8850,
      "▁결과는": 8851,
      "신교": 8852,
      "▁주기": 8853,
      "사용": 8854,
      "▁일본과": 8855,
      "▁MP": 8856,
      "▁귀여": 8857,
      "리다": 8858,
      "시켰다.": 8859,
      "▁CD": 8860,
      "-radius": 8861,
      "~4": 8862,
      "원들": 8863,
      "▁무엇보다": 8864,
      "▁아나운": 8865,
      "▁스타일": 8866,
      "▁문자": 8867,
      "▁대체로": 8868,
      "▁스파이": 8869,
      "▁に": 8870,
      "▁상호": 8871,
      "▁잡았": 8872,
      "외교": 8873,
      "▁게이지": 8874,
      "▁아이들": 8875,
      "▁회전": 8876,
      "사인": 8877,
      "시면": 8878,
      "었는데,": 8879,
      "▁있기에": 8880,
      "▁한남": 8881,
      "▁도와주": 8882,
      "▁기반으로": 8883,
      "언이": 8884,
      "▁아동": 8885,
      "ib": 8886,
      "▁5천": 8887,
      "▁부끄러운": 8888,
      "▁스트라이": 8889,
      "▁죽음을": 8890,
      "33": 8891,
      "▁격투": 8892,
      "▁말한다.\n": 8893,
      "▁초딩": 8894,
      "▁갑옷": 8895,
      "▁보험": 8896,
      "▁이번에는": 8897,
      "▁삶을": 8898,
      "니의": 8899,
      "▁수집": 8900,
      "오\n": 8901,
      "▁(1": 8902,
      "▁경호": 8903,
      "▁너무나": 8904,
      "▁듣는": 8905,
      "배를": 8906,
      "자료": 8907,
      "▁font": 8908,
      "▁드러나": 8909,
      "▁경상도": 8910,
      "해놓고": 8911,
      "랑이": 8912,
      "▁미래를": 8913,
      "즈키": 8914,
      "▁넘게": 8915,
      "차에": 8916,
      "▁전까지": 8917,
      "으신": 8918,
      "▁홍어": 8919,
      "없다\n": 8920,
      "▁신경쓰": 8921,
      "▁랭크": 8922,
      "▁오스": 8923,
      "▁경북": 8924,
      "졌다고": 8925,
      "▁확실한": 8926,
      "작이": 8927,
      "▁데모": 8928,
      ".)\n": 8929,
      "동으로": 8930,
      "▁호평": 8931,
      "▁해적": 8932,
      "▁불쌍한": 8933,
      "나가는": 8934,
      "▁도발": 8935,
      "▁1993년": 8936,
      "▁마이클": 8937,
      "▁아티": 8938,
      "▁AI": 8939,
      "정\n": 8940,
      "▁어마어마": 8941,
      "▁나면": 8942,
      "▁SS": 8943,
      "테인": 8944,
      "▁유저들이": 8945,
      "당하게": 8946,
      "▁8강": 8947,
      "베이": 8948,
      "▁선출": 8949,
      "▁쪽이": 8950,
      "▁시체": 8951,
      "▁말했다.": 8952,
      "▁border-radius": 8953,
      "버트": 8954,
      "▁모리": 8955,
      "▁명백": 8956,
      "▁스웨덴": 8957,
      "셔야": 8958,
      "▁홀로": 8959,
      "▁버리": 8960,
      "▁시대에": 8961,
      "▁끝날": 8962,
      "▁21세기": 8963,
      "▁대화를": 8964,
      "르를": 8965,
      "해졌다.": 8966,
      "▁창조": 8967,
      "폭탄": 8968,
      "▁도우": 8969,
      "▁막장": 8970,
      "관에": 8971,
      "기에서": 8972,
      "▁휘두": 8973,
      "▁이후의": 8974,
      "▁있냐?": 8975,
      "▁유대": 8976,
      "▁일본어": 8977,
      "▁사람에게": 8978,
      "통수": 8979,
      "러니": 8980,
      "▁대략": 8981,
      "ark": 8982,
      "▁성립": 8983,
      "단\n": 8984,
      "습니까?": 8985,
      "▁가면라이더": 8986,
      "▁세종": 8987,
      "▁장제": 8988,
      "▁그래픽": 8989,
      "주일": 8990,
      "▁게이트": 8991,
      "하겠다는": 8992,
      "▁펼쳐": 8993,
      "▁오늘날": 8994,
      "▁1991년": 8995,
      "4,": 8996,
      "▁갤럭시": 8997,
      "▁시급": 8998,
      "성\n": 8999,
      "▁헤드": 9000,
      "▁런던": 9001,
      "들인": 9002,
      "▁높이": 9003,
      "웠다.": 9004,
      "▁비하": 9005,
      "▁능력은": 9006,
      "▁보다는": 9007,
      "▁이쪽은": 9008,
      "▁코드": 9009,
      "▁75": 9010,
      "많이": 9011,
      "ial": 9012,
      "▁나왔다.\n": 9013,
      "▁생활을": 9014,
      "▁일관": 9015,
      "▁근처에": 9016,
      "▁보기\n": 9017,
      "▁테크": 9018,
      "▁드물": 9019,
      "▁듯하다.": 9020,
      "이었으나": 9021,
      "▁소재로": 9022,
      "▁세운": 9023,
      "▁곧바로": 9024,
      "▁비중이": 9025,
      "겠어": 9026,
      "아주": 9027,
      "인인": 9028,
      "호로": 9029,
      "▁막기": 9030,
      "ake": 9031,
      "▁빠르": 9032,
      "~~~~~~~~": 9033,
      "▁위키": 9034,
      "(현": 9035,
      "VP": 9036,
      "▁아니야": 9037,
      "▁37": 9038,
      "▁절망": 9039,
      "조차도": 9040,
      "▁우한폐렴": 9041,
      "아파트": 9042,
      "▁위치를": 9043,
      "시간에": 9044,
      "▁재난": 9045,
      "사령": 9046,
      "▁성격이": 9047,
      "▁돌아다니": 9048,
      "▁세금을": 9049,
      "BS)": 9050,
      "부\n": 9051,
      "▁피를": 9052,
      "▁정권은": 9053,
      "▁나이가": 9054,
      "청산": 9055,
      "▁inline": 9056,
      "▁가치": 9057,
      "▁고문": 9058,
      "▁학생들이": 9059,
      "▁진중권": 9060,
      "▁120": 9061,
      "▁잘라": 9062,
      "▁아니고,": 9063,
      "▁누구나": 9064,
      "▁천재": 9065,
      "들아.": 9066,
      "▁호남": 9067,
      "음.\n": 9068,
      "▁곳으로": 9069,
      "설을": 9070,
      "구나.\n": 9071,
      "공산당": 9072,
      "▁색깔": 9073,
      "▁렉": 9074,
      "(H": 9075,
      "▁시작한다.": 9076,
      "▁언론이": 9077,
      "해진다.": 9078,
      "▁2013": 9079,
      "▁자국": 9080,
      "▁드랍": 9081,
      "▁악의": 9082,
      "▁하려": 9083,
      "대장": 9084,
      "▁4.": 9085,
      "ord": 9086,
      "▁되자": 9087,
      "▁연상": 9088,
      "경에": 9089,
      "▁이용하는": 9090,
      "▁하더니": 9091,
      "adding": 9092,
      "거라고": 9093,
      "서도": 9094,
      "죄로": 9095,
      "과,": 9096,
      "▁!!": 9097,
      "▁원자": 9098,
      "마법": 9099,
      "▁목격": 9100,
      "▁위대한": 9101,
      "▁반발": 9102,
      "▁카드가": 9103,
      "▁제정신": 9104,
      "▁총을": 9105,
      "▁아시안": 9106,
      "▁30%": 9107,
      "▁시키는": 9108,
      "▁소화": 9109,
      "린이": 9110,
      "▁사라진": 9111,
      "▁푸른": 9112,
      "보호": 9113,
      "▁챙기": 9114,
      "▁청소": 9115,
      "나봐": 9116,
      "▁혁명": 9117,
      "▁격파": 9118,
      "▁한미": 9119,
      "▁수를": 9120,
      "로스": 9121,
      "ide": 9122,
      "▁다수의": 9123,
      "함으로써": 9124,
      "▁가드": 9125,
      "▁층": 9126,
      "▁말았다.": 9127,
      "▁오사카": 9128,
      "▁이긴": 9129,
      "▁허락": 9130,
      "ov": 9131,
      "▁소송": 9132,
      "▁폭풍": 9133,
      "있지": 9134,
      "▁있습니다.\n": 9135,
      "▁그들을": 9136,
      "▁오죽": 9137,
      "▁정의당": 9138,
      "니즘": 9139,
      "친다.": 9140,
      "▁'이": 9141,
      "하냐?\n": 9142,
      "내서": 9143,
      "▁인종": 9144,
      "ge": 9145,
      "프리": 9146,
      "▁되는데,": 9147,
      "▁가치가": 9148,
      "과도": 9149,
      "▁지나치게": 9150,
      "▁대량": 9151,
      "▁김진": 9152,
      "듯.\n": 9153,
      "▁김현": 9154,
      "평양": 9155,
      "기까지": 9156,
      "인데도": 9157,
      "미,": 9158,
      "▁제임": 9159,
      "그래도": 9160,
      "상도": 9161,
      "▁불꽃": 9162,
      "▁위조": 9163,
      "생을": 9164,
      "로만": 9165,
      "▁의문": 9166,
      "▁평가가": 9167,
      "2)\n": 9168,
      "!!!!!\n": 9169,
      "▁ᄒ\n": 9170,
      "조직": 9171,
      "고..": 9172,
      "라기": 9173,
      "▁설마": 9174,
      "된다는": 9175,
      "▁프린": 9176,
      "▁아일랜드": 9177,
      "▁공격력이": 9178,
      "▁어두": 9179,
      "▁내야": 9180,
      "▁틀어": 9181,
      "▁사유": 9182,
      "▁생애": 9183,
      "▁잠재": 9184,
      "▁대다수": 9185,
      "해질": 9186,
      "시킨다.": 9187,
      "▁기억을": 9188,
      "▁대하여": 9189,
      "▁자매": 9190,
      "면으로": 9191,
      "내려": 9192,
      "아지": 9193,
      "▁장교": 9194,
      "▁with": 9195,
      "가다": 9196,
      "▁쓰레기들": 9197,
      "▁콜라": 9198,
      "▁제5": 9199,
      "▁주장하는": 9200,
      "디가": 9201,
      "▁깔끔": 9202,
      "▁NC": 9203,
      "PG": 9204,
      "▁쓸어": 9205,
      "메이크": 9206,
      "만,": 9207,
      "▁비중": 9208,
      "▁맡고": 9209,
      "▁대통": 9210,
      "▁인간을": 9211,
      "관\n": 9212,
      "▁심하게": 9213,
      "▁확실하게": 9214,
      "▁알파": 9215,
      "▁외계": 9216,
      "▁간호": 9217,
      "▁캐릭터를": 9218,
      "▁배려": 9219,
      "display:": 9220,
      "▁올리고": 9221,
      "▁크고": 9222,
      "그릇": 9223,
      "▁검증": 9224,
      "날이": 9225,
      "▁있나?": 9226,
      "가면서": 9227,
      "드러": 9228,
      "분은": 9229,
      "▁하세요": 9230,
      "살이": 9231,
      "35": 9232,
      "▁물을": 9233,
      "▁싶으면": 9234,
      "▁정신병자": 9235,
      "▁20%": 9236,
      "▁이스라엘": 9237,
      "▁style=\"display:": 9238,
      "▁것만": 9239,
      "스트라": 9240,
      "▁분이": 9241,
      "할것": 9242,
      "▁근육": 9243,
      "▁크레": 9244,
      "▁클리": 9245,
      "림을": 9246,
      "▁존중": 9247,
      "▁..\n": 9248,
      "▁전투를": 9249,
      "▁멋진": 9250,
      "론이": 9251,
      "만으로도": 9252,
      "▁의뢰": 9253,
      "▁북쪽": 9254,
      "▁써야": 9255,
      "▁제법": 9256,
      "-19": 9257,
      "▁처형": 9258,
      "▁캐릭터의": 9259,
      "▁문가": 9260,
      "까진": 9261,
      "▁De": 9262,
      "▁저렴": 9263,
      "▁사죄": 9264,
      "▁성능을": 9265,
      "경은": 9266,
      "업체": 9267,
      "였다는": 9268,
      "(F": 9269,
      "▁width": 9270,
      "고한": 9271,
      "편이": 9272,
      "냐...": 9273,
      "77": 9274,
      "▁만만": 9275,
      "age": 9276,
      "▁옷을": 9277,
      "▁쓰기": 9278,
      "워드": 9279,
      "민의": 9280,
      "▁형태의": 9281,
      "▁시코": 9282,
      "운전": 9283,
      "거래": 9284,
      "▁본다.": 9285,
      "물은": 9286,
      "▁전력": 9287,
      "▁내구": 9288,
      "▁않았던": 9289,
      "▁비웃": 9290,
      "▁피의": 9291,
      "▁오랫동안": 9292,
      "▁직장": 9293,
      "대도": 9294,
      "▁개나": 9295,
      "▁돈은": 9296,
      "▁대깨문들": 9297,
      "adding:": 9298,
      "▁귀찮": 9299,
      "▁아케": 9300,
      "EN": 9301,
      "▁했는데,": 9302,
      "공화": 9303,
      "는거야": 9304,
      "동네": 9305,
      "▁내지": 9306,
      "▁메시": 9307,
      "노조": 9308,
      "(...).\n": 9309,
      "피스": 9310,
      "▁정도면": 9311,
      "▁단계": 9312,
      "▁ᄒᄒᄒ": 9313,
      "정,": 9314,
      "▁식민지": 9315,
      "질은": 9316,
      "▁컷": 9317,
      "▁노릇": 9318,
      "게\n": 9319,
      "역,": 9320,
      "됐다.\n": 9321,
      "하든": 9322,
      "▁(M": 9323,
      "연을": 9324,
      "'고": 9325,
      "데이": 9326,
      "IS": 9327,
      "▁Pro": 9328,
      "y\n": 9329,
      "▁일시": 9330,
      "관으로": 9331,
      "IT": 9332,
      "▁나불": 9333,
      "통일": 9334,
      "▁벌금": 9335,
      "▁NPC": 9336,
      "▁무효": 9337,
      "격으로": 9338,
      "▁않는다는": 9339,
      "▁마크": 9340,
      "그라": 9341,
      "▁여왕": 9342,
      "▁출산": 9343,
      "▁권총": 9344,
      "▁た": 9345,
      "시켜서": 9346,
      "요,": 9347,
      "▁골든": 9348,
      "▁단단": 9349,
      "인한": 9350,
      "음악": 9351,
      "▁하늘을": 9352,
      "▁허위": 9353,
      "66": 9354,
      "▁인지도": 9355,
      "연의": 9356,
      "부르크": 9357,
      "▁민폐": 9358,
      "다니엘": 9359,
      "▁긴급": 9360,
      "속으로": 9361,
      "달러": 9362,
      "▁너가": 9363,
      "▁듯하다.\n": 9364,
      "▁의견을": 9365,
      "방으로": 9366,
      "▁팬들이": 9367,
      "들과는": 9368,
      "▁비공": 9369,
      "▁되어야": 9370,
      "▁사라져": 9371,
      "▁일자": 9372,
      "▁확대": 9373,
      "▁압도적인": 9374,
      "▁아리": 9375,
      "▁할때": 9376,
      "해?": 9377,
      "다면서": 9378,
      "할까": 9379,
      "▁지진": 9380,
      "▁확산": 9381,
      "▁붙은": 9382,
      "▁정답": 9383,
      "꼴통": 9384,
      "▁복지": 9385,
      "이다..": 9386,
      "▁출장": 9387,
      "▁사거리": 9388,
      "▁입장에서": 9389,
      "약한": 9390,
      "▁있으나,": 9391,
      "이었다고": 9392,
      "▁맞서": 9393,
      "였으나": 9394,
      "▁각본": 9395,
      "단과": 9396,
      "▁도저히": 9397,
      "링을": 9398,
      "ick": 9399,
      "겠냐?": 9400,
      "▁하여간": 9401,
      "▁padding:": 9402,
      "▁조만": 9403,
      "▁외에는": 9404,
      "▁한동안": 9405,
      "▁|-\n": 9406,
      "▁한가": 9407,
      "▁MS": 9408,
      "▁존재한다.\n": 9409,
      "인데\n": 9410,
      "어와": 9411,
      "▁취임": 9412,
      "▁중소기업": 9413,
      "▁화력": 9414,
      "▁파이널": 9415,
      "▁올라온": 9416,
      "▁해주는": 9417,
      "간이": 9418,
      "상,": 9419,
      "하진": 9420,
      "반대": 9421,
      "▁대한민국에": 9422,
      "▁자존심": 9423,
      "▁결성": 9424,
      "이었고,": 9425,
      "▁대통령의": 9426,
      "들이다.": 9427,
      "지리": 9428,
      "▁저장": 9429,
      "▁Wh": 9430,
      "▁못해서": 9431,
      "▁도중에": 9432,
      "▁태풍": 9433,
      "▁더빙": 9434,
      "있을": 9435,
      "데스": 9436,
      "▁지은": 9437,
      "레이터": 9438,
      "▁벌어진": 9439,
      "행이": 9440,
      "▁바이러": 9441,
      "▁부추": 9442,
      "라이언": 9443,
      "▁마법사": 9444,
      "▁힘들게": 9445,
      "▁초창": 9446,
      "▁죽었": 9447,
      "▁카나": 9448,
      "▁2주": 9449,
      "네..\n": 9450,
      "▁나중": 9451,
      "▁파는": 9452,
      "''": 9453,
      "부인": 9454,
      "▁마이너": 9455,
      "후보": 9456,
      "▁화를": 9457,
      "왔다.\n": 9458,
      "겠네\n": 9459,
      "▁건국": 9460,
      "▁넣고": 9461,
      "미아": 9462,
      "▁하나같이": 9463,
      "기면": 9464,
      ";;\n": 9465,
      "rom": 9466,
      "▁전에는": 9467,
      "편의": 9468,
      "▁창작": 9469,
      "내며": 9470,
      "▁파트너": 9471,
      "HE": 9472,
      "네...\n": 9473,
      "트워": 9474,
      "아니고": 9475,
      "류의": 9476,
      "▁관객": 9477,
      "▁파리": 9478,
      "▁출현": 9479,
      "▁아니라면": 9480,
      "▁뇌물": 9481,
      "▁모바일": 9482,
      "▁변형": 9483,
      "학적": 9484,
      "▁이집": 9485,
      "▁보관": 9486,
      "훈련": 9487,
      "미국": 9488,
      "▁정지": 9489,
      "▁관할": 9490,
      "▁홈페이지\n": 9491,
      "학자": 9492,
      "▁아부": 9493,
      "▁국개의": 9494,
      "▁최우": 9495,
      "하더라도": 9496,
      "▁끊어": 9497,
      "▁포르투": 9498,
      "카오": 9499,
      "▁레오": 9500,
      "▁개교": 9501,
      "▁손혜원": 9502,
      "들보다": 9503,
      "ix": 9504,
      "▁세계를": 9505,
      "▁강경": 9506,
      "▁재정": 9507,
      "▁2012": 9508,
      "FF": 9509,
      "▁선생님": 9510,
      "▁과거의": 9511,
      "▁어렵다.": 9512,
      "95": 9513,
      "냐???": 9514,
      "차례": 9515,
      "▁남쪽": 9516,
      "▁행성": 9517,
      "▁비례대표": 9518,
      "▁정황": 9519,
      "무가": 9520,
      "▁마츠": 9521,
      "▁남긴": 9522,
      "▁주둔": 9523,
      "▁판타지": 9524,
      "▁중계": 9525,
      "보스": 9526,
      "▁출신의": 9527,
      "▁현장": 9528,
      "▁4개": 9529,
      "▁아바": 9530,
      "▁이은": 9531,
      "▁가시": 9532,
      "▁다음날": 9533,
      "맞는": 9534,
      "▁수천": 9535,
      "▁며칠": 9536,
      "▁실력이": 9537,
      "▁놓은": 9538,
      "▁배워": 9539,
      "▁중공": 9540,
      "달라는": 9541,
      "▁딸이": 9542,
      "ᅳᅳ\n": 9543,
      "-siz": 9544,
      "▁55": 9545,
      "▁국가를": 9546,
      "▁후쿠시마": 9547,
      "야의": 9548,
      "▁반응이": 9549,
      "홈런": 9550,
      "▁왜냐": 9551,
      "▁반도체": 9552,
      "터테인": 9553,
      "▁부정선거": 9554,
      "▁컵": 9555,
      "▁영구": 9556,
      "▁잘못을": 9557,
      "되는거": 9558,
      "▁블러": 9559,
      "▁이참에": 9560,
      "▁반대하는": 9561,
      "▁적응": 9562,
      "▁발언을": 9563,
      "▁생기는": 9564,
      "▁리메이크": 9565,
      "▁곡을": 9566,
      "▁전철": 9567,
      "▁주먹": 9568,
      "orm": 9569,
      "하기가": 9570,
      "▁식당": 9571,
      "화되어": 9572,
      "▁4강": 9573,
      "▁방송에서": 9574,
      "▁자신도": 9575,
      "▁저주": 9576,
      "▁대리": 9577,
      "이었고": 9578,
      "성공": 9579,
      "い\n": 9580,
      "테이": 9581,
      "▁플랫": 9582,
      "▁효과는": 9583,
      "▁전후": 9584,
      "ear": 9585,
      "▁시달": 9586,
      "▁기재": 9587,
      "▁(2": 9588,
      "하네요": 9589,
      "간첩": 9590,
      "▁날뛰": 9591,
      "▁해골": 9592,
      "~!": 9593,
      "▁하나만": 9594,
      "▁앞두고": 9595,
      "▁두려워": 9596,
      "▁그라": 9597,
      "▁음반\n": 9598,
      "전\n": 9599,
      "색으로": 9600,
      "▁갔다": 9601,
      "알바": 9602,
      "▁소위": 9603,
      "▁피해가": 9604,
      "ph": 9605,
      "▁않도록": 9606,
      "▁CC": 9607,
      "▁애들은": 9608,
      "따위": 9609,
      "▁오늘도": 9610,
      "▁존재하지": 9611,
      "'에서": 9612,
      "▁지역에서": 9613,
      "점,": 9614,
      "▁또다시": 9615,
      "▁베어": 9616,
      "▁다루는": 9617,
      "▁중도": 9618,
      "▁An": 9619,
      "▁여기는": 9620,
      "▁수수": 9621,
      "▁개돼지들": 9622,
      "▁어의": 9623,
      "▁중에는": 9624,
      "▁필리핀": 9625,
      "▁-2": 9626,
      "군으로": 9627,
      "▁추격": 9628,
      "▁김정은이": 9629,
      "▁1988년": 9630,
      "bl": 9631,
      "갔다.\n": 9632,
      "▁철거": 9633,
      "▁목을": 9634,
      "▁평양": 9635,
      "▁대대": 9636,
      "▁사건의": 9637,
      "하였으나": 9638,
      "▁떠난": 9639,
      "▁에드": 9640,
      "▁마다": 9641,
      "자라고": 9642,
      "▁이후,": 9643,
      "-size:": 9644,
      "▁전공": 9645,
      "편에서": 9646,
      "▁곳은": 9647,
      "▁Un": 9648,
      "▁올렸": 9649,
      "▁하지말": 9650,
      "약이": 9651,
      "▁여자는": 9652,
      "▁사랑을": 9653,
      "▁지역을": 9654,
      "▁구글": 9655,
      "▁분들": 9656,
      "▁기능이": 9657,
      "▁ᅲ": 9658,
      "()가": 9659,
      "▁플레이를": 9660,
      "모습": 9661,
      "▁이정": 9662,
      "당\n": 9663,
      "▁양쪽": 9664,
      "▁188": 9665,
      "▁이치": 9666,
      "ies": 9667,
      "▁붙잡": 9668,
      "▁욕먹": 9669,
      "작의": 9670,
      "부장관": 9671,
      "▁장수": 9672,
      "▁사랑하는": 9673,
      "리는데": 9674,
      "키와": 9675,
      "▁등,": 9676,
      "▁안티": 9677,
      "▁수송": 9678,
      "▁노르": 9679,
      "▁계약을": 9680,
      "피해": 9681,
      "▁설정이": 9682,
      "▁경제는": 9683,
      "▁자본주의": 9684,
      "▁떠오": 9685,
      "조로": 9686,
      "▁자격이": 9687,
      "회는": 9688,
      "▁파라": 9689,
      "가도": 9690,
      "▁킨": 9691,
      "줘도": 9692,
      "▁부모님": 9693,
      "▁꿈을": 9694,
      "▁거다.": 9695,
      "것처럼": 9696,
      "더라\n": 9697,
      "▁공개된": 9698,
      "▁코로나19": 9699,
      "▁가스": 9700,
      "▁규칙": 9701,
      "▁중독": 9702,
      "▁만세": 9703,
      "미와": 9704,
      "추어": 9705,
      "야구": 9706,
      "일도": 9707,
      "▁몽골": 9708,
      "▁발을": 9709,
      "▁입력": 9710,
      "막을": 9711,
      "▁FA": 9712,
      "세상": 9713,
      "정권이": 9714,
      "▁투명": 9715,
      "▁가즈": 9716,
      "실로": 9717,
      "▁억지로": 9718,
      "▁소프트웨": 9719,
      "ᄒᄒ\n": 9720,
      "▁쳤": 9721,
      "▁식물": 9722,
      "▁sh": 9723,
      "▁맞을": 9724,
      "▁떨어뜨": 9725,
      "▁인형": 9726,
      "마루": 9727,
      "▁성추": 9728,
      "▁버닝": 9729,
      "▁background:": 9730,
      "▁인스타": 9731,
      "시키기": 9732,
      "해지고": 9733,
      "내지": 9734,
      "▁우수": 9735,
      "▁정치적으로": 9736,
      "▁무작": 9737,
      "▁팬들은": 9738,
      "타\n": 9739,
      "법에": 9740,
      "▁고쳐": 9741,
      "▁밝힌": 9742,
      "판의": 9743,
      "▁하나씩": 9744,
      "▁되었다고": 9745,
      "ᄃ\n": 9746,
      "▁저딴": 9747,
      "▁지나가는": 9748,
      "▁마시고": 9749,
      "▁이영": 9750,
      "노가": 9751,
      "▁실력을": 9752,
      "▁Lv": 9753,
      "수있는": 9754,
      "▁게임\n": 9755,
      "공사": 9756,
      "종을": 9757,
      "▁마땅": 9758,
      "이었지만": 9759,
      "데\n": 9760,
      "살아": 9761,
      "것만": 9762,
      "▁이상이": 9763,
      "▁튜": 9764,
      "▁기득권": 9765,
      "▁전부터": 9766,
      "무슨": 9767,
      "▁응원합니다": 9768,
      "▁1989년": 9769,
      "▁너를": 9770,
      "성장": 9771,
      "▁좋아서": 9772,
      "민은": 9773,
      "망을": 9774,
      "▁제외하고": 9775,
      "▁커플": 9776,
      "있다고": 9777,
      "▁마니": 9778,
      "▁너나": 9779,
      "▁ᅳᅳ\n": 9780,
      "▁30년": 9781,
      "▁힘들다.": 9782,
      "▁그것은": 9783,
      "▁불이": 9784,
      "▁이해찬": 9785,
      "국제": 9786,
      "▁잃고": 9787,
      "75": 9788,
      "되었을": 9789,
      "▁크다.": 9790,
      "다나": 9791,
      "▁방역": 9792,
      "▁대변인": 9793,
      "나라의": 9794,
      "▁이자": 9795,
      "▁기관총": 9796,
      "등이": 9797,
      "▁나오는데": 9798,
      "▁주택": 9799,
      "넘들": 9800,
      "받지": 9801,
      "▁시대의": 9802,
      "줄이": 9803,
      "▁미츠": 9804,
      "▁오전": 9805,
      "▁받으면": 9806,
      "mer": 9807,
      "(N": 9808,
      "누가": 9809,
      "▁한자": 9810,
      "▁보았": 9811,
      "▁리엄": 9812,
      "▁전광": 9813,
      "olor": 9814,
      "▁사서": 9815,
      "▁침묵": 9816,
      "sh": 9817,
      "▁침공": 9818,
      "▁이끄": 9819,
      "▁역임": 9820,
      "▁레코": 9821,
      "▁그러면서": 9822,
      "▁3D": 9823,
      "▁세우": 9824,
      "▁안달": 9825,
      "보지": 9826,
      "▁후배": 9827,
      "과\n": 9828,
      "▁자세히": 9829,
      "▁감히": 9830,
      "▁대한민국에서": 9831,
      "65": 9832,
      "▁밝혀진": 9833,
      "통신": 9834,
      "▁말라": 9835,
      "▁거짓말을": 9836,
      "▁졸라": 9837,
      "▁포장": 9838,
      "▁플레": 9839,
      "▁나갈": 9840,
      "▁보건": 9841,
      "스트를": 9842,
      "동은": 9843,
      "▁노벨": 9844,
      "됨\n": 9845,
      "▁이상으로": 9846,
      "바람": 9847,
      "▁정류": 9848,
      "▁프란": 9849,
      "▁3위": 9850,
      "▁방법으로": 9851,
      "▁1987년": 9852,
      "▁전쟁이": 9853,
      "▁생각할": 9854,
      "▁까다": 9855,
      "▁승부": 9856,
      "▁문재인과": 9857,
      "▁팬덤": 9858,
      "▁경기는": 9859,
      "들면": 9860,
      "▁것들은": 9861,
      "▁지니고": 9862,
      "▁아저씨": 9863,
      "▁부상을": 9864,
      "▁전체를": 9865,
      "▁불가능한": 9866,
      "▁청산": 9867,
      "▁공군": 9868,
      "▁얼굴에": 9869,
      "ES": 9870,
      "▁내의": 9871,
      "▁부를": 9872,
      "▁만날": 9873,
      "▁여태": 9874,
      "▁독자": 9875,
      "▁블록": 9876,
      "▁이어지는": 9877,
      "것으로": 9878,
      "▁다룬": 9879,
      "▁방치": 9880,
      "▁스카이": 9881,
      "증이": 9882,
      "row": 9883,
      "▁일본인": 9884,
      "▁바꾼": 9885,
      "줄알": 9886,
      "함은": 9887,
      "▁구경": 9888,
      "▁왕국": 9889,
      "eg": 9890,
      "▁주전": 9891,
      "▁차고": 9892,
      "▁본선": 9893,
      "▁더한": 9894,
      "▁특이한": 9895,
      "마나": 9896,
      "▁김재": 9897,
      "▁제2차": 9898,
      "하가": 9899,
      "▁2010": 9900,
      "라에": 9901,
      "The": 9902,
      "▁무서워": 9903,
      "▁달창들": 9904,
      "▁2세": 9905,
      "투를": 9906,
      "▁강의": 9907,
      "▁박근혜가": 9908,
      "▁ST": 9909,
      "명에": 9910,
      "▁고객": 9911,
      "▁갑질": 9912,
      "▁틴": 9913,
      "▁비율": 9914,
      "아프": 9915,
      "▁아픈": 9916,
      "▁필드": 9917,
      "곡을": 9918,
      "토는": 9919,
      "▁버렸": 9920,
      "▁내주": 9921,
      "포가": 9922,
      "복지": 9923,
      "면에서": 9924,
      "▁공격에": 9925,
      "\"이라고": 9926,
      "▁이전의": 9927,
      "▁스킬이": 9928,
      "▁폭주": 9929,
      "티아": 9930,
      "요!": 9931,
      "대기": 9932,
      "▁유통": 9933,
      "▁안된다": 9934,
      "▁플로": 9935,
      "▁기록했다.": 9936,
      "》의": 9937,
      "▁뽑았": 9938,
      "▁마냥": 9939,
      "▁퇴출": 9940,
      "거냐?": 9941,
      "▁깨달": 9942,
      "음에": 9943,
      "▁작중에서": 9944,
      "▁이끌고": 9945,
      "▁스튜디오": 9946,
      "▁살아야": 9947,
      "화한": 9948,
      "▁합성": 9949,
      "명\n": 9950,
      "미사": 9951,
      "▁만들었다.": 9952,
      "하지\n": 9953,
      "▁천벌": 9954,
      "▁??": 9955,
      "▁아이디": 9956,
      "▁집으로": 9957,
      "▁금액": 9958,
      "▁업체": 9959,
      "▁늦게": 9960,
      "교를": 9961,
      "▁판정": 9962,
      "▁탱커": 9963,
      "▁들어가서": 9964,
      "▁개방": 9965,
      "▁죽기": 9966,
      "오지": 9967,
      "▁좌익": 9968,
      "등의": 9969,
      "▁엉망": 9970,
      "장.": 9971,
      "라...": 9972,
      "타입": 9973,
      "▁당할": 9974,
      "oy": 9975,
      "▁나서서": 9976,
      "▁가족이": 9977,
      "▁뜻은": 9978,
      "▁큰일": 9979,
      "ber": 9980,
      "네들": 9981,
      "▁올릴": 9982,
      "▁만들기": 9983,
      "6,": 9984,
      "야,": 9985,
      "계는": 9986,
      "▁사용한다.\n": 9987,
      "▁US": 9988,
      "▁놀고": 9989,
      "고생": 9990,
      "▁리가": 9991,
      "▁싸움을": 9992,
      "▁토모": 9993,
      "자키": 9994,
      "▁39": 9995,
      "아들": 9996,
      "▁성적을": 9997,
      "▁브리": 9998,
      "▁30분": 9999,
      "혀서": 10000,
      "▁경향이": 10001,
      "▁타는": 10002,
      "▁삼성이": 10003,
      "▁하는건": 10004,
      "▁놈들은": 10005,
      "카페": 10006,
      "이면서": 10007,
      "eat": 10008,
      "▁자폭": 10009,
      "짓거리": 10010,
      "▁아니냐는": 10011,
      "▁아쉬운": 10012,
      "▁현실을": 10013,
      "▁적절한": 10014,
      "▁근로": 10015,
      "역의": 10016,
      "▁방에": 10017,
      "▁요괴": 10018,
      "거다\n": 10019,
      "▁통치": 10020,
      "▁공격하는": 10021,
      "▁청구": 10022,
      "▁CP": 10023,
      "▁유독": 10024,
      "argin:": 10025,
      "▁일에": 10026,
      "▁만다.": 10027,
      "▁저그": 10028,
      "▁마도": 10029,
      "▁상향": 10030,
      "▁것이다": 10031,
      "▁휘둘": 10032,
      "인가\n": 10033,
      "터의": 10034,
      "▁메카": 10035,
      "▁예선": 10036,
      "▁움직이는": 10037,
      "레일": 10038,
      "▁북으로": 10039,
      "▁열차": 10040,
      "▁하니까": 10041,
      "라!\n": 10042,
      "▁미국과": 10043,
      "선생": 10044,
      "▁증언": 10045,
      "슈타": 10046,
      ":\n": 10047,
      "트랙": 10048,
      "실히": 10049,
      "▁유희": 10050,
      "▁여객": 10051,
      "▁하거나": 10052,
      "▁최신": 10053,
      "석에": 10054,
      "▁크로스": 10055,
      "▁캐스팅": 10056,
      "▁위주로": 10057,
      "▁되돌": 10058,
      "급이": 10059,
      "▁해병": 10060,
      "▁알리": 10061,
      "▁어드": 10062,
      "................": 10063,
      "고...": 10064,
      "대변": 10065,
      "▁주차": 10066,
      "장애": 10067,
      "▁간혹": 10068,
      "나..": 10069,
      "▁문헌": 10070,
      "▁신상": 10071,
      "▁아냐?": 10072,
      "▁무뇌": 10073,
      "▁()": 10074,
      "▁16강": 10075,
      "▁주둥이": 10076,
      "▁마리오": 10077,
      "화와": 10078,
      "▁앞뒤": 10079,
      "했어": 10080,
      "▁각자": 10081,
      "집을": 10082,
      "▁아닌가?\n": 10083,
      "▁터뜨": 10084,
      "▁내려와": 10085,
      "▁유튜버": 10086,
      "▁브루": 10087,
      "▁썩어": 10088,
      "▁유학": 10089,
      "▁신앙": 10090,
      "▁중에서는": 10091,
      "▁부수": 10092,
      "시키면": 10093,
      "게이": 10094,
      "▁border-radius:": 10095,
      "냈다.\n": 10096,
      "▁강원도": 10097,
      "전,": 10098,
      "▁정복": 10099,
      "▁전파": 10100,
      "소나": 10101,
      "a\n": 10102,
      "▁ᄍᄍᄍ\n": 10103,
      "대응": 10104,
      "▁미디어": 10105,
      "해야할": 10106,
      "act": 10107,
      "▁못했다.\n": 10108,
      "기준": 10109,
      "23": 10110,
      "(4": 10111,
      "▁사용하고": 10112,
      "▁편하게": 10113,
      "석의": 10114,
      "▁사용하여": 10115,
      "▁유치원": 10116,
      "▁양성": 10117,
      "▁헤이": 10118,
      "▁결합": 10119,
      "스톤": 10120,
      "▁울트라": 10121,
      "각이": 10122,
      "태를": 10123,
      "인데...": 10124,
      "▁은근히": 10125,
      "▁기원전": 10126,
      "안은": 10127,
      "ory": 10128,
      "수엘": 10129,
      "▁비판을": 10130,
      "▁사고를": 10131,
      "▁원인이": 10132,
      "하거나,": 10133,
      "▁감옥에": 10134,
      "▁OOO들": 10135,
      "▁깨한": 10136,
      "▁징징": 10137,
      "때부터": 10138,
      "했지": 10139,
      "▁기름": 10140,
      "▁사용하지": 10141,
      "▁웃기는": 10142,
      "▁전성": 10143,
      "익을": 10144,
      "▁마리아": 10145,
      "▁걸렸": 10146,
      "▁시켰": 10147,
      "▁얘기를": 10148,
      "▁진작": 10149,
      "동맹": 10150,
      "▁투쟁": 10151,
      "▁말이다.": 10152,
      "환을": 10153,
      "일베": 10154,
      "▁주제": 10155,
      "▁점수": 10156,
      "▁콤보": 10157,
      "▁그날": 10158,
      "%를": 10159,
      "로워": 10160,
      "▁명을": 10161,
      "▁PD": 10162,
      "▁체력을": 10163,
      "▁줄여": 10164,
      "▁2부": 10165,
      "▁어딘": 10166,
      "▁회수": 10167,
      "▁메뉴": 10168,
      "▁자이언": 10169,
      "▁상업": 10170,
      "▁말아야": 10171,
      "▁부자": 10172,
      "브라": 10173,
      "게이트": 10174,
      "▁확진자가": 10175,
      "▁작품의": 10176,
      "금으로": 10177,
      "▁호주": 10178,
      "▁마침내": 10179,
      "전과": 10180,
      "▁블로그": 10181,
      "슬러": 10182,
      "▁패션": 10183,
      "▁갖춘": 10184,
      "길\n": 10185,
      "▁스트리": 10186,
      "▁새누리": 10187,
      "▁여론조작": 10188,
      "번호": 10189,
      "ID": 10190,
      "린의": 10191,
      "▁결국은": 10192,
      "▁보라": 10193,
      "▁나라꼴": 10194,
      "판에서": 10195,
      "▁3회": 10196,
      "▁성별": 10197,
      "▁1980년": 10198,
      "로써": 10199,
      "▁총알": 10200,
      "▁차가": 10201,
      "▁개시": 10202,
      "▁상관없이": 10203,
      "▁기자가": 10204,
      "츠의": 10205,
      "▁과도": 10206,
      "▁동성애": 10207,
      "▁임신": 10208,
      "▁유출": 10209,
      "모르": 10210,
      "▁국민에게": 10211,
      "▁놀랍": 10212,
      "▁사운드": 10213,
      "▁활발": 10214,
      "▁어디까지나": 10215,
      "▁집착": 10216,
      "었으나": 10217,
      "야가": 10218,
      "▁의지": 10219,
      "▁반격": 10220,
      "▁다카": 10221,
      "▁주니": 10222,
      "▁보물": 10223,
      "▁자칭": 10224,
      "팀이": 10225,
      "▁박영": 10226,
      "▁아머": 10227,
      "▁포스트": 10228,
      "▁이정도면": 10229,
      "▁넘쳐": 10230,
      "▁완벽한": 10231,
      "▁버리는": 10232,
      "▁합법": 10233,
      "▁타케": 10234,
      "▁이끄는": 10235,
      "▁이언": 10236,
      "==": 10237,
      "▁he": 10238,
      "▁안좋": 10239,
      "▁생각도": 10240,
      "▁조만간": 10241,
      "▁친구가": 10242,
      "▁방위": 10243,
      "▁1대": 10244,
      "▁죽어나": 10245,
      "▁자동으로": 10246,
      "7,": 10247,
      "▁경제를": 10248,
      "움이": 10249,
      "▁준우승": 10250,
      "▁루트": 10251,
      "▁분위기가": 10252,
      "OL": 10253,
      "▁개막": 10254,
      "제국": 10255,
      "영의": 10256,
      "▁전멸": 10257,
      "타와": 10258,
      "1)\n": 10259,
      "▁막고": 10260,
      "하루": 10261,
      "per": 10262,
      "진,": 10263,
      "▁정령": 10264,
      "▁폴란드": 10265,
      "는데.": 10266,
      "▁용의": 10267,
      "니는": 10268,
      "버렸다.\n": 10269,
      "스도": 10270,
      "RA": 10271,
      "▁2의": 10272,
      "▁마법을": 10273,
      "비,": 10274,
      "열한": 10275,
      "버그": 10276,
      "안의": 10277,
      "▁기사는": 10278,
      "▁농구": 10279,
      "28": 10280,
      "▁발생한": 10281,
      "▁둘은": 10282,
      "실,": 10283,
      "▁프라": 10284,
      "▁동참": 10285,
      "▁맞았": 10286,
      "」\n": 10287,
      "▁방출": 10288,
      "▁황교활": 10289,
      "▁리포": 10290,
      "▁기사에": 10291,
      "▁빛을": 10292,
      "-8": 10293,
      "예술": 10294,
      "▁목소리가": 10295,
      "▁동영상": 10296,
      "▁좃선": 10297,
      "리얼": 10298,
      "▁과정을": 10299,
      "▁IM": 10300,
      "▁개신교": 10301,
      "▁죄송": 10302,
      "졌고,": 10303,
      "탄핵": 10304,
      "회견": 10305,
      "4\n": 10306,
      "즈\n": 10307,
      "파는": 10308,
      "▁막는": 10309,
      "구멍": 10310,
      "모드": 10311,
      "정과": 10312,
      "▁나갔": 10313,
      "io": 10314,
      "재산": 10315,
      "▁우연히": 10316,
      "▁한게": 10317,
      "했네": 10318,
      "▁마술": 10319,
      "▁전국민": 10320,
      "▁국민들에게": 10321,
      "▁이글": 10322,
      "▁싸이": 10323,
      "먹어": 10324,
      "▁공식적으로": 10325,
      "▁살게": 10326,
      "▁사용해": 10327,
      "▁style=\"m": 10328,
      "듯한": 10329,
      "▁미통당": 10330,
      "살인": 10331,
      "▁무기로": 10332,
      "▁정확히는": 10333,
      "우,": 10334,
      "▁가벼": 10335,
      "▁최다": 10336,
      "%의": 10337,
      "!)": 10338,
      "▁IS": 10339,
      "는가": 10340,
      "치며": 10341,
      "▁부들": 10342,
      "▁하셨": 10343,
      "▁맛이": 10344,
      "▁칼을": 10345,
      "▁일으켜": 10346,
      "▁박그네": 10347,
      "졌을": 10348,
      "▁떠나서": 10349,
      "1.": 10350,
      "취급": 10351,
      "▁하냐": 10352,
      "▁않겠": 10353,
      "▁꼬리": 10354,
      "▁수능": 10355,
      "▁by": 10356,
      "것이다\n": 10357,
      "▁네덜란드": 10358,
      "▁목포": 10359,
      "▁아니다\n": 10360,
      "OP": 10361,
      "▁아이콘": 10362,
      "▁웃음": 10363,
      "orld": 10364,
      "▁역시나": 10365,
      "군,": 10366,
      "▁간부": 10367,
      "▁감방": 10368,
      "ile": 10369,
      "▁마음대로": 10370,
      "▁가르쳐": 10371,
      "▁집합": 10372,
      "노의": 10373,
      "업이": 10374,
      "▁계기로": 10375,
      "부터가": 10376,
      "더러": 10377,
      "▁구성되어": 10378,
      "▁없다면": 10379,
      "▁VS": 10380,
      "됩니다.": 10381,
      "▁UE": 10382,
      "▁좋고": 10383,
      "▁문학": 10384,
      "미로": 10385,
      "▁1등": 10386,
      "▁font-size:": 10387,
      "~~~~\n": 10388,
      "▁리티": 10389,
      "▁중국과": 10390,
      "▁구원": 10391,
      "▁무적": 10392,
      "▁특혜": 10393,
      "파이": 10394,
      "▁않는다": 10395,
      "▁무엇을": 10396,
      "▁켜": 10397,
      "▁윤미향": 10398,
      "▁숫자": 10399,
      "▁날개": 10400,
      "▁다이아": 10401,
      "▁철도역\n": 10402,
      "▁돈도": 10403,
      "▁지지율이": 10404,
      "역사": 10405,
      "미래": 10406,
      "▁안쓰": 10407,
      "▁것이었다.": 10408,
      "▁하여튼": 10409,
      "▁싸운": 10410,
      "%로": 10411,
      "▁국무": 10412,
      "▁급격": 10413,
      "▁국가에서": 10414,
      "시스템": 10415,
      "▁접속": 10416,
      "층이": 10417,
      "하자고": 10418,
      "주교": 10419,
      "▁미래가": 10420,
      "▁나가서": 10421,
      "▁style=\"margin:": 10422,
      "▁보내는": 10423,
      "▁어디로": 10424,
      "들여": 10425,
      "▁대개": 10426,
      "▁해봐": 10427,
      "▁우습게": 10428,
      "매국": 10429,
      "▁미스터": 10430,
      "!)\n": 10431,
      "▁공직": 10432,
      "▁댓글을": 10433,
      "▁진단": 10434,
      "으로서의": 10435,
      "▁아르티": 10436,
      "못한": 10437,
      "▁성범죄": 10438,
      "▁독특": 10439,
      "▁맞다.": 10440,
      "▁사태가": 10441,
      "거에": 10442,
      "▁부서": 10443,
      "자체": 10444,
      "▁스미": 10445,
      "하지마라": 10446,
      "▁라이더": 10447,
      "마\n": 10448,
      "▁가지가지": 10449,
      "▁나쁘지": 10450,
      "운영": 10451,
      "▁누군가": 10452,
      ":00": 10453,
      "▁프로그램\n": 10454,
      "방향": 10455,
      "클럽": 10456,
      "▁프라이": 10457,
      "이제": 10458,
      "▁가능성도": 10459,
      "구와": 10460,
      "▁쉽지": 10461,
      "id=": 10462,
      "▁지키는": 10463,
      "신으로": 10464,
      "▁가속": 10465,
      "리라": 10466,
      "▁전과": 10467,
      "스러워": 10468,
      "▁넘어서": 10469,
      "란다": 10470,
      "▁속으로": 10471,
      "▁퀴": 10472,
      "▁자유를": 10473,
      "▁오만": 10474,
      "레오": 10475,
      "▁법정": 10476,
      "▁인성": 10477,
      "▁농담": 10478,
      "▁나름대로": 10479,
      "▁천지": 10480,
      "▁이상을": 10481,
      "▁있냐": 10482,
      "▁탈북": 10483,
      "TBC": 10484,
      "▁있었을": 10485,
      "▁지경": 10486,
      "▁한편,": 10487,
      "▁적어": 10488,
      "▁사토": 10489,
      "▁뭐냐?": 10490,
      "비리": 10491,
      "▁별다른": 10492,
      "▁???": 10493,
      "▁문재앙은": 10494,
      "말에": 10495,
      "▁무방": 10496,
      "노우": 10497,
      "못해": 10498,
      "▁포탑": 10499,
      "▁따뜻": 10500,
      "▁줘야": 10501,
      "▁요즘은": 10502,
      "▁포르투갈": 10503,
      "지고,": 10504,
      "상과": 10505,
      "▁하라": 10506,
      "▁화학": 10507,
      "맞고": 10508,
      "▁소총": 10509,
      "▁코스프레": 10510,
      "▁대접": 10511,
      "▁인구는": 10512,
      "ish": 10513,
      "▁MA": 10514,
      "▁DLC": 10515,
      "▁나아가": 10516,
      "금은": 10517,
      "▁겁나": 10518,
      "▁조장": 10519,
      "▁싶다": 10520,
      "보도": 10521,
      "나...": 10522,
      "▁분위기를": 10523,
      "▁것일": 10524,
      "▁조선의": 10525,
      "▁왕따": 10526,
      "▁소형": 10527,
      "3)\n": 10528,
      "▁\"그": 10529,
      "BA": 10530,
      "▁율": 10531,
      "▁안드로이드": 10532,
      "▁폭격": 10533,
      "분열": 10534,
      "고에": 10535,
      "묘한": 10536,
      "man": 10537,
      "ave": 10538,
      "▁유발": 10539,
      "▁안되고": 10540,
      "▁더불어민주당": 10541,
      "▁빌려": 10542,
      "▁자제": 10543,
      "왔던": 10544,
      "▁공무": 10545,
      "▁자유당": 10546,
      "마스크": 10547,
      "하지.": 10548,
      "▁커맨": 10549,
      "세한": 10550,
      "▁인터뷰에서": 10551,
      "▁잡지": 10552,
      "경의": 10553,
      "▁도박": 10554,
      "▁타락": 10555,
      "▁대사를": 10556,
      "▁몰고": 10557,
      "▁맞으면": 10558,
      "▁동시": 10559,
      "▁김어준": 10560,
      "▁장면을": 10561,
      "단,": 10562,
      "로와": 10563,
      "자체가": 10564,
      "▁백성": 10565,
      "▁SNS": 10566,
      "▁전체가": 10567,
      "자한당": 10568,
      "스트가": 10569,
      "▁명령을": 10570,
      "▁아기": 10571,
      "▁지나가": 10572,
      "bc": 10573,
      "▁금메달": 10574,
      "▁채택": 10575,
      "▁해놓고": 10576,
      "▁애비": 10577,
      "ich": 10578,
      "!!!!!": 10579,
      "▁보내고": 10580,
      "▁보존": 10581,
      "▁관여": 10582,
      "▁팬들의": 10583,
      "▁니다.": 10584,
      "끼는": 10585,
      "관,": 10586,
      "▁맘에": 10587,
      "▁들려": 10588,
      "▁무렵": 10589,
      "▁알지": 10590,
      "▁이즈": 10591,
      "▁일당": 10592,
      "▁비핵": 10593,
      "▁your": 10594,
      "다의": 10595,
      "▁들어가면": 10596,
      "▁ᄉᄁ": 10597,
      "오리": 10598,
      "네는": 10599,
[...]
